#include "magic_wand_model_data.h"

// We need to keep the data array aligned on some architectures.
#ifdef __has_attribute
#define HAVE_ATTRIBUTE(x) __has_attribute(x)
#else
#define HAVE_ATTRIBUTE(x) 0
#endif
#if HAVE_ATTRIBUTE(aligned) || (defined(__GNUC__) && !defined(__clang__))
#define DATA_ALIGN_ATTRIBUTE __attribute__((aligned(4)))
#else
#define DATA_ALIGN_ATTRIBUTE
#endif

const unsigned char g_magic_wand_model_data[] DATA_ALIGN_ATTRIBUTE = {
  // Paste the data of the char array in `src/model.cc` here
  0x1c, 0x00, 0x00, 0x00, 0x54, 0x46, 0x4c, 0x33, 0x14, 0x00, 0x20, 0x00,
  0x04, 0x00, 0x08, 0x00, 0x0c, 0x00, 0x10, 0x00, 0x14, 0x00, 0x00, 0x00,
  0x18, 0x00, 0x1c, 0x00, 0x14, 0x00, 0x00, 0x00, 0x03, 0x00, 0x00, 0x00,
  0x18, 0x00, 0x00, 0x00, 0x2c, 0x00, 0x00, 0x00, 0xd8, 0x00, 0x00, 0x00,
  0x2c, 0x00, 0x00, 0x00, 0x80, 0x00, 0x00, 0x00, 0x78, 0x00, 0x00, 0x00,
  0x05, 0x00, 0x00, 0x00, 0x28, 0x07, 0x00, 0x00, 0x44, 0x06, 0x00, 0x00,
  0xbc, 0x03, 0x00, 0x00, 0xf8, 0x02, 0x00, 0x00, 0xac, 0x01, 0x00, 0x00,
  0x01, 0x00, 0x00, 0x00, 0xd0, 0x00, 0x00, 0x00, 0x14, 0x00, 0x00, 0x00,
  0xdc, 0x32, 0x00, 0x00, 0xd8, 0x32, 0x00, 0x00, 0xd0, 0x31, 0x00, 0x00,
  0x1c, 0x31, 0x00, 0x00, 0x74, 0x30, 0x00, 0x00, 0xfc, 0x2f, 0x00, 0x00,
  0x90, 0x2f, 0x00, 0x00, 0x40, 0x13, 0x00, 0x00, 0xec, 0x11, 0x00, 0x00,
  0x10, 0x10, 0x00, 0x00, 0xb4, 0x07, 0x00, 0x00, 0xb0, 0x32, 0x00, 0x00,
  0xac, 0x32, 0x00, 0x00, 0xa8, 0x32, 0x00, 0x00, 0xa4, 0x32, 0x00, 0x00,
  0xa0, 0x32, 0x00, 0x00, 0x9c, 0x32, 0x00, 0x00, 0x98, 0x32, 0x00, 0x00,
  0x94, 0x32, 0x00, 0x00, 0x3c, 0x00, 0x00, 0x00, 0x00, 0x00, 0x00, 0x00,
  0x01, 0x00, 0x00, 0x00, 0x0c, 0x00, 0x00, 0x00, 0x08, 0x00, 0x0c, 0x00,
  0x04, 0x00, 0x08, 0x00, 0x08, 0x00, 0x00, 0x00, 0x08, 0x00, 0x00, 0x00,
  0x13, 0x00, 0x00, 0x00, 0x13, 0x00, 0x00, 0x00, 0x6d, 0x69, 0x6e, 0x5f,
  0x72, 0x75, 0x6e, 0x74, 0x69, 0x6d, 0x65, 0x5f, 0x76, 0x65, 0x72, 0x73,
  0x69, 0x6f, 0x6e, 0x00, 0xb6, 0xce, 0xff, 0xff, 0x04, 0x00, 0x00, 0x00,
  0x10, 0x00, 0x00, 0x00, 0x31, 0x2e, 0x35, 0x2e, 0x30, 0x00, 0x00, 0x00,
  0x00, 0x00, 0x00, 0x00, 0x00, 0x00, 0x00, 0x00, 0x0f, 0x00, 0x00, 0x00,
  0x4d, 0x4c, 0x49, 0x52, 0x20, 0x43, 0x6f, 0x6e, 0x76, 0x65, 0x72, 0x74,
  0x65, 0x64, 0x2e, 0x00, 0x00, 0x00, 0x0e, 0x00, 0x18, 0x00, 0x04, 0x00,
  0x08, 0x00, 0x0c, 0x00, 0x10, 0x00, 0x14, 0x00, 0x0e, 0x00, 0x00, 0x00,
  0x14, 0x00, 0x00, 0x00, 0x5c, 0x00, 0x00, 0x00, 0x60, 0x00, 0x00, 0x00,
  0x64, 0x00, 0x00, 0x00, 0x84, 0x00, 0x00, 0x00, 0x12, 0x00, 0x00, 0x00,
  0x9c, 0x31, 0x00, 0x00, 0x2c, 0x31, 0x00, 0x00, 0x88, 0x30, 0x00, 0x00,
  0xe0, 0x2f, 0x00, 0x00, 0x38, 0x2f, 0x00, 0x00, 0xd4, 0x2e, 0x00, 0x00,
  0x6c, 0x2e, 0x00, 0x00, 0x18, 0x12, 0x00, 0x00, 0xbc, 0x10, 0x00, 0x00,
  0xe0, 0x0e, 0x00, 0x00, 0x0c, 0x06, 0x00, 0x00, 0x28, 0x05, 0x00, 0x00,
  0xe8, 0x03, 0x00, 0x00, 0x3c, 0x03, 0x00, 0x00, 0x98, 0x02, 0x00, 0x00,
  0xd4, 0x01, 0x00, 0x00, 0x10, 0x01, 0x00, 0x00, 0x84, 0x00, 0x00, 0x00,
  0x01, 0x00, 0x00, 0x00, 0x00, 0x00, 0x00, 0x00, 0x01, 0x00, 0x00, 0x00,
  0x11, 0x00, 0x00, 0x00, 0x08, 0x00, 0x00, 0x00, 0x74, 0x05, 0x00, 0x00,
  0x94, 0x04, 0x00, 0x00, 0x78, 0x03, 0x00, 0x00, 0xbc, 0x02, 0x00, 0x00,
  0x30, 0x02, 0x00, 0x00, 0x50, 0x01, 0x00, 0x00, 0xa8, 0x00, 0x00, 0x00,
  0x10, 0x00, 0x00, 0x00, 0x04, 0x00, 0x00, 0x00, 0x6d, 0x61, 0x69, 0x6e,
  0x00, 0x00, 0x00, 0x00, 0x7a, 0xff, 0xff, 0xff, 0x00, 0x00, 0x00, 0x09,
  0x04, 0x00, 0x00, 0x00, 0x1c, 0x00, 0x00, 0x00, 0x10, 0x00, 0x00, 0x00,
  0x04, 0x00, 0x00, 0x00, 0xb2, 0xcf, 0xff, 0xff, 0x00, 0x00, 0x80, 0x3f,
  0x01, 0x00, 0x00, 0x00, 0x11, 0x00, 0x00, 0x00, 0x01, 0x00, 0x00, 0x00,
  0x10, 0x00, 0x00, 0x00, 0xa0, 0xfa, 0xff, 0xff, 0x19, 0x00, 0x00, 0x00,
  0x00, 0x00, 0x00, 0x19, 0x01, 0x00, 0x00, 0x00, 0x40, 0xcf, 0xff, 0xff,
  0x14, 0x00, 0x00, 0x00, 0x12, 0x00, 0x00, 0x00, 0x18, 0x00, 0x00, 0x00,
  0x30, 0x00, 0x00, 0x00, 0x20, 0x00, 0x00, 0x00, 0x02, 0x00, 0x00, 0x00,
  0x01, 0x00, 0x00, 0x00, 0x04, 0x00, 0x00, 0x00, 0x08, 0x00, 0x00, 0x00,
  0x49, 0x64, 0x65, 0x6e, 0x74, 0x69, 0x74, 0x79, 0x00, 0x00, 0x00, 0x00,
  0x02, 0x00, 0x00, 0x00, 0xff, 0xff, 0xff, 0xff, 0x04, 0x00, 0x00, 0x00,
  0x24, 0xd0, 0xff, 0xff, 0x00, 0x00, 0x0e, 0x00, 0x18, 0x00, 0x08, 0x00,
  0x0c, 0x00, 0x10, 0x00, 0x07, 0x00, 0x14, 0x00, 0x0e, 0x00, 0x00, 0x00,
  0x00, 0x00, 0x00, 0x08, 0x03, 0x00, 0x00, 0x00, 0x18, 0x00, 0x00, 0x00,
  0x0c, 0x00, 0x00, 0x00, 0x04, 0x00, 0x00, 0x00, 0x40, 0xcf, 0xff, 0xff,
  0x01, 0x00, 0x00, 0x00, 0x10, 0x00, 0x00, 0x00, 0x03, 0x00, 0x00, 0x00,
  0x0f, 0x00, 0x00, 0x00, 0x07, 0x00, 0x00, 0x00, 0x04, 0x00, 0x00, 0x00,
  0xc8, 0xcf, 0xff, 0xff, 0x14, 0x00, 0x00, 0x00, 0x11, 0x00, 0x00, 0x00,
  0x18, 0x00, 0x00, 0x00, 0x5c, 0x00, 0x00, 0x00, 0x4c, 0x00, 0x00, 0x00,
  0x02, 0x00, 0x00, 0x00, 0x01, 0x00, 0x00, 0x00, 0x04, 0x00, 0x00, 0x00,
  0x34, 0x00, 0x00, 0x00, 0x73, 0x65, 0x71, 0x75, 0x65, 0x6e, 0x74, 0x69,
  0x61, 0x6c, 0x2f, 0x64, 0x65, 0x6e, 0x73, 0x65, 0x5f, 0x31, 0x2f, 0x4d,
  0x61, 0x74, 0x4d, 0x75, 0x6c, 0x3b, 0x73, 0x65, 0x71, 0x75, 0x65, 0x6e,
  0x74, 0x69, 0x61, 0x6c, 0x2f, 0x64, 0x65, 0x6e, 0x73, 0x65, 0x5f, 0x31,
  0x2f, 0x42, 0x69, 0x61, 0x73, 0x41, 0x64, 0x64, 0x00, 0x00, 0x00, 0x00,
  0x02, 0x00, 0x00, 0x00, 0xff, 0xff, 0xff, 0xff, 0x04, 0x00, 0x00, 0x00,
  0xc8, 0xcf, 0xff, 0xff, 0xda, 0xfc, 0xff, 0xff, 0x00, 0x00, 0x00, 0x08,
  0x03, 0x00, 0x00, 0x00, 0x24, 0x00, 0x00, 0x00, 0x18, 0x00, 0x00, 0x00,
  0x0c, 0x00, 0x00, 0x00, 0x00, 0x00, 0x06, 0x00, 0x08, 0x00, 0x07, 0x00,
  0x06, 0x00, 0x00, 0x00, 0x00, 0x00, 0x00, 0x01, 0x01, 0x00, 0x00, 0x00,
  0x0f, 0x00, 0x00, 0x00, 0x03, 0x00, 0x00, 0x00, 0x0e, 0x00, 0x00, 0x00,
  0x06, 0x00, 0x00, 0x00, 0x03, 0x00, 0x00, 0x00, 0xe8, 0xfb, 0xff, 0xff,
  0x09, 0x00, 0x00, 0x00, 0x00, 0x00, 0x00, 0x09, 0x01, 0x00, 0x00, 0x00,
  0x88, 0xd0, 0xff, 0xff, 0x14, 0x00, 0x00, 0x00, 0x10, 0x00, 0x00, 0x00,
  0x18, 0x00, 0x00, 0x00, 0x6c, 0x00, 0x00, 0x00, 0x5c, 0x00, 0x00, 0x00,
  0x02, 0x00, 0x00, 0x00, 0x01, 0x00, 0x00, 0x00, 0x10, 0x00, 0x00, 0x00,
  0x46, 0x00, 0x00, 0x00, 0x73, 0x65, 0x71, 0x75, 0x65, 0x6e, 0x74, 0x69,
  0x61, 0x6c, 0x2f, 0x64, 0x65, 0x6e, 0x73, 0x65, 0x2f, 0x4d, 0x61, 0x74,
  0x4d, 0x75, 0x6c, 0x3b, 0x73, 0x65, 0x71, 0x75, 0x65, 0x6e, 0x74, 0x69,
  0x61, 0x6c, 0x2f, 0x64, 0x65, 0x6e, 0x73, 0x65, 0x2f, 0x52, 0x65, 0x6c,
  0x75, 0x3b, 0x73, 0x65, 0x71, 0x75, 0x65, 0x6e, 0x74, 0x69, 0x61, 0x6c,
  0x2f, 0x64, 0x65, 0x6e, 0x73, 0x65, 0x2f, 0x42, 0x69, 0x61, 0x73, 0x41,
  0x64, 0x64, 0x00, 0x00, 0x02, 0x00, 0x00, 0x00, 0xff, 0xff, 0xff, 0xff,
  0x10, 0x00, 0x00, 0x00, 0xa8, 0xd1, 0xff, 0xff, 0x00, 0x00, 0x0a, 0x00,
  0x10, 0x00, 0x04, 0x00, 0x08, 0x00, 0x0c, 0x00, 0x0a, 0x00, 0x00, 0x00,
  0x02, 0x00, 0x00, 0x00, 0x10, 0x00, 0x00, 0x00, 0x04, 0x00, 0x00, 0x00,
  0x01, 0x00, 0x00, 0x00, 0x0e, 0x00, 0x00, 0x00, 0x02, 0x00, 0x00, 0x00,
  0x0d, 0x00, 0x00, 0x00, 0x05, 0x00, 0x00, 0x00, 0xa8, 0xfc, 0xff, 0xff,
  0x16, 0x00, 0x00, 0x00, 0x00, 0x00, 0x00, 0x16, 0x01, 0x00, 0x00, 0x00,
  0x48, 0xd1, 0xff, 0xff, 0x14, 0x00, 0x00, 0x00, 0x0f, 0x00, 0x00, 0x00,
  0x18, 0x00, 0x00, 0x00, 0x40, 0x00, 0x00, 0x00, 0x30, 0x00, 0x00, 0x00,
  0x02, 0x00, 0x00, 0x00, 0x01, 0x00, 0x00, 0x00, 0x70, 0x00, 0x00, 0x00,
  0x1a, 0x00, 0x00, 0x00, 0x73, 0x65, 0x71, 0x75, 0x65, 0x6e, 0x74, 0x69,
  0x61, 0x6c, 0x2f, 0x66, 0x6c, 0x61, 0x74, 0x74, 0x65, 0x6e, 0x2f, 0x52,
  0x65, 0x73, 0x68, 0x61, 0x70, 0x65, 0x00, 0x00, 0x02, 0x00, 0x00, 0x00,
  0xff, 0xff, 0xff, 0xff, 0x70, 0x00, 0x00, 0x00, 0x2c, 0xd1, 0xff, 0xff,
  0x3e, 0xfe, 0xff, 0xff, 0x00, 0x00, 0x00, 0x05, 0x01, 0x00, 0x00, 0x00,
  0x38, 0x00, 0x00, 0x00, 0x2c, 0x00, 0x00, 0x00, 0x14, 0x00, 0x00, 0x00,
  0x00, 0x00, 0x0e, 0x00, 0x14, 0x00, 0x00, 0x00, 0x10, 0x00, 0x0c, 0x00,
  0x08, 0x00, 0x04, 0x00, 0x0e, 0x00, 0x00, 0x00, 0x03, 0x00, 0x00, 0x00,
  0x01, 0x00, 0x00, 0x00, 0x03, 0x00, 0x00, 0x00, 0x01, 0x00, 0x00, 0x00,
  0x01, 0x00, 0x00, 0x00, 0x0d, 0x00, 0x00, 0x00, 0x01, 0x00, 0x00, 0x00,
  0x0c, 0x00, 0x00, 0x00, 0xe8, 0xd1, 0xff, 0xff, 0x14, 0x00, 0x00, 0x00,
  0x0e, 0x00, 0x00, 0x00, 0x20, 0x00, 0x00, 0x00, 0x58, 0x00, 0x00, 0x00,
  0x40, 0x00, 0x00, 0x00, 0x04, 0x00, 0x00, 0x00, 0x01, 0x00, 0x00, 0x00,
  0x07, 0x00, 0x00, 0x00, 0x01, 0x00, 0x00, 0x00, 0x10, 0x00, 0x00, 0x00,
  0x22, 0x00, 0x00, 0x00, 0x73, 0x65, 0x71, 0x75, 0x65, 0x6e, 0x74, 0x69,
  0x61, 0x6c, 0x2f, 0x6d, 0x61, 0x78, 0x5f, 0x70, 0x6f, 0x6f, 0x6c, 0x69,
  0x6e, 0x67, 0x32, 0x64, 0x5f, 0x31, 0x2f, 0x4d, 0x61, 0x78, 0x50, 0x6f,
  0x6f, 0x6c, 0x00, 0x00, 0x04, 0x00, 0x00, 0x00, 0xff, 0xff, 0xff, 0xff,
  0x07, 0x00, 0x00, 0x00, 0x01, 0x00, 0x00, 0x00, 0x10, 0x00, 0x00, 0x00,
  0xe4, 0xd1, 0xff, 0xff, 0x1a, 0xfe, 0xff, 0xff, 0x00, 0x00, 0x00, 0x01,
  0x24, 0x00, 0x00, 0x00, 0x18, 0x00, 0x00, 0x00, 0x04, 0x00, 0x00, 0x00,
  0x0c, 0xfe, 0xff, 0xff, 0x01, 0x00, 0x00, 0x00, 0x01, 0x00, 0x00, 0x00,
  0x00, 0x00, 0x00, 0x01, 0x01, 0x00, 0x00, 0x00, 0x0c, 0x00, 0x00, 0x00,
  0x03, 0x00, 0x00, 0x00, 0x0b, 0x00, 0x00, 0x00, 0x09, 0x00, 0x00, 0x00,
  0x02, 0x00, 0x00, 0x00, 0x90, 0xd2, 0xff, 0xff, 0x14, 0x00, 0x00, 0x00,
  0x0d, 0x00, 0x00, 0x00, 0x20, 0x00, 0x00, 0x00, 0xb8, 0x00, 0x00, 0x00,
  0xa0, 0x00, 0x00, 0x00, 0x04, 0x00, 0x00, 0x00, 0x01, 0x00, 0x00, 0x00,
  0x15, 0x00, 0x00, 0x00, 0x01, 0x00, 0x00, 0x00, 0x10, 0x00, 0x00, 0x00,
  0x83, 0x00, 0x00, 0x00, 0x73, 0x65, 0x71, 0x75, 0x65, 0x6e, 0x74, 0x69,
  0x61, 0x6c, 0x2f, 0x63, 0x6f, 0x6e, 0x76, 0x32, 0x64, 0x5f, 0x31, 0x2f,
  0x52, 0x65, 0x6c, 0x75, 0x3b, 0x73, 0x65, 0x71, 0x75, 0x65, 0x6e, 0x74,
  0x69, 0x61, 0x6c, 0x2f, 0x63, 0x6f, 0x6e, 0x76, 0x32, 0x64, 0x5f, 0x31,
  0x2f, 0x42, 0x69, 0x61, 0x73, 0x41, 0x64, 0x64, 0x3b, 0x73, 0x65, 0x71,
  0x75, 0x65, 0x6e, 0x74, 0x69, 0x61, 0x6c, 0x2f, 0x63, 0x6f, 0x6e, 0x76,
  0x32, 0x64, 0x5f, 0x31, 0x2f, 0x43, 0x6f, 0x6e, 0x76, 0x32, 0x44, 0x3b,
  0x73, 0x65, 0x71, 0x75, 0x65, 0x6e, 0x74, 0x69, 0x61, 0x6c, 0x2f, 0x63,
  0x6f, 0x6e, 0x76, 0x32, 0x64, 0x5f, 0x31, 0x2f, 0x42, 0x69, 0x61, 0x73,
  0x41, 0x64, 0x64, 0x2f, 0x52, 0x65, 0x61, 0x64, 0x56, 0x61, 0x72, 0x69,
  0x61, 0x62, 0x6c, 0x65, 0x4f, 0x70, 0x2f, 0x72, 0x65, 0x73, 0x6f, 0x75,
  0x72, 0x63, 0x65, 0x00, 0x04, 0x00, 0x00, 0x00, 0xff, 0xff, 0xff, 0xff,
  0x15, 0x00, 0x00, 0x00, 0x01, 0x00, 0x00, 0x00, 0x10, 0x00, 0x00, 0x00,
  0xfc, 0xd3, 0xff, 0xff, 0x00, 0x00, 0x0e, 0x00, 0x1a, 0x00, 0x08, 0x00,
  0x0c, 0x00, 0x10, 0x00, 0x07, 0x00, 0x14, 0x00, 0x0e, 0x00, 0x00, 0x00,
  0x00, 0x00, 0x00, 0x05, 0x01, 0x00, 0x00, 0x00, 0x3c, 0x00, 0x00, 0x00,
  0x30, 0x00, 0x00, 0x00, 0x14, 0x00, 0x00, 0x00, 0x00, 0x00, 0x0e, 0x00,
  0x18, 0x00, 0x17, 0x00, 0x10, 0x00, 0x0c, 0x00, 0x08, 0x00, 0x04, 0x00,
  0x0e, 0x00, 0x00, 0x00, 0x03, 0x00, 0x00, 0x00, 0x03, 0x00, 0x00, 0x00,
  0x03, 0x00, 0x00, 0x00, 0x03, 0x00, 0x00, 0x00, 0x00, 0x00, 0x00, 0x01,
  0x01, 0x00, 0x00, 0x00, 0x0b, 0x00, 0x00, 0x00, 0x01, 0x00, 0x00, 0x00,
  0x0a, 0x00, 0x00, 0x00, 0x2c, 0xff, 0xff, 0xff, 0x11, 0x00, 0x00, 0x00,
  0x00, 0x00, 0x00, 0x11, 0x01, 0x00, 0x00, 0x00, 0xcc, 0xd3, 0xff, 0xff,
  0x14, 0x00, 0x00, 0x00, 0x0c, 0x00, 0x00, 0x00, 0x20, 0x00, 0x00, 0x00,
  0x58, 0x00, 0x00, 0x00, 0x40, 0x00, 0x00, 0x00, 0x04, 0x00, 0x00, 0x00,
  0x01, 0x00, 0x00, 0x00, 0x15, 0x00, 0x00, 0x00, 0x01, 0x00, 0x00, 0x00,
  0x08, 0x00, 0x00, 0x00, 0x20, 0x00, 0x00, 0x00, 0x73, 0x65, 0x71, 0x75,
  0x65, 0x6e, 0x74, 0x69, 0x61, 0x6c, 0x2f, 0x6d, 0x61, 0x78, 0x5f, 0x70,
  0x6f, 0x6f, 0x6c, 0x69, 0x6e, 0x67, 0x32, 0x64, 0x2f, 0x4d, 0x61, 0x78,
  0x50, 0x6f, 0x6f, 0x6c, 0x00, 0x00, 0x00, 0x00, 0x04, 0x00, 0x00, 0x00,
  0xff, 0xff, 0xff, 0xff, 0x15, 0x00, 0x00, 0x00, 0x01, 0x00, 0x00, 0x00,
  0x08, 0x00, 0x00, 0x00, 0xd8, 0xd4, 0xff, 0xff, 0x00, 0x00, 0x0e, 0x00,
  0x14, 0x00, 0x00, 0x00, 0x08, 0x00, 0x0c, 0x00, 0x07, 0x00, 0x10, 0x00,
  0x0e, 0x00, 0x00, 0x00, 0x00, 0x00, 0x00, 0x01, 0x30, 0x00, 0x00, 0x00,
  0x24, 0x00, 0x00, 0x00, 0x10, 0x00, 0x00, 0x00, 0x0c, 0x00, 0x10, 0x00,
  0x00, 0x00, 0x04, 0x00, 0x08, 0x00, 0x0f, 0x00, 0x0c, 0x00, 0x00, 0x00,
  0x01, 0x00, 0x00, 0x00, 0x01, 0x00, 0x00, 0x00, 0x00, 0x00, 0x00, 0x01,
  0x01, 0x00, 0x00, 0x00, 0x0a, 0x00, 0x00, 0x00, 0x03, 0x00, 0x00, 0x00,
  0x00, 0x00, 0x00, 0x00, 0x08, 0x00, 0x00, 0x00, 0x01, 0x00, 0x00, 0x00,
  0x0c, 0x00, 0x10, 0x00, 0x0b, 0x00, 0x00, 0x00, 0x0c, 0x00, 0x04, 0x00,
  0x0c, 0x00, 0x00, 0x00, 0x03, 0x00, 0x00, 0x00, 0x00, 0x00, 0x00, 0x03,
  0x01, 0x00, 0x00, 0x00, 0xac, 0xd4, 0xff, 0xff, 0x14, 0x00, 0x00, 0x00,
  0x0b, 0x00, 0x00, 0x00, 0x20, 0x00, 0x00, 0x00, 0xb0, 0x00, 0x00, 0x00,
  0x98, 0x00, 0x00, 0x00, 0x04, 0x00, 0x00, 0x00, 0x01, 0x00, 0x00, 0x00,
  0x40, 0x00, 0x00, 0x00, 0x03, 0x00, 0x00, 0x00, 0x08, 0x00, 0x00, 0x00,
  0x7b, 0x00, 0x00, 0x00, 0x73, 0x65, 0x71, 0x75, 0x65, 0x6e, 0x74, 0x69,
  0x61, 0x6c, 0x2f, 0x63, 0x6f, 0x6e, 0x76, 0x32, 0x64, 0x2f, 0x52, 0x65,
  0x6c, 0x75, 0x3b, 0x73, 0x65, 0x71, 0x75, 0x65, 0x6e, 0x74, 0x69, 0x61,
  0x6c, 0x2f, 0x63, 0x6f, 0x6e, 0x76, 0x32, 0x64, 0x2f, 0x42, 0x69, 0x61,
  0x73, 0x41, 0x64, 0x64, 0x3b, 0x73, 0x65, 0x71, 0x75, 0x65, 0x6e, 0x74,
  0x69, 0x61, 0x6c, 0x2f, 0x63, 0x6f, 0x6e, 0x76, 0x32, 0x64, 0x2f, 0x43,
  0x6f, 0x6e, 0x76, 0x32, 0x44, 0x3b, 0x73, 0x65, 0x71, 0x75, 0x65, 0x6e,
  0x74, 0x69, 0x61, 0x6c, 0x2f, 0x63, 0x6f, 0x6e, 0x76, 0x32, 0x64, 0x2f,
  0x42, 0x69, 0x61, 0x73, 0x41, 0x64, 0x64, 0x2f, 0x52, 0x65, 0x61, 0x64,
  0x56, 0x61, 0x72, 0x69, 0x61, 0x62, 0x6c, 0x65, 0x4f, 0x70, 0x2f, 0x72,
  0x65, 0x73, 0x6f, 0x75, 0x72, 0x63, 0x65, 0x00, 0x04, 0x00, 0x00, 0x00,
  0xff, 0xff, 0xff, 0xff, 0x40, 0x00, 0x00, 0x00, 0x03, 0x00, 0x00, 0x00,
  0x08, 0x00, 0x00, 0x00, 0x00, 0xd5, 0xff, 0xff, 0x0a, 0xd6, 0xff, 0xff,
  0x04, 0x00, 0x00, 0x00, 0x00, 0x08, 0x00, 0x00, 0xef, 0x7d, 0x45, 0xbc,
  0x1e, 0xa1, 0x95, 0xbd, 0x13, 0x07, 0x04, 0x3e, 0xe0, 0x5b, 0x5a, 0x3d,
  0x46, 0x9e, 0x9d, 0xbe, 0xc4, 0x64, 0x25, 0x3e, 0x38, 0xf0, 0x2c, 0x3e,
  0x20, 0x80, 0x39, 0xbe, 0x56, 0xe0, 0xa5, 0xbe, 0x1a, 0x71, 0x09, 0xbe,
  0xab, 0xd9, 0xc4, 0xbd, 0x77, 0x3c, 0x5f, 0xbe, 0xf5, 0x8d, 0xa6, 0x3b,
  0x8b, 0x70, 0x04, 0xbe, 0x99, 0x3a, 0x06, 0xbd, 0xda, 0x64, 0x41, 0xbe,
  0xba, 0x8e, 0xa5, 0xbd, 0x44, 0x1a, 0x95, 0xbe, 0xf1, 0x12, 0x87, 0xbc,
  0xd5, 0x60, 0xe9, 0x3d, 0x04, 0x58, 0x51, 0xbe, 0xec, 0x19, 0x72, 0xbe,
  0xd0, 0xb8, 0x13, 0x3e, 0x54, 0x81, 0xc8, 0x3d, 0xf6, 0x95, 0x64, 0xbc,
  0x39, 0x53, 0x73, 0xbe, 0x5f, 0xd4, 0x8b, 0x3d, 0x99, 0xc4, 0x89, 0xbe,
  0x0f, 0x89, 0x09, 0x3e, 0x38, 0x52, 0x22, 0x3d, 0x33, 0xe0, 0x20, 0xbe,
  0xd6, 0xcd, 0x30, 0xbd, 0xf0, 0x37, 0x94, 0xbd, 0xc8, 0xbe, 0xb2, 0xbe,
  0xd3, 0x6e, 0xf4, 0x3c, 0xca, 0xc6, 0x18, 0xbe, 0x22, 0x7d, 0x57, 0xbe,
  0xdb, 0xdb, 0xb9, 0xbd, 0x87, 0xd7, 0xe3, 0x3d, 0xf1, 0xbf, 0x4f, 0x3d,
  0x0f, 0x3d, 0xcf, 0x3b, 0x2c, 0x3a, 0x80, 0xbe, 0x33, 0xcf, 0x71, 0x3e,
  0x2a, 0xd0, 0xff, 0x3d, 0x83, 0xf1, 0x67, 0xbe, 0xa4, 0x03, 0x4d, 0xbd,
  0xb1, 0xe6, 0xa5, 0xbd, 0x67, 0x62, 0x29, 0x3a, 0x4d, 0xd9, 0xe8, 0xbd,
  0x77, 0x81, 0xd1, 0xbe, 0x3b, 0x54, 0xd7, 0x3d, 0xf4, 0x47, 0x26, 0xbe,
  0x06, 0x47, 0x10, 0x3e, 0x6b, 0xc2, 0xf3, 0xbd, 0xa0, 0xd6, 0xc2, 0xbd,
  0x8c, 0x65, 0x69, 0xbe, 0x65, 0x38, 0x60, 0xbe, 0x75, 0xac, 0x87, 0xbe,
  0x86, 0xf1, 0x03, 0xbe, 0x73, 0x24, 0x41, 0xbd, 0x3b, 0xce, 0x5a, 0x3d,
  0x54, 0xbc, 0x95, 0xbe, 0x02, 0x57, 0xaa, 0xbe, 0x9e, 0xfc, 0x9d, 0xbc,
  0xb4, 0x49, 0xb5, 0x3e, 0x86, 0x55, 0x86, 0xbe, 0x85, 0xe0, 0xd3, 0xbe,
  0xd5, 0xc2, 0x28, 0x3e, 0xea, 0xe8, 0x95, 0xbd, 0x53, 0xa3, 0xaf, 0xbe,
  0xcd, 0x4c, 0xa8, 0x3d, 0x6a, 0x85, 0x1a, 0x3c, 0x14, 0xcd, 0x1c, 0xbe,
  0x8a, 0x09, 0x44, 0x3e, 0x21, 0x45, 0xc7, 0xbe, 0x58, 0xb4, 0xbc, 0xbd,
  0x58, 0x8a, 0x1a, 0x3e, 0xc9, 0x92, 0xee, 0x3c, 0xd7, 0x14, 0xbb, 0x3d,
  0x71, 0xfc, 0xc1, 0x3e, 0x36, 0xdf, 0x87, 0xbd, 0x86, 0x06, 0xe8, 0xbd,
  0x28, 0xd4, 0x91, 0xbe, 0xe9, 0xac, 0x09, 0x3b, 0x92, 0x9f, 0xff, 0xbe,
  0x6c, 0x68, 0xa5, 0x3d, 0x26, 0x86, 0xa1, 0xbb, 0x73, 0x88, 0x26, 0x3e,
  0x4e, 0xe9, 0xb9, 0x3e, 0xc9, 0x32, 0x25, 0xbc, 0xbc, 0x7f, 0xb3, 0xbe,
  0xed, 0x9b, 0x53, 0x3e, 0xfa, 0xea, 0x92, 0xbe, 0x34, 0x78, 0xc1, 0xbd,
  0x65, 0xaa, 0xf7, 0x3d, 0xcb, 0xb7, 0xc8, 0x3e, 0xa3, 0xba, 0x83, 0xbe,
  0xb4, 0xf7, 0x6f, 0xbd, 0xde, 0x36, 0x72, 0x3d, 0xc1, 0x4f, 0x5f, 0xbc,
  0x13, 0x20, 0x5a, 0xbe, 0x79, 0x5a, 0x8e, 0x3e, 0xf2, 0x88, 0xb3, 0xbd,
  0x78, 0xfc, 0xd1, 0xbd, 0x08, 0xc5, 0xdf, 0xbe, 0x96, 0x6d, 0xda, 0xbe,
  0x95, 0x64, 0x82, 0x3e, 0xe7, 0xa3, 0x2b, 0xbe, 0x69, 0xf9, 0x17, 0xbe,
  0x64, 0xc2, 0x8a, 0x3e, 0x9e, 0x96, 0x81, 0x3d, 0x25, 0x57, 0xbb, 0x3d,
  0xdd, 0x02, 0x66, 0x3d, 0xee, 0x80, 0xdf, 0x3b, 0x04, 0xbc, 0x72, 0x3e,
  0x5c, 0x1f, 0x32, 0x3d, 0xd6, 0xe4, 0x0f, 0x3e, 0x13, 0x4b, 0xac, 0x3e,
  0x38, 0xb9, 0x6e, 0x3e, 0xdb, 0xa3, 0x1d, 0xbd, 0x29, 0x5c, 0x8a, 0xbe,
  0xbb, 0x26, 0x94, 0xbe, 0x56, 0x3c, 0x85, 0x3d, 0x4f, 0x0f, 0x34, 0xbe,
  0x53, 0x05, 0x58, 0xbe, 0x81, 0x6d, 0x9e, 0xbd, 0x1a, 0x4d, 0x50, 0xbc,
  0x1d, 0x69, 0x90, 0x3d, 0x0a, 0xbc, 0x32, 0xbd, 0x35, 0xf8, 0x6b, 0xbe,
  0x4d, 0x0f, 0x28, 0xbe, 0xd0, 0xcc, 0x92, 0xbe, 0x8e, 0x75, 0xa7, 0xbe,
  0xfe, 0x22, 0x80, 0xbd, 0xde, 0xe0, 0x7b, 0xbd, 0xc1, 0xdf, 0x5b, 0xbe,
  0x74, 0xe6, 0x41, 0xbe, 0x72, 0xd5, 0x45, 0xbe, 0xa4, 0xd4, 0x6e, 0x3e,
  0x27, 0x6d, 0x57, 0xbe, 0xbc, 0x16, 0xb0, 0x3d, 0xc4, 0x96, 0x65, 0x3d,
  0x5e, 0xed, 0x39, 0xbd, 0xb3, 0x6b, 0x6b, 0xbe, 0xf1, 0xbd, 0xe7, 0x3d,
  0x82, 0x8a, 0xa4, 0xbe, 0x9f, 0x0a, 0xd7, 0xbd, 0x72, 0x23, 0x99, 0x3d,
  0x28, 0xdf, 0x70, 0x3e, 0xd8, 0x77, 0x74, 0x3c, 0xf2, 0x5e, 0x3b, 0xbe,
  0xc4, 0x04, 0x3a, 0x3e, 0x44, 0xa3, 0x7b, 0xbe, 0x06, 0x22, 0x4f, 0x3d,
  0x2f, 0xf0, 0x6a, 0x3e, 0xed, 0xef, 0x6d, 0x3e, 0x04, 0x49, 0x3b, 0xbe,
  0x87, 0x44, 0x8d, 0x3d, 0x2b, 0xbe, 0xb0, 0xbc, 0xa4, 0x19, 0xa6, 0xbd,
  0x73, 0x3a, 0x16, 0xbe, 0x19, 0x12, 0xed, 0x3d, 0x4b, 0x1b, 0xb1, 0xbe,
  0x94, 0x6e, 0xad, 0xbc, 0xf8, 0xe8, 0x0b, 0x3e, 0xe7, 0x47, 0x7d, 0xbe,
  0x9c, 0x39, 0xa1, 0xbd, 0xae, 0x5c, 0x2c, 0xbe, 0xb4, 0xf5, 0x23, 0x3e,
  0xe2, 0x06, 0x8a, 0x3e, 0xf6, 0x06, 0x78, 0xbe, 0xe3, 0x1b, 0x3c, 0x3e,
  0x91, 0x53, 0x82, 0x3e, 0xef, 0xc7, 0x07, 0xbf, 0x34, 0x91, 0x25, 0xbd,
  0x0a, 0x97, 0x05, 0x3e, 0x81, 0x85, 0x72, 0x3d, 0x7e, 0x15, 0x55, 0x3e,
  0xbd, 0xc4, 0x73, 0xbe, 0x14, 0xc9, 0x9a, 0x3d, 0xca, 0xf0, 0x8e, 0xbd,
  0x51, 0xe0, 0x32, 0xbe, 0xb9, 0x0d, 0xf9, 0x3d, 0xbc, 0x1b, 0x8f, 0x3d,
  0xf6, 0x74, 0x3d, 0x3d, 0x52, 0x3f, 0x66, 0xbe, 0x84, 0x63, 0x1e, 0xbe,
  0xfa, 0x75, 0xfb, 0x3d, 0x3c, 0xb0, 0x9a, 0x3d, 0x9f, 0x40, 0x2b, 0xbc,
  0xbb, 0xb5, 0xe5, 0x3d, 0x73, 0x4d, 0x8c, 0x3e, 0x5a, 0xc4, 0x4b, 0x3e,
  0x67, 0xf1, 0x7d, 0x3e, 0x0e, 0xb4, 0xdc, 0xbe, 0x41, 0xff, 0xb5, 0x3e,
  0x09, 0x27, 0x53, 0xbe, 0x03, 0x26, 0xa1, 0xbe, 0x3b, 0xe2, 0x0f, 0x3e,
  0x41, 0x01, 0xb5, 0x3e, 0xff, 0xba, 0xc2, 0xbd, 0xdc, 0x7e, 0x29, 0x3e,
  0xbc, 0x3c, 0x2f, 0xbe, 0xd1, 0x08, 0xc1, 0x3e, 0xae, 0x3d, 0x82, 0x3e,
  0xa1, 0x03, 0x90, 0xbe, 0x0d, 0x23, 0x1d, 0xbd, 0x94, 0x41, 0x63, 0xbd,
  0xa2, 0x7f, 0x3b, 0x3e, 0xd6, 0x0b, 0x8f, 0x3c, 0xf5, 0x35, 0xcc, 0xbe,
  0x26, 0x14, 0xb6, 0xbd, 0xa4, 0x7a, 0xcf, 0x3d, 0x1f, 0x21, 0x1f, 0xbe,
  0x75, 0x58, 0x63, 0x3e, 0x39, 0xd6, 0x5e, 0x3e, 0x18, 0x3b, 0x3a, 0x3e,
  0xa0, 0xd9, 0x2b, 0xbe, 0x67, 0xb9, 0x8d, 0xbd, 0x14, 0xc6, 0x9f, 0x3e,
  0x2a, 0xd4, 0xf6, 0xbb, 0x38, 0x90, 0xf4, 0xbd, 0x52, 0x4d, 0x8e, 0x3e,
  0x75, 0x0d, 0x13, 0x3e, 0xcf, 0x6d, 0xa1, 0xbe, 0xe2, 0xc7, 0x9f, 0xbe,
  0xc5, 0xaa, 0x80, 0x3e, 0x92, 0xe1, 0x93, 0xbd, 0xe3, 0x2c, 0x7f, 0x3d,
  0xdd, 0x21, 0x69, 0x3e, 0x2a, 0x24, 0xee, 0x3d, 0xcf, 0x11, 0x56, 0xbe,
  0x17, 0xa6, 0x04, 0xbe, 0x45, 0xf4, 0x9c, 0x3d, 0x41, 0x1f, 0xc7, 0x3e,
  0xbb, 0x30, 0x81, 0xbd, 0x4e, 0x6a, 0x1a, 0xbc, 0xc4, 0x30, 0xe1, 0x3e,
  0x90, 0x89, 0xc0, 0xbc, 0x0c, 0x6a, 0x0b, 0xbd, 0x22, 0xff, 0xd9, 0xbd,
  0x85, 0x42, 0x59, 0x3c, 0x50, 0x88, 0x5a, 0x3e, 0xc6, 0x51, 0x31, 0x3d,
  0x91, 0x73, 0x26, 0x3e, 0x7d, 0x77, 0x9e, 0xbd, 0x05, 0x55, 0xc0, 0xbd,
  0xaf, 0x3c, 0x0f, 0xbe, 0xa9, 0x65, 0x45, 0xbd, 0x5f, 0x5b, 0x9e, 0xbd,
  0x45, 0x98, 0xc7, 0x3e, 0xfe, 0x4e, 0x87, 0xbd, 0x7f, 0xc7, 0xf8, 0xbd,
  0xd3, 0x59, 0xc0, 0x3e, 0x76, 0xed, 0xed, 0x3c, 0x8e, 0x7e, 0x4e, 0x3d,
  0x45, 0x4c, 0x00, 0x3e, 0x6d, 0xfb, 0xf7, 0xbd, 0xea, 0x17, 0x0c, 0x3f,
  0x1c, 0x3b, 0x8f, 0xbe, 0x31, 0x66, 0x82, 0x3e, 0x07, 0xd6, 0xda, 0x3e,
  0xd6, 0x28, 0x7b, 0x3e, 0xe2, 0x49, 0x2f, 0xbe, 0x34, 0x3c, 0x80, 0xbe,
  0x48, 0xd4, 0xb1, 0xbc, 0x78, 0x3b, 0x8f, 0x3d, 0x06, 0x0d, 0x88, 0xbe,
  0xfc, 0x49, 0xa4, 0x3e, 0xce, 0x73, 0x95, 0x3e, 0x0a, 0xb4, 0xc9, 0x3a,
  0x27, 0x76, 0x39, 0xbe, 0x56, 0x38, 0x17, 0xbe, 0x47, 0xea, 0x50, 0x3d,
  0x39, 0x01, 0x50, 0x3e, 0x10, 0x5a, 0x66, 0xbd, 0xe1, 0x9c, 0x51, 0x3e,
  0x1b, 0x22, 0xcf, 0x3d, 0x68, 0x2f, 0x47, 0x3d, 0xac, 0x49, 0xe6, 0xbd,
  0x43, 0x92, 0x96, 0x3c, 0x63, 0xe7, 0x39, 0x3e, 0xf6, 0xc8, 0xc6, 0x3e,
  0xac, 0x8d, 0xdc, 0xbd, 0xfa, 0xbc, 0xc6, 0x3d, 0x2b, 0x61, 0xbd, 0x3e,
  0x1e, 0xab, 0x35, 0x39, 0x6e, 0x34, 0x2b, 0xbe, 0x0d, 0xd2, 0x4e, 0xbe,
  0xe7, 0x17, 0x81, 0xbd, 0xae, 0xdf, 0x26, 0xbe, 0x09, 0x90, 0x50, 0xbe,
  0xbd, 0xb2, 0x93, 0x3d, 0xf5, 0x47, 0xec, 0xbd, 0x23, 0xb5, 0x89, 0xbe,
  0xe8, 0xb8, 0xc8, 0xbc, 0x90, 0x5e, 0x32, 0xbe, 0x54, 0xc2, 0x69, 0xbd,
  0x1e, 0x4e, 0x6a, 0xbe, 0x88, 0x68, 0x05, 0xbe, 0x41, 0xaf, 0x29, 0xbd,
  0x7e, 0xdf, 0x68, 0x3d, 0xec, 0xd4, 0x0b, 0x3e, 0xe5, 0x58, 0x38, 0xbe,
  0x37, 0xd5, 0x56, 0xbe, 0x0a, 0xd2, 0x2e, 0x3e, 0x59, 0xa8, 0xb0, 0x3e,
  0x36, 0xe1, 0x3e, 0xbe, 0x35, 0xfd, 0xc8, 0xbb, 0x9c, 0x0c, 0x2c, 0x3e,
  0xe2, 0x61, 0xb9, 0xbc, 0x94, 0x9f, 0x23, 0x3d, 0x9f, 0x76, 0x7a, 0xbe,
  0x58, 0x45, 0xac, 0xbd, 0x54, 0x20, 0x4a, 0xbe, 0xe4, 0xe1, 0x1a, 0xbe,
  0x4d, 0xfc, 0xc8, 0xbd, 0x0a, 0xae, 0x2d, 0xbe, 0xea, 0x7d, 0xac, 0xbe,
  0x0e, 0xf7, 0x9d, 0xbd, 0x1a, 0xb6, 0x7c, 0x3e, 0xb0, 0xc9, 0x52, 0x3d,
  0x8a, 0x63, 0x12, 0xbf, 0xdb, 0x66, 0x54, 0x3e, 0x4b, 0x33, 0xce, 0x3d,
  0xb6, 0xce, 0xd9, 0xbe, 0x14, 0x7f, 0x7c, 0x3d, 0x9c, 0x8c, 0x8d, 0xb9,
  0x3b, 0xec, 0xef, 0x3d, 0x25, 0xb7, 0x77, 0xbd, 0x05, 0x1c, 0xe6, 0xbe,
  0xf1, 0x48, 0x57, 0xbd, 0xcc, 0x0e, 0xc2, 0x3d, 0x62, 0xc4, 0x8f, 0x3d,
  0xa1, 0x7a, 0x6b, 0x3e, 0x9d, 0x2c, 0x95, 0x3e, 0x85, 0x4a, 0x91, 0xbd,
  0xe2, 0xf0, 0xaa, 0xbd, 0xe9, 0xe5, 0xc0, 0xbe, 0x7a, 0x11, 0xa3, 0x3d,
  0xd2, 0xae, 0x6a, 0x3d, 0xad, 0xdf, 0x8f, 0xbe, 0xdd, 0x73, 0x89, 0x3e,
  0x85, 0xac, 0x87, 0x3d, 0x72, 0x2c, 0xd3, 0x3d, 0x61, 0x26, 0x21, 0x3e,
  0x7c, 0x6e, 0x82, 0xbe, 0x38, 0x45, 0x31, 0x3e, 0x6b, 0x05, 0x94, 0x3c,
  0x1d, 0xc5, 0xa0, 0xbd, 0x60, 0x00, 0x7e, 0x3e, 0xd5, 0x93, 0x6b, 0x3e,
  0x09, 0x51, 0xbb, 0x3c, 0x29, 0x29, 0xa4, 0x3d, 0x90, 0x40, 0xa3, 0xbd,
  0x58, 0xca, 0xea, 0x3d, 0x22, 0xac, 0xab, 0x3e, 0x0c, 0xfa, 0x45, 0x3d,
  0x22, 0xcf, 0xb9, 0xbc, 0x06, 0x9b, 0x83, 0xbe, 0x3e, 0x53, 0x72, 0x3d,
  0xa4, 0xf7, 0x9f, 0xbc, 0x67, 0x2b, 0xab, 0x3d, 0xfe, 0xe5, 0xd3, 0xbc,
  0x8c, 0xa1, 0xfc, 0xbd, 0x13, 0x1a, 0x5b, 0x3e, 0x9d, 0xb6, 0xbc, 0xbd,
  0x1e, 0xef, 0x3c, 0xbd, 0xf9, 0x9d, 0x05, 0x3e, 0x03, 0x66, 0x63, 0x3d,
  0xc2, 0x50, 0x1d, 0xbd, 0x33, 0x77, 0x3e, 0x3e, 0x04, 0x3d, 0xef, 0xbd,
  0x91, 0x68, 0x2f, 0xbe, 0x65, 0x3c, 0x80, 0x3e, 0xc9, 0xbf, 0x83, 0xbe,
  0xf2, 0x91, 0x12, 0xbe, 0xfc, 0x09, 0xa7, 0x3b, 0xeb, 0x44, 0x0a, 0x3e,
  0x42, 0x1f, 0xda, 0x3c, 0xac, 0x27, 0xee, 0x3d, 0x20, 0x51, 0x70, 0x3d,
  0x1b, 0x21, 0x85, 0x3e, 0xcc, 0xec, 0xaa, 0xbd, 0xce, 0x66, 0x47, 0xbb,
  0x84, 0xd3, 0xa0, 0x3e, 0x17, 0x5a, 0x8b, 0xbd, 0x07, 0xb7, 0x2c, 0x3e,
  0x1b, 0xdb, 0xe2, 0xbd, 0x26, 0x58, 0xe4, 0x3d, 0xdf, 0x4e, 0xfc, 0x3d,
  0x64, 0x0e, 0xff, 0xbd, 0xc8, 0x64, 0x9d, 0x3d, 0xa0, 0x06, 0x81, 0x3e,
  0xd7, 0xfe, 0x33, 0xbe, 0x6e, 0x43, 0x87, 0xbd, 0xcc, 0x44, 0x78, 0x3d,
  0x6b, 0x1a, 0x45, 0xbe, 0x4e, 0x1c, 0xfa, 0x3d, 0x7e, 0x26, 0xfe, 0xbd,
  0x4a, 0xb3, 0x98, 0xbd, 0x15, 0xa9, 0x28, 0xbb, 0xfa, 0xd4, 0x2b, 0xbe,
  0x3c, 0xdf, 0x23, 0xbe, 0x17, 0x8a, 0xd7, 0xbe, 0xec, 0x71, 0x45, 0xbe,
  0xad, 0xd2, 0x20, 0xbe, 0x58, 0xee, 0x97, 0x3d, 0x9c, 0x0e, 0x42, 0xbe,
  0xea, 0xae, 0xbd, 0xbd, 0x9f, 0xa8, 0x8f, 0xbd, 0x71, 0x25, 0x0d, 0x3d,
  0xfd, 0xcb, 0xbd, 0xbd, 0x0d, 0xd0, 0x64, 0x3d, 0xcc, 0xf4, 0xed, 0xbd,
  0x18, 0x15, 0x75, 0xbe, 0x0c, 0x7e, 0x17, 0x3e, 0x3d, 0x5e, 0xab, 0x3e,
  0x1d, 0xdf, 0x9e, 0xbe, 0x6c, 0xa6, 0x8b, 0x3e, 0x5b, 0xf3, 0x3c, 0x3e,
  0xbb, 0xb9, 0x99, 0xbe, 0x99, 0x47, 0xda, 0x3e, 0x7e, 0x26, 0x15, 0xbd,
  0xba, 0x1b, 0x9e, 0x3e, 0xb6, 0x05, 0x44, 0xbd, 0x34, 0x44, 0x8d, 0x3d,
  0x47, 0x85, 0x73, 0x3d, 0x28, 0xf9, 0xa2, 0x3c, 0xeb, 0xd2, 0x93, 0xbe,
  0x00, 0x4c, 0x31, 0x3e, 0x3b, 0x4e, 0xea, 0x3e, 0x11, 0x01, 0x84, 0x3e,
  0xe1, 0x1c, 0x1f, 0x3e, 0x64, 0xc4, 0x85, 0xbe, 0x7c, 0xc0, 0xe2, 0x3b,
  0xff, 0xb0, 0x98, 0x3e, 0xc0, 0x3d, 0xa2, 0xbe, 0x28, 0x50, 0xc3, 0x3d,
  0x03, 0x5e, 0x88, 0x3e, 0x04, 0x7e, 0x90, 0x3e, 0x71, 0x86, 0x8f, 0x3e,
  0x6b, 0x79, 0x87, 0xbe, 0xfd, 0xdc, 0x58, 0x3e, 0xf3, 0x01, 0x7c, 0xbe,
  0x74, 0x07, 0xff, 0xbd, 0x51, 0xd2, 0x3c, 0xbd, 0x93, 0x16, 0x3e, 0x3e,
  0x7b, 0x8e, 0x48, 0xbd, 0x2d, 0x62, 0x11, 0xbe, 0x2b, 0xe5, 0x70, 0xbe,
  0x48, 0xcb, 0x1b, 0xbe, 0x63, 0x12, 0xbb, 0xbc, 0x52, 0x4a, 0xb8, 0xbb,
  0xed, 0xc2, 0xc5, 0xbd, 0x2c, 0xab, 0x60, 0xbe, 0x8f, 0xb7, 0x03, 0xbe,
  0x0d, 0x6c, 0x93, 0xbe, 0x0f, 0x41, 0xb9, 0x3c, 0x8b, 0xbf, 0x35, 0xbe,
  0xe5, 0xa0, 0xd0, 0xbd, 0x23, 0x5a, 0x71, 0xbd, 0x93, 0xa1, 0x15, 0xbe,
  0xf6, 0x75, 0x82, 0x3d, 0x0a, 0x29, 0x0e, 0xbe, 0x4f, 0x20, 0x0e, 0x3e,
  0x37, 0x69, 0x13, 0xbe, 0x4f, 0x57, 0x13, 0x3e, 0xe4, 0x32, 0x2e, 0x3e,
  0xeb, 0x40, 0x06, 0xbd, 0x4a, 0x6d, 0xc4, 0xbc, 0xb2, 0xc3, 0x39, 0xbe,
  0x58, 0x55, 0xa6, 0xbe, 0xc5, 0xce, 0x6c, 0xbe, 0x80, 0xe6, 0x28, 0xbe,
  0xf8, 0x5a, 0xd7, 0x3d, 0xf3, 0x14, 0x01, 0x3d, 0xb9, 0xa4, 0x75, 0xbe,
  0xed, 0xa4, 0x4f, 0x3e, 0x94, 0x71, 0x0a, 0xbe, 0x2e, 0x18, 0x70, 0x3d,
  0x42, 0x29, 0x2d, 0x3e, 0x6e, 0x59, 0x4e, 0xbe, 0x82, 0xe5, 0x77, 0x3e,
  0xcb, 0x55, 0xc7, 0xbd, 0xe6, 0x1a, 0x56, 0xbe, 0x28, 0x14, 0xb0, 0xbd,
  0x30, 0x2b, 0x74, 0x3e, 0xdf, 0x06, 0x84, 0x3d, 0x6b, 0x75, 0x54, 0xbe,
  0x6b, 0x36, 0x7a, 0xbe, 0xfe, 0x54, 0xa6, 0x3e, 0x0c, 0xf0, 0xb2, 0x3d,
  0x7c, 0x49, 0x32, 0xbe, 0x57, 0x47, 0x13, 0xbe, 0x67, 0x70, 0xbe, 0x3e,
  0xae, 0x6e, 0x10, 0x3d, 0xb7, 0xa5, 0x31, 0x3e, 0x58, 0xbc, 0x3a, 0xbe,
  0x88, 0x6b, 0xa6, 0x3e, 0x1d, 0x1a, 0x3d, 0xbe, 0x67, 0x8f, 0x1d, 0x3d,
  0x45, 0x52, 0x37, 0x3e, 0x53, 0xed, 0x8a, 0x3d, 0xf7, 0x93, 0x48, 0x3d,
  0x9c, 0x4d, 0xa2, 0x3b, 0x81, 0x9b, 0x08, 0xbe, 0xf0, 0xf6, 0x16, 0x3e,
  0x8c, 0x47, 0x4b, 0xbe, 0x79, 0xed, 0x95, 0xbe, 0xb1, 0xf3, 0x12, 0xbe,
  0xe5, 0x88, 0xb6, 0x3e, 0xe2, 0xdd, 0xff, 0xff, 0x10, 0x00, 0x00, 0x00,
  0x0a, 0x00, 0x00, 0x00, 0x1c, 0x00, 0x00, 0x00, 0x38, 0x00, 0x00, 0x00,
  0x04, 0x00, 0x00, 0x00, 0x10, 0x00, 0x00, 0x00, 0x04, 0x00, 0x00, 0x00,
  0x01, 0x00, 0x00, 0x00, 0x08, 0x00, 0x00, 0x00, 0x1a, 0x00, 0x00, 0x00,
  0x73, 0x65, 0x71, 0x75, 0x65, 0x6e, 0x74, 0x69, 0x61, 0x6c, 0x2f, 0x63,
  0x6f, 0x6e, 0x76, 0x32, 0x64, 0x5f, 0x31, 0x2f, 0x43, 0x6f, 0x6e, 0x76,
  0x32, 0x44, 0x00, 0x00, 0x58, 0xdd, 0xff, 0xff, 0x62, 0xde, 0xff, 0xff,
  0x04, 0x00, 0x00, 0x00, 0x80, 0x01, 0x00, 0x00, 0xf5, 0xc2, 0x82, 0xbe,
  0x92, 0xfd, 0x83, 0x3e, 0x32, 0x82, 0x49, 0xbe, 0xc5, 0x52, 0x93, 0xbb,
  0x63, 0xb8, 0xdc, 0x3d, 0xba, 0x09, 0x06, 0xbe, 0x4f, 0xa5, 0xca, 0x39,
  0xcd, 0xee, 0x8f, 0x3d, 0xff, 0x56, 0x29, 0xbe, 0x21, 0x8c, 0x53, 0xbe,
  0xa6, 0x11, 0xcf, 0x3d, 0x23, 0xc0, 0x2e, 0xbe, 0x73, 0x8f, 0x1b, 0x3e,
  0x29, 0x27, 0x09, 0xbe, 0x4b, 0x80, 0xa0, 0xbb, 0x83, 0xd8, 0x21, 0x3d,
  0x56, 0xcf, 0x33, 0x3e, 0xfc, 0x57, 0xc6, 0xbe, 0xfd, 0x0b, 0x41, 0xbe,
  0x5b, 0x27, 0x9b, 0xbb, 0x39, 0x74, 0x62, 0xbe, 0x7f, 0x3a, 0x40, 0xbe,
  0x9f, 0x6c, 0x4d, 0xbd, 0x56, 0xe9, 0xf2, 0x3c, 0x86, 0xd9, 0x3b, 0x3d,
  0x5b, 0xf6, 0x8d, 0xbe, 0xdf, 0x99, 0x7a, 0x3d, 0xc6, 0x30, 0x95, 0x3e,
  0xce, 0xf2, 0x8c, 0xbd, 0x5c, 0x83, 0x0b, 0xbe, 0x1e, 0x1d, 0xdb, 0x3e,
  0x8f, 0x4b, 0x0a, 0xbe, 0x3d, 0x6c, 0x0b, 0x3e, 0x31, 0xf7, 0xc4, 0x3d,
  0x56, 0x6d, 0x09, 0xbe, 0x72, 0x3e, 0x95, 0xbe, 0x62, 0xf9, 0x8f, 0x3e,
  0x8a, 0x20, 0x8f, 0xbd, 0x49, 0x5b, 0x25, 0x3e, 0x27, 0x97, 0x71, 0x3e,
  0x9e, 0xc2, 0x5a, 0x3d, 0xf1, 0x1a, 0xf2, 0x3d, 0x20, 0xb0, 0xde, 0x3d,
  0x9c, 0xf0, 0xbb, 0xbd, 0x84, 0xd6, 0x78, 0x3e, 0x5e, 0x75, 0x65, 0x3d,
  0xf6, 0x57, 0xd3, 0x3c, 0x15, 0xb1, 0x08, 0x3e, 0x1b, 0x05, 0x0f, 0xbe,
  0x77, 0x2b, 0xfa, 0x3c, 0xa0, 0x59, 0x02, 0xbe, 0x0a, 0x46, 0x05, 0xbe,
  0x9e, 0x02, 0x60, 0xbe, 0xfc, 0x61, 0xfc, 0x3d, 0x14, 0x2a, 0x24, 0x3d,
  0xf5, 0x52, 0x62, 0xbd, 0x57, 0x98, 0x1f, 0xbd, 0x63, 0xb8, 0x0e, 0xbe,
  0x65, 0xdb, 0x8d, 0xbd, 0x4c, 0x83, 0x68, 0x3d, 0x11, 0x09, 0xc5, 0x3e,
  0x39, 0xcd, 0xef, 0x3b, 0xcb, 0x8b, 0xe7, 0xbd, 0x94, 0xa5, 0x6f, 0x3e,
  0xab, 0xb2, 0x92, 0x3d, 0x2a, 0xe5, 0x49, 0xbe, 0xf0, 0x99, 0x94, 0x3e,
  0x0d, 0xf3, 0xe6, 0xbb, 0x2e, 0x16, 0xf1, 0xbd, 0xf0, 0x89, 0x35, 0x3e,
  0xbf, 0x4c, 0x2a, 0xbe, 0x57, 0x12, 0xff, 0x3b, 0x18, 0xa6, 0x39, 0x3d,
  0x8e, 0x0e, 0x0a, 0x3e, 0x61, 0xec, 0xa1, 0x3d, 0x62, 0xfd, 0x87, 0x3d,
  0x9a, 0x59, 0xab, 0x3d, 0x44, 0xb9, 0x52, 0x3d, 0x39, 0xe8, 0x56, 0xbe,
  0x9f, 0x26, 0x04, 0x3d, 0x89, 0x57, 0x91, 0x3d, 0xbb, 0xe6, 0x2c, 0xbd,
  0x0e, 0xc3, 0xe3, 0xbd, 0xab, 0x86, 0x81, 0xbe, 0x5d, 0xc1, 0x87, 0x3e,
  0x8c, 0x87, 0xc9, 0xbd, 0xc4, 0x27, 0x9f, 0x3e, 0x11, 0x56, 0x2f, 0x3e,
  0x6c, 0x44, 0x80, 0x3d, 0x9c, 0x17, 0x9f, 0x3e, 0xc3, 0x35, 0x34, 0x3e,
  0xcb, 0xf2, 0x68, 0x3d, 0x37, 0xac, 0x51, 0x3e, 0x9e, 0xcf, 0x28, 0x3e,
  0xc5, 0x97, 0x1c, 0xbe, 0x0d, 0xbc, 0x14, 0x3e, 0xba, 0xdf, 0xff, 0xff,
  0x10, 0x00, 0x00, 0x00, 0x09, 0x00, 0x00, 0x00, 0x1c, 0x00, 0x00, 0x00,
  0x38, 0x00, 0x00, 0x00, 0x04, 0x00, 0x00, 0x00, 0x08, 0x00, 0x00, 0x00,
  0x04, 0x00, 0x00, 0x00, 0x03, 0x00, 0x00, 0x00, 0x01, 0x00, 0x00, 0x00,
  0x18, 0x00, 0x00, 0x00, 0x73, 0x65, 0x71, 0x75, 0x65, 0x6e, 0x74, 0x69,
  0x61, 0x6c, 0x2f, 0x63, 0x6f, 0x6e, 0x76, 0x32, 0x64, 0x2f, 0x43, 0x6f,
  0x6e, 0x76, 0x32, 0x44, 0x00, 0x00, 0x00, 0x00, 0x30, 0xdf, 0xff, 0xff,
  0x3a, 0xe0, 0xff, 0xff, 0x04, 0x00, 0x00, 0x00, 0x00, 0x01, 0x00, 0x00,
  0xce, 0x87, 0x10, 0x3b, 0xc7, 0x5d, 0xfc, 0x3d, 0xd5, 0x54, 0x19, 0xbe,
  0x36, 0x72, 0xa8, 0x3d, 0xa3, 0x0c, 0xea, 0x3e, 0xfc, 0x1b, 0x67, 0xbe,
  0xbc, 0x59, 0x30, 0xbc, 0xd6, 0x1a, 0x01, 0xbf, 0xe0, 0x89, 0x3d, 0x3d,
  0x4b, 0x25, 0x45, 0x3c, 0x6f, 0x36, 0x2f, 0x3e, 0x55, 0x98, 0x99, 0xbd,
  0x0e, 0xe6, 0xdd, 0xbc, 0x4e, 0x71, 0x42, 0x3f, 0x6d, 0x62, 0x78, 0xbe,
  0x9d, 0xcb, 0xf8, 0x3d, 0x5d, 0xe3, 0xb8, 0x3e, 0x98, 0x94, 0x83, 0x3e,
  0x3f, 0x5f, 0xf1, 0xbd, 0x65, 0x1f, 0x42, 0x3e, 0x8d, 0x51, 0x91, 0xbe,
  0xe2, 0xd5, 0xa1, 0xbf, 0xe8, 0x38, 0xb4, 0x3e, 0x12, 0xbc, 0x2d, 0xbf,
  0xc5, 0x0c, 0xfb, 0x3d, 0xd9, 0x4a, 0x01, 0xbf, 0xe8, 0xe3, 0x2d, 0xbe,
  0xdc, 0xc2, 0x0e, 0xbf, 0xd6, 0xd7, 0x9b, 0xbe, 0xb7, 0xac, 0xa8, 0xbf,
  0x51, 0xcd, 0x35, 0x3e, 0xca, 0x87, 0x6b, 0xbd, 0x7e, 0x87, 0xbc, 0xbe,
  0x02, 0x84, 0xea, 0x3e, 0x04, 0xd8, 0x97, 0xbd, 0x2f, 0x6f, 0xc3, 0xbe,
  0xfa, 0xae, 0x53, 0xbe, 0x48, 0x68, 0x2d, 0xbf, 0xc8, 0x32, 0x89, 0xbe,
  0x92, 0xc8, 0x0f, 0xbf, 0x2d, 0x08, 0x87, 0x3e, 0xd5, 0x13, 0x90, 0x3c,
  0x88, 0x22, 0x5e, 0x3c, 0xfd, 0x7d, 0xb2, 0xbe, 0x12, 0x74, 0x8c, 0x3b,
  0x52, 0x58, 0x56, 0xbf, 0x8f, 0x2d, 0x9e, 0x3e, 0xf4, 0xfa, 0xa6, 0x3e,
  0xb6, 0x98, 0x4a, 0xbe, 0x8b, 0x10, 0xc7, 0xbe, 0x72, 0xc6, 0xa2, 0x3e,
  0x8d, 0xbf, 0xda, 0x3e, 0x2a, 0xd9, 0xdd, 0xbb, 0x11, 0x47, 0x51, 0xbd,
  0x3d, 0x06, 0x1a, 0x3e, 0xb4, 0x65, 0xbe, 0xbe, 0x03, 0xdc, 0x9f, 0xbd,
  0x63, 0x93, 0x31, 0x3d, 0xe8, 0x74, 0x86, 0x3d, 0x51, 0xb4, 0x17, 0xbc,
  0x9e, 0x0a, 0x58, 0xbe, 0xda, 0x28, 0x3e, 0xbf, 0x7e, 0x76, 0xd3, 0xbd,
  0x83, 0xb9, 0x72, 0x3d, 0x12, 0xe1, 0xff, 0xff, 0x10, 0x00, 0x00, 0x00,
  0x08, 0x00, 0x00, 0x00, 0x14, 0x00, 0x00, 0x00, 0x30, 0x00, 0x00, 0x00,
  0x02, 0x00, 0x00, 0x00, 0x04, 0x00, 0x00, 0x00, 0x10, 0x00, 0x00, 0x00,
  0x19, 0x00, 0x00, 0x00, 0x73, 0x65, 0x71, 0x75, 0x65, 0x6e, 0x74, 0x69,
  0x61, 0x6c, 0x2f, 0x64, 0x65, 0x6e, 0x73, 0x65, 0x5f, 0x31, 0x2f, 0x4d,
  0x61, 0x74, 0x4d, 0x75, 0x6c, 0x00, 0x00, 0x00, 0x80, 0xe0, 0xff, 0xff,
  0x8a, 0xe1, 0xff, 0xff, 0x04, 0x00, 0x00, 0x00, 0x00, 0x1c, 0x00, 0x00,
  0x62, 0xb8, 0x25, 0xbe, 0x6e, 0x17, 0x4a, 0x3d, 0x6e, 0xb7, 0x96, 0xbc,
  0xc1, 0x6e, 0xe0, 0x3d, 0x75, 0x71, 0x07, 0xbb, 0x5b, 0x97, 0x07, 0xbe,
  0x5f, 0x8a, 0x2d, 0xbe, 0xe1, 0x5d, 0x88, 0xbd, 0xa2, 0x2d, 0x94, 0x3c,
  0x02, 0x98, 0x09, 0xbd, 0x01, 0xff, 0x20, 0x3e, 0x0a, 0x96, 0xee, 0xbd,
  0xf0, 0x59, 0xc2, 0x3d, 0xd8, 0xb8, 0x3e, 0xbe, 0xa7, 0x7f, 0x42, 0xbd,
  0x34, 0x4f, 0x08, 0xbe, 0x4d, 0xcf, 0x69, 0xbe, 0x5c, 0x4c, 0x6a, 0x3c,
  0x5a, 0x51, 0x8b, 0xbd, 0x8b, 0x5f, 0x24, 0x3d, 0x51, 0x4c, 0xe0, 0xbd,
  0xe5, 0xbf, 0x54, 0xbe, 0xae, 0x34, 0x3c, 0xbe, 0xd6, 0x14, 0xf4, 0xbd,
  0x52, 0x30, 0x71, 0x3d, 0x9b, 0xc4, 0xc8, 0xbd, 0x3c, 0xd6, 0x06, 0xbe,
  0x94, 0x5e, 0xfa, 0xbc, 0xfc, 0x4b, 0x0f, 0xbe, 0xdb, 0xaf, 0xa9, 0xbc,
  0xf4, 0x30, 0xb6, 0xbd, 0xff, 0x47, 0x02, 0xbe, 0xd0, 0xae, 0x1a, 0x3d,
  0xe5, 0x75, 0xca, 0xbc, 0x6c, 0x3b, 0x46, 0x3c, 0x19, 0xf1, 0x63, 0x3d,
  0x5a, 0x74, 0xfd, 0xbd, 0xb9, 0x2b, 0x1e, 0x3e, 0x5b, 0xdc, 0xcc, 0x3d,
  0x7c, 0x5b, 0xbb, 0x3d, 0x3f, 0x12, 0xc3, 0xbd, 0x4c, 0x34, 0xf8, 0xbc,
  0x9e, 0xb9, 0xa4, 0xbd, 0x37, 0x19, 0xf1, 0x3c, 0xd4, 0x0f, 0xcb, 0xbd,
  0x9e, 0x2d, 0xee, 0xbd, 0xc5, 0x81, 0x99, 0xbd, 0xf4, 0xa4, 0x2a, 0x3d,
  0x2a, 0x03, 0x19, 0xbe, 0xa6, 0x30, 0x77, 0xbc, 0xe6, 0x88, 0x2b, 0xbd,
  0x26, 0x3f, 0x2a, 0x3d, 0xd2, 0x71, 0x17, 0xbe, 0xc7, 0xb3, 0x9e, 0xbd,
  0x45, 0x06, 0x0c, 0xbe, 0xbd, 0x6f, 0xde, 0x3d, 0x8a, 0xd4, 0x77, 0xbe,
  0x21, 0x94, 0x5d, 0x3e, 0x3e, 0xb3, 0x1f, 0xbe, 0xb4, 0xa2, 0x11, 0xbe,
  0xd0, 0xbc, 0xf2, 0x3c, 0xf1, 0xff, 0x64, 0xbe, 0x57, 0x2c, 0xe1, 0x3d,
  0x0d, 0x2b, 0x42, 0x3b, 0xf6, 0x8d, 0xa1, 0x3d, 0xd4, 0x9f, 0xb0, 0x3c,
  0xbe, 0xce, 0x02, 0xbe, 0xff, 0x0a, 0x89, 0xbc, 0xfe, 0x23, 0x2d, 0x3e,
  0xf8, 0x5c, 0xa8, 0xbd, 0x8a, 0x88, 0xab, 0x3d, 0x27, 0xb7, 0xc3, 0x3c,
  0x04, 0x04, 0x81, 0xbe, 0x10, 0xdf, 0x26, 0x3e, 0x3b, 0xd4, 0x3a, 0xbd,
  0x64, 0x40, 0xea, 0x3d, 0x11, 0x1e, 0x16, 0x3e, 0x82, 0x88, 0xc0, 0x3d,
  0x5c, 0x7d, 0xe5, 0xbd, 0x4f, 0x9c, 0x16, 0xbe, 0x05, 0x45, 0x6a, 0xbe,
  0xc1, 0xf2, 0x66, 0x3d, 0x68, 0x2c, 0xf7, 0x3d, 0x91, 0x0d, 0x0f, 0x3b,
  0x1b, 0x8a, 0xa9, 0x3d, 0x5e, 0x8a, 0x80, 0xbd, 0xea, 0x73, 0x14, 0x3e,
  0x4c, 0x6e, 0x85, 0xbe, 0x06, 0x53, 0xb2, 0xbd, 0xdd, 0x5b, 0x7b, 0xbc,
  0x34, 0x20, 0x15, 0x3e, 0xfb, 0x9d, 0xbb, 0x3d, 0xf9, 0xc7, 0x51, 0xbe,
  0xa3, 0xac, 0x3f, 0xbc, 0x8f, 0x3c, 0xf7, 0xbd, 0x2d, 0x42, 0xe7, 0xbc,
  0xe4, 0x44, 0xc2, 0x3d, 0x9d, 0x78, 0x2c, 0xbd, 0x3e, 0x11, 0xc9, 0xbd,
  0xaa, 0x87, 0x49, 0xbc, 0x0b, 0x61, 0x06, 0xbc, 0x75, 0x10, 0x08, 0xbe,
  0xff, 0x02, 0x1a, 0xbe, 0x15, 0xa4, 0x6e, 0xbe, 0xc2, 0xde, 0xc5, 0xbd,
  0x87, 0xc8, 0x4d, 0xbe, 0xf1, 0xb3, 0xcf, 0xbd, 0x55, 0xa9, 0x3a, 0xbe,
  0xe4, 0xc8, 0x41, 0xbe, 0x88, 0x02, 0x52, 0xbe, 0x01, 0xb3, 0x0f, 0x3e,
  0x65, 0x97, 0x11, 0xbe, 0xff, 0x48, 0x46, 0xbe, 0x7c, 0xbb, 0x20, 0x3e,
  0x85, 0x8e, 0x13, 0x3d, 0x05, 0x67, 0x98, 0xbc, 0x18, 0x2f, 0xdb, 0x3d,
  0xaa, 0x27, 0x32, 0xbe, 0xf4, 0x91, 0x53, 0x3d, 0xab, 0x43, 0x0b, 0x3e,
  0xff, 0xd5, 0x13, 0xbe, 0x09, 0x9f, 0xf6, 0x3d, 0x3a, 0x28, 0x5e, 0xbd,
  0x14, 0xc5, 0xfb, 0x3d, 0x41, 0x68, 0x37, 0xbe, 0xcf, 0xf0, 0x51, 0xbc,
  0x7c, 0x34, 0x1e, 0x3e, 0xe6, 0x31, 0x3f, 0xbc, 0xd2, 0x8f, 0x87, 0xbc,
  0x72, 0xdc, 0x4c, 0x3d, 0x6c, 0x58, 0x5c, 0xbd, 0xfb, 0x3d, 0xbc, 0xbd,
  0x34, 0x6e, 0x08, 0x3e, 0xfc, 0x72, 0xad, 0xbc, 0x3e, 0x5b, 0xaa, 0x3d,
  0x33, 0x08, 0xec, 0x3d, 0x8b, 0xb1, 0xb1, 0x3b, 0xb7, 0x0d, 0xe3, 0x3d,
  0x5b, 0xd3, 0x49, 0x3d, 0x36, 0x3c, 0x29, 0x3e, 0xf3, 0x9e, 0xfe, 0x3d,
  0xaf, 0xd0, 0xc8, 0xbd, 0x6a, 0x48, 0x24, 0xbe, 0xb5, 0x4e, 0x7c, 0xbd,
  0x9e, 0x6d, 0x92, 0xbe, 0x6a, 0xd4, 0x63, 0xbe, 0xc9, 0xa2, 0x9f, 0x3a,
  0x3c, 0xfe, 0x99, 0xbd, 0xe0, 0xea, 0x87, 0xbb, 0x29, 0xdf, 0xb9, 0xbd,
  0xba, 0xb3, 0x52, 0x3d, 0x19, 0x53, 0x4d, 0xbe, 0xb9, 0x16, 0xab, 0xbd,
  0x6f, 0xbe, 0x0a, 0xbe, 0xd2, 0x0f, 0x1e, 0x3d, 0x74, 0xbe, 0x09, 0xbd,
  0x32, 0x9e, 0xaa, 0x3d, 0x00, 0xf5, 0x30, 0xbe, 0x87, 0xba, 0xa8, 0x3c,
  0xbe, 0x91, 0x0b, 0xbe, 0x0b, 0x54, 0x4c, 0x3d, 0x62, 0x69, 0xf2, 0xbd,
  0x05, 0x67, 0x00, 0x3e, 0x49, 0x07, 0x43, 0xbe, 0xb2, 0xee, 0x1c, 0x3d,
  0x81, 0x82, 0x9b, 0x3c, 0xbf, 0x2d, 0xe8, 0xbd, 0x5f, 0xad, 0x13, 0x3d,
  0xc9, 0x37, 0xd4, 0x3c, 0xda, 0x15, 0x54, 0xbe, 0x8e, 0x52, 0x64, 0xbe,
  0x0c, 0xd0, 0x58, 0xbe, 0xe9, 0x44, 0x5f, 0xbe, 0x51, 0xfd, 0x7a, 0xbe,
  0xc8, 0x9c, 0x25, 0xbd, 0xe3, 0x87, 0x39, 0xbd, 0x35, 0x49, 0x82, 0xbe,
  0x62, 0x77, 0x73, 0xbe, 0xd4, 0x57, 0xf8, 0xbd, 0xbf, 0x91, 0xea, 0xbd,
  0xa0, 0x74, 0xfa, 0x3c, 0x6e, 0xe5, 0xa5, 0xbd, 0xaf, 0x07, 0x86, 0xbb,
  0x03, 0x1e, 0xd3, 0x3d, 0xbf, 0xc9, 0xb9, 0xbd, 0x4d, 0x8a, 0x12, 0x3e,
  0x26, 0x76, 0x6b, 0xbe, 0x2e, 0x2f, 0x91, 0xbd, 0xcc, 0x02, 0xc3, 0xbb,
  0x9c, 0xd2, 0x71, 0xbe, 0xd4, 0x6e, 0xb5, 0x3a, 0xdd, 0x96, 0x8c, 0xbe,
  0x75, 0xb8, 0x4b, 0xbe, 0x2f, 0xeb, 0x07, 0x3e, 0x55, 0xd9, 0x77, 0x3d,
  0x57, 0x7b, 0x8f, 0xbe, 0xce, 0x58, 0x19, 0xba, 0x98, 0xfd, 0x68, 0xbe,
  0x1c, 0x84, 0x8d, 0xbc, 0x45, 0x79, 0x89, 0xbe, 0xdb, 0x4a, 0x8c, 0xbe,
  0xfd, 0xa9, 0x1f, 0x3e, 0x4e, 0xc4, 0x0c, 0x3e, 0xc1, 0xf4, 0x7c, 0xbe,
  0x18, 0x09, 0x4b, 0x3e, 0x05, 0xe0, 0x6a, 0xbe, 0x6b, 0x43, 0x35, 0x3e,
  0xbb, 0xee, 0x24, 0xbe, 0xe6, 0x32, 0x8d, 0xbe, 0x2a, 0xf1, 0xdf, 0xbc,
  0x12, 0x5c, 0xfc, 0x3d, 0xca, 0xf1, 0x8b, 0xbd, 0x5a, 0x09, 0xe4, 0x3d,
  0xc3, 0xca, 0x7e, 0x3d, 0x71, 0x52, 0xfb, 0xbd, 0xff, 0x8b, 0xfc, 0xbd,
  0xf3, 0x2f, 0x80, 0xbe, 0xc0, 0xa5, 0xcd, 0xbc, 0xf4, 0x30, 0x2c, 0xbe,
  0x4b, 0xda, 0xb2, 0x3d, 0x3f, 0xf9, 0x40, 0x3e, 0x48, 0xa5, 0x6f, 0xbd,
  0x4b, 0xbb, 0x29, 0x3e, 0xc2, 0x22, 0x4d, 0x3d, 0x1b, 0xb8, 0x3e, 0x3e,
  0xf2, 0x37, 0x20, 0xbe, 0x4c, 0xfa, 0x62, 0xbe, 0xa5, 0x0a, 0x61, 0x3d,
  0x3e, 0x44, 0x41, 0x3e, 0xa2, 0x83, 0x81, 0xbe, 0xf2, 0x4f, 0xf9, 0xbd,
  0x70, 0x34, 0xae, 0x3d, 0x61, 0x7d, 0x8d, 0x3e, 0x3c, 0x02, 0x55, 0x3e,
  0xab, 0xef, 0x0e, 0xbd, 0xc2, 0xd8, 0x3a, 0xbe, 0xe8, 0x63, 0x52, 0xbe,
  0x33, 0xf5, 0xb5, 0x3b, 0x9b, 0x93, 0xd0, 0x3d, 0x7f, 0x06, 0x14, 0xbe,
  0xd2, 0x99, 0x2d, 0xbe, 0xf4, 0x10, 0x09, 0x3e, 0x67, 0x49, 0x89, 0xbe,
  0x5f, 0x15, 0x6e, 0xbd, 0x61, 0x3b, 0xb9, 0xbd, 0x51, 0xe5, 0xd5, 0x3d,
  0x8c, 0x8a, 0x5f, 0x3b, 0xf3, 0x21, 0x7d, 0x3e, 0x67, 0x76, 0xbf, 0x3e,
  0x0e, 0xb9, 0x17, 0xbe, 0xbf, 0xa2, 0x9f, 0xbe, 0x44, 0xe5, 0xbe, 0xbb,
  0x20, 0x96, 0xb2, 0xbd, 0x60, 0xb0, 0x87, 0xbd, 0xf8, 0x5f, 0x43, 0xbe,
  0xe0, 0xab, 0x88, 0xbd, 0xb7, 0x1d, 0x3e, 0xbe, 0xbc, 0x22, 0x5a, 0x3d,
  0xb0, 0x13, 0xa4, 0x3d, 0xc5, 0x02, 0x15, 0xbd, 0x6c, 0x30, 0x04, 0x3e,
  0xf8, 0x59, 0x0f, 0xbe, 0xac, 0x01, 0x37, 0xbe, 0x56, 0x30, 0x43, 0xbd,
  0x10, 0xa6, 0xc0, 0x3d, 0xaa, 0xb2, 0x66, 0x3e, 0x60, 0x73, 0x14, 0xbe,
  0x01, 0xa6, 0xce, 0xbd, 0x5c, 0xe4, 0xc2, 0x3c, 0x32, 0x5a, 0xd4, 0xbd,
  0x06, 0x7c, 0x42, 0xbe, 0x59, 0xac, 0x9d, 0xbd, 0x5a, 0xc9, 0xf3, 0xbd,
  0xa6, 0x83, 0x6d, 0xbd, 0xf5, 0x16, 0x11, 0xbe, 0x9b, 0xb1, 0x25, 0xbe,
  0x61, 0xad, 0x4f, 0x3e, 0x6d, 0x2f, 0x86, 0xbe, 0x4f, 0xfd, 0x66, 0xbe,
  0x72, 0xdf, 0x4e, 0x3c, 0x8d, 0x35, 0x9a, 0x3e, 0xfa, 0xf4, 0x29, 0x3e,
  0x63, 0x63, 0x36, 0xbe, 0xa6, 0x8f, 0xc9, 0xbc, 0x62, 0x6e, 0xb8, 0x3d,
  0x6c, 0x43, 0x09, 0xbe, 0x46, 0x50, 0xc5, 0xbd, 0xac, 0x01, 0x8b, 0x3d,
  0xca, 0xa2, 0x41, 0xbe, 0xe2, 0xd8, 0x19, 0x3d, 0x77, 0xbd, 0x0e, 0x3c,
  0x2f, 0x4d, 0x39, 0xbd, 0x40, 0x8c, 0xf0, 0x3d, 0xaa, 0x21, 0x2d, 0x3e,
  0x27, 0x63, 0x06, 0xbe, 0xea, 0x4e, 0x8c, 0x3d, 0x22, 0x62, 0x5f, 0x3e,
  0xdd, 0x84, 0xcb, 0xbd, 0x29, 0x83, 0xff, 0xbd, 0x42, 0xe8, 0x88, 0xbd,
  0x03, 0x29, 0x7c, 0xbc, 0x3e, 0xeb, 0xef, 0xbd, 0x5a, 0x93, 0x1d, 0x3e,
  0x2f, 0xa3, 0x17, 0xbe, 0x53, 0x3e, 0xcd, 0x3d, 0x82, 0x5f, 0x06, 0x3e,
  0x56, 0x22, 0xdc, 0xbd, 0x36, 0xff, 0x09, 0x3c, 0x11, 0x3e, 0xb3, 0x3d,
  0x28, 0x83, 0x09, 0xbd, 0x57, 0xe1, 0x16, 0xbe, 0xa9, 0x17, 0x34, 0x3e,
  0x01, 0x3d, 0x1a, 0x3e, 0x6e, 0x86, 0xf0, 0xbd, 0xdf, 0x4a, 0x5b, 0xbd,
  0x03, 0x81, 0x3b, 0x3d, 0xeb, 0x49, 0x43, 0xbe, 0x01, 0x4c, 0x5c, 0xbd,
  0x8f, 0x47, 0x29, 0xbe, 0x05, 0x07, 0xdb, 0xbc, 0xb8, 0xe6, 0xca, 0x3d,
  0x61, 0xb8, 0x73, 0xbd, 0x0b, 0x21, 0x47, 0xbe, 0xa9, 0x84, 0x18, 0x3e,
  0xb8, 0x24, 0x21, 0x3e, 0x2f, 0x08, 0x91, 0x3d, 0x42, 0x1a, 0xdc, 0xbd,
  0x32, 0x31, 0xb1, 0xbc, 0x22, 0xa3, 0xd7, 0x3e, 0x1e, 0xee, 0x61, 0x3e,
  0xa7, 0x0c, 0x7b, 0xbe, 0xfa, 0x9b, 0x9e, 0x3d, 0x42, 0x72, 0x45, 0xbe,
  0xe9, 0x2f, 0x0b, 0x3b, 0x6b, 0xaa, 0x1a, 0x3e, 0x51, 0xee, 0x9f, 0xbd,
  0x57, 0x04, 0x8d, 0x3d, 0x29, 0x8b, 0xda, 0x3c, 0xdc, 0x86, 0xde, 0xbd,
  0x5a, 0xe4, 0xb6, 0xbd, 0xa8, 0x6a, 0x5f, 0x3e, 0xfd, 0x69, 0xd5, 0x3c,
  0xff, 0x4f, 0xaf, 0x3d, 0xdb, 0x4d, 0x77, 0x3e, 0x76, 0xaa, 0xb3, 0x3e,
  0x44, 0x01, 0x82, 0x3e, 0x07, 0x08, 0xdf, 0xbd, 0xb0, 0x18, 0xb2, 0x3c,
  0xfe, 0x3e, 0x58, 0x3e, 0xdb, 0x31, 0xbc, 0xbd, 0x25, 0x46, 0x0a, 0xbe,
  0x26, 0x91, 0x7d, 0x3a, 0x44, 0x11, 0x67, 0xbe, 0xc6, 0xad, 0x41, 0x3e,
  0xdb, 0x08, 0x6d, 0xbd, 0xde, 0x89, 0x82, 0x3c, 0x89, 0xfc, 0x87, 0x3d,
  0xc3, 0x19, 0x21, 0x3c, 0x61, 0x01, 0x8a, 0xbe, 0x22, 0x24, 0x29, 0x3e,
  0xaf, 0xc0, 0x08, 0x3e, 0x4b, 0xe3, 0x33, 0x3e, 0xde, 0x29, 0x3d, 0xbe,
  0x3a, 0x7a, 0xa9, 0x3d, 0x8d, 0xeb, 0xa6, 0x3c, 0x44, 0xd2, 0x79, 0xbe,
  0x70, 0x1c, 0x1f, 0xbd, 0x84, 0x46, 0x81, 0xbe, 0xbc, 0xa6, 0x77, 0xbe,
  0xba, 0xd6, 0x8a, 0xbc, 0x5c, 0xb0, 0x95, 0xbe, 0xd9, 0x42, 0xc1, 0x3d,
  0x7e, 0xd4, 0x0c, 0x3e, 0x34, 0x06, 0xbf, 0x3d, 0xab, 0xf1, 0x94, 0xbd,
  0x4a, 0x1a, 0x26, 0x3e, 0x19, 0x11, 0x8b, 0x3b, 0x65, 0xe0, 0xb4, 0xbd,
  0x86, 0x33, 0x5f, 0xbe, 0xfe, 0xcb, 0xbf, 0x3b, 0x85, 0x13, 0x0f, 0x3e,
  0x03, 0xea, 0x1e, 0xbe, 0x50, 0x23, 0x26, 0x3d, 0x32, 0x37, 0x62, 0xbe,
  0x28, 0xa1, 0xce, 0xbd, 0x63, 0xad, 0x09, 0xbe, 0xae, 0x06, 0x32, 0xbe,
  0xfc, 0x78, 0x2b, 0xbc, 0x41, 0x51, 0x61, 0xbe, 0x44, 0x34, 0x3c, 0xbe,
  0x9b, 0xd1, 0x2f, 0xbe, 0xbe, 0x42, 0x98, 0xbc, 0xf9, 0x9f, 0xa4, 0xbc,
  0x6b, 0x5c, 0xd3, 0x3c, 0xd9, 0x27, 0x2b, 0xbd, 0x80, 0x9b, 0xc8, 0x3d,
  0x20, 0x01, 0x03, 0xbe, 0x73, 0xb5, 0x46, 0xbe, 0xf9, 0x0e, 0xe3, 0xbd,
  0x60, 0xf5, 0x74, 0xbe, 0xf7, 0xba, 0x46, 0xbe, 0x52, 0xb2, 0x33, 0xbe,
  0xfa, 0xa4, 0xba, 0x3c, 0xc0, 0x4d, 0x91, 0x3e, 0xb1, 0x74, 0x7c, 0x3e,
  0xd8, 0x05, 0x95, 0xbd, 0x17, 0xb1, 0x91, 0xbe, 0x4a, 0x70, 0xff, 0x3d,
  0x2c, 0x11, 0x7c, 0x3e, 0x0c, 0xe1, 0xc6, 0x3d, 0x3f, 0xa4, 0x47, 0xbe,
  0xab, 0xb5, 0xa6, 0xbd, 0x22, 0x11, 0x56, 0x3e, 0x54, 0xcf, 0x7f, 0xbe,
  0x36, 0xc4, 0x29, 0x3e, 0x45, 0x8c, 0xb3, 0xbd, 0x87, 0x9e, 0x1e, 0xbd,
  0x2a, 0x85, 0x49, 0xbe, 0x59, 0x6a, 0x23, 0xbd, 0x78, 0xf7, 0x17, 0xbd,
  0xc1, 0xb3, 0x4e, 0x3e, 0x4d, 0x33, 0x08, 0x3e, 0x2b, 0x35, 0x73, 0xbc,
  0xa3, 0xae, 0x81, 0x3d, 0xab, 0xc3, 0x82, 0x3e, 0x20, 0x36, 0xf0, 0xbd,
  0x8f, 0xf3, 0x25, 0xba, 0xce, 0x30, 0x22, 0x3e, 0x99, 0x9f, 0x82, 0x3d,
  0xe6, 0x87, 0x71, 0xbd, 0xc6, 0xd6, 0x16, 0xbe, 0xce, 0x17, 0x35, 0xbe,
  0x68, 0x99, 0x9a, 0xbc, 0x8d, 0x1b, 0x24, 0x3e, 0xdf, 0x3e, 0x3b, 0x3d,
  0x52, 0x37, 0x04, 0xbe, 0x45, 0xef, 0xde, 0x3d, 0x75, 0x19, 0x9e, 0x3d,
  0xc6, 0xb2, 0xe5, 0xbd, 0x03, 0x7a, 0x7c, 0x3c, 0xde, 0x91, 0x31, 0x3e,
  0x37, 0x74, 0xed, 0x3d, 0x3e, 0xdc, 0xc3, 0x3d, 0xff, 0xb9, 0x6e, 0xbe,
  0xee, 0xe8, 0x01, 0x3e, 0x0d, 0x6f, 0x85, 0xbe, 0xc5, 0xa0, 0x54, 0xbe,
  0xd5, 0x85, 0xde, 0xbd, 0x1c, 0x8e, 0x2e, 0xbe, 0x08, 0x85, 0xbb, 0x3d,
  0x18, 0xaa, 0xfb, 0x3d, 0x81, 0x3e, 0x15, 0xbe, 0xdc, 0x27, 0x53, 0x3d,
  0x0d, 0x8e, 0x0a, 0xbe, 0x9e, 0xa7, 0x06, 0x3e, 0x6d, 0x85, 0x49, 0xbe,
  0xf2, 0xba, 0x28, 0xbe, 0x90, 0x15, 0xa1, 0x3b, 0x02, 0x67, 0x70, 0xbe,
  0x9f, 0xbb, 0x3d, 0x3e, 0x36, 0x11, 0x06, 0xbe, 0x23, 0x9c, 0xca, 0xbc,
  0x67, 0x4a, 0xa6, 0x3d, 0x44, 0x9b, 0x41, 0xbe, 0xcf, 0x4d, 0x60, 0x3d,
  0x9e, 0x8c, 0x77, 0x3d, 0x45, 0x79, 0x7d, 0xbe, 0xad, 0x8b, 0x05, 0x3d,
  0x4c, 0x76, 0xc8, 0xbc, 0x93, 0x2e, 0x0f, 0x3e, 0x51, 0xd4, 0x1f, 0xbe,
  0x81, 0x0b, 0x26, 0x3e, 0x27, 0x63, 0x1b, 0xbe, 0xb9, 0x5b, 0x44, 0x3e,
  0x19, 0xde, 0xe0, 0x3d, 0xee, 0x5d, 0x32, 0xbe, 0xaf, 0x0b, 0x8d, 0x3d,
  0xa2, 0xe7, 0x81, 0xbe, 0xc7, 0xb7, 0x6d, 0xbe, 0x10, 0x9d, 0x14, 0xbc,
  0x39, 0xeb, 0x31, 0xbe, 0x92, 0x9d, 0xa4, 0x3c, 0xc1, 0x39, 0x81, 0x3c,
  0x26, 0xda, 0xf6, 0xbd, 0x3e, 0x76, 0x6a, 0xbd, 0x1e, 0x32, 0xd8, 0xbd,
  0x24, 0x3f, 0x08, 0xbd, 0xdf, 0x39, 0x33, 0xbe, 0x55, 0x8c, 0xe1, 0x3b,
  0x9e, 0xbd, 0xfc, 0xbd, 0x38, 0xef, 0xa4, 0x3d, 0xdc, 0xe6, 0xb3, 0x3d,
  0xe3, 0x35, 0x10, 0x3e, 0xe7, 0xa3, 0x01, 0xbc, 0x5a, 0x7e, 0xfe, 0x3d,
  0x5e, 0x11, 0xb5, 0x3d, 0x6c, 0xd7, 0xab, 0xbd, 0x32, 0x0b, 0x47, 0xbe,
  0xbc, 0x13, 0x96, 0xbe, 0x80, 0x42, 0x59, 0x3d, 0x80, 0x03, 0x00, 0xbc,
  0x06, 0xef, 0x64, 0xbe, 0x13, 0xb5, 0xc5, 0xbb, 0xb4, 0xd8, 0x9c, 0x3c,
  0x7d, 0x68, 0x7b, 0x3d, 0x46, 0x22, 0x27, 0xbd, 0x77, 0xf2, 0xcf, 0xbd,
  0xe1, 0x9e, 0xbb, 0xbd, 0xa6, 0xe8, 0x87, 0xbe, 0xda, 0x46, 0x96, 0x3c,
  0xe9, 0xff, 0x5b, 0x3d, 0xbc, 0x90, 0x1a, 0xbc, 0x8e, 0x86, 0x80, 0xbe,
  0x88, 0xb5, 0x70, 0xbe, 0xa8, 0xd2, 0x58, 0xbe, 0x3d, 0x1a, 0xf9, 0xbb,
  0xd4, 0x03, 0xd5, 0x3c, 0xb1, 0x81, 0x47, 0xbe, 0xff, 0x4d, 0x0a, 0x3d,
  0x85, 0xcd, 0x93, 0x3b, 0x5a, 0xfe, 0x6b, 0xbe, 0x8c, 0xee, 0x55, 0xbd,
  0xcc, 0xf7, 0x83, 0xbe, 0x07, 0x94, 0x39, 0xbe, 0xe3, 0xab, 0xae, 0x3d,
  0xd8, 0xbb, 0x18, 0xbe, 0x4f, 0xc9, 0x27, 0x3e, 0xde, 0x31, 0x68, 0x3d,
  0x41, 0x05, 0xd6, 0xbd, 0x1f, 0xd8, 0x5b, 0xbd, 0x12, 0xe9, 0x5a, 0xbe,
  0x53, 0x9b, 0x16, 0xbd, 0x14, 0x83, 0x75, 0xbc, 0x59, 0x34, 0x09, 0x3e,
  0x61, 0x5f, 0xd0, 0xbd, 0x04, 0xcb, 0x60, 0x3d, 0xf4, 0x60, 0xe4, 0xbd,
  0xc0, 0x58, 0xec, 0x3d, 0x75, 0x03, 0xa1, 0x3d, 0x18, 0x34, 0x09, 0xbb,
  0xc1, 0x74, 0x55, 0xbe, 0x3e, 0xdf, 0x82, 0xbe, 0x88, 0x04, 0x0d, 0x3e,
  0xe9, 0x0e, 0x3e, 0xbd, 0x7a, 0x26, 0xda, 0xbd, 0x7d, 0xca, 0x0a, 0x3e,
  0x86, 0x73, 0x62, 0xbe, 0x18, 0x79, 0x77, 0xbe, 0x96, 0xed, 0x3a, 0x3e,
  0x4e, 0x37, 0xf0, 0x3d, 0xc1, 0x7e, 0x06, 0xbc, 0x50, 0x63, 0x24, 0xbe,
  0xe3, 0xdb, 0x6c, 0xbe, 0x1e, 0x36, 0x51, 0x3d, 0x00, 0xce, 0x7f, 0xbe,
  0x97, 0x5a, 0xea, 0xbd, 0x17, 0x55, 0x07, 0x3a, 0xfc, 0xba, 0xe1, 0xbd,
  0x65, 0x51, 0xc4, 0x3d, 0x39, 0x91, 0xd7, 0x3d, 0x53, 0xfa, 0xd6, 0x3e,
  0x11, 0xdb, 0x07, 0xbe, 0x43, 0x1f, 0x2f, 0xbd, 0x49, 0x23, 0x58, 0x3d,
  0x89, 0x88, 0xaa, 0x3e, 0xaf, 0x42, 0xb6, 0x3d, 0x91, 0x30, 0x59, 0xbe,
  0x24, 0x37, 0xad, 0x3e, 0xef, 0x79, 0x3d, 0x3f, 0xb9, 0x50, 0x9e, 0x3e,
  0x71, 0xc0, 0x4e, 0x3c, 0x90, 0x78, 0xc0, 0xbc, 0x16, 0xa2, 0x40, 0x3d,
  0x9b, 0x55, 0xe7, 0x3c, 0x33, 0xd2, 0x23, 0x3e, 0x1c, 0xb9, 0x62, 0xbd,
  0x68, 0xda, 0x78, 0xbc, 0x60, 0xff, 0x3e, 0xbe, 0xb5, 0x1a, 0x9e, 0xbe,
  0x36, 0xae, 0x13, 0x3e, 0x6b, 0x39, 0x94, 0x3d, 0x95, 0xb4, 0xb8, 0xbc,
  0xe5, 0xbb, 0xe8, 0xbd, 0x1e, 0x20, 0xfd, 0x3d, 0x42, 0x77, 0x1b, 0x3f,
  0xd6, 0xa8, 0x7a, 0x3d, 0x53, 0x56, 0xaf, 0xbe, 0xcf, 0x4b, 0x55, 0x3e,
  0xb9, 0x7e, 0x11, 0x3e, 0x6d, 0xe9, 0xaf, 0x3b, 0xb3, 0x82, 0x1d, 0xbe,
  0x46, 0x65, 0xfa, 0xbd, 0xa8, 0xc2, 0x51, 0x3d, 0xda, 0x9e, 0xf5, 0x3d,
  0x9a, 0x67, 0xc4, 0xbd, 0xec, 0xe6, 0x26, 0x3d, 0x7b, 0xb5, 0x21, 0x3d,
  0x94, 0xee, 0x8f, 0x3e, 0x6c, 0xfe, 0x40, 0xbe, 0xfb, 0xfa, 0x73, 0x3e,
  0x7c, 0xb5, 0xa7, 0x3e, 0xc3, 0xb6, 0x6f, 0x3e, 0x1d, 0xfa, 0xb3, 0xbd,
  0xb3, 0x52, 0x00, 0x3e, 0xff, 0xc0, 0x43, 0xbe, 0x66, 0x23, 0x0d, 0x3d,
  0x80, 0x51, 0x37, 0x3e, 0xfc, 0x56, 0x40, 0xbc, 0xb3, 0x63, 0x86, 0x3e,
  0x09, 0x73, 0x8c, 0x3c, 0x2e, 0x2e, 0xf3, 0xbd, 0xab, 0x47, 0x3e, 0xbd,
  0x52, 0x20, 0x33, 0x3e, 0x3d, 0xbc, 0x22, 0x3e, 0x4e, 0xe8, 0xee, 0xbd,
  0x9b, 0x51, 0x68, 0x3e, 0x4f, 0x30, 0xc7, 0x3e, 0xb4, 0xcc, 0x75, 0xbd,
  0xf3, 0x17, 0x47, 0x3d, 0x62, 0xdb, 0x02, 0xbe, 0x5e, 0xe0, 0x78, 0x3d,
  0xac, 0x47, 0x00, 0x3d, 0x34, 0xf1, 0x34, 0x3d, 0x8a, 0xc9, 0x83, 0xbd,
  0x6b, 0x09, 0xb0, 0x3e, 0xec, 0xe4, 0xf0, 0x3d, 0x78, 0x59, 0x0a, 0x3d,
  0x15, 0xc2, 0xfa, 0x3d, 0x6d, 0x46, 0x45, 0x3c, 0x70, 0x5b, 0xcf, 0x3c,
  0xc5, 0x45, 0x7e, 0xbd, 0x43, 0xe1, 0x9b, 0x3e, 0x1b, 0xd6, 0xc7, 0x3e,
  0x45, 0xd8, 0xb2, 0x3d, 0xb1, 0x46, 0x5e, 0x3d, 0x7a, 0x45, 0x2e, 0x3e,
  0x29, 0x36, 0x33, 0x3e, 0xbc, 0x74, 0xce, 0x3d, 0x01, 0xba, 0xa9, 0x3d,
  0x7f, 0x98, 0xd4, 0xbd, 0xec, 0xdb, 0x35, 0x3e, 0x68, 0x87, 0x0d, 0x3c,
  0xf1, 0xa1, 0x78, 0x3d, 0x49, 0xa4, 0xba, 0x3d, 0xdd, 0xb4, 0x1b, 0x3e,
  0x81, 0xb6, 0x6b, 0xbd, 0x48, 0xd2, 0xfe, 0xbd, 0x8a, 0x99, 0xd0, 0x3d,
  0x4f, 0x90, 0x83, 0x3e, 0x16, 0x0d, 0x19, 0xbe, 0x3c, 0x33, 0x0b, 0xbe,
  0xc5, 0x54, 0xf0, 0x3d, 0xd0, 0xc5, 0x04, 0x3d, 0x70, 0xb8, 0xba, 0x3c,
  0x62, 0x74, 0xbf, 0x3d, 0x89, 0x35, 0x82, 0xbc, 0x08, 0x56, 0xe2, 0x3c,
  0x2e, 0x71, 0x0c, 0xbe, 0x3f, 0xc6, 0x2f, 0xbe, 0x1d, 0xe0, 0x25, 0x3e,
  0x68, 0x1b, 0x48, 0x3e, 0x01, 0x68, 0x06, 0x3e, 0x41, 0xc4, 0x8d, 0xbe,
  0x2b, 0x18, 0xa2, 0x3e, 0x0d, 0xbe, 0x0a, 0x3f, 0x4c, 0x60, 0x83, 0x3e,
  0x13, 0x82, 0xf7, 0xbd, 0xc8, 0x2b, 0x56, 0x3e, 0xa0, 0x3d, 0x7c, 0x3c,
  0xda, 0x04, 0x68, 0xbb, 0x4e, 0x64, 0x6f, 0x3d, 0x40, 0x9e, 0x33, 0xbe,
  0x44, 0x89, 0x3d, 0x3d, 0x91, 0x28, 0x1b, 0xbe, 0x82, 0x15, 0x63, 0xbe,
  0x1e, 0xf0, 0xc8, 0xbd, 0x72, 0x4c, 0x1e, 0x3e, 0x3f, 0x8e, 0x35, 0xbe,
  0x26, 0xa6, 0x6c, 0xbe, 0xee, 0xa9, 0x9e, 0xbd, 0xe1, 0x6c, 0x45, 0xbe,
  0xf6, 0x8f, 0x0b, 0x3e, 0x07, 0xe3, 0x48, 0xbd, 0x0e, 0x6c, 0x2a, 0x3e,
  0x1e, 0x09, 0x10, 0xbc, 0x1b, 0x08, 0x86, 0xbe, 0xdb, 0xa6, 0x25, 0x3e,
  0xec, 0xdc, 0xf2, 0xbd, 0xe3, 0xd9, 0x6f, 0x3c, 0x03, 0x4e, 0xe7, 0x3d,
  0x82, 0x97, 0xf1, 0x3c, 0xdb, 0x85, 0x26, 0xbd, 0x35, 0x39, 0xf9, 0xbd,
  0x4e, 0x1a, 0x62, 0xbd, 0xb2, 0x23, 0x46, 0xbe, 0x05, 0xcf, 0x98, 0x3d,
  0xb3, 0x8b, 0xdd, 0x3b, 0xff, 0xd4, 0x24, 0x3e, 0x83, 0x68, 0x04, 0xbe,
  0x4c, 0x5f, 0xca, 0xbd, 0xdf, 0xc8, 0x6b, 0x3d, 0xbb, 0x4a, 0x95, 0x3d,
  0xb9, 0xff, 0x73, 0xbc, 0x85, 0x2f, 0x32, 0xbe, 0x53, 0x97, 0xb3, 0xbd,
  0xcf, 0xea, 0x51, 0xbe, 0x23, 0xb9, 0xe1, 0x3b, 0x42, 0xe1, 0x32, 0x3e,
  0x4e, 0x75, 0x26, 0x3e, 0xe4, 0x17, 0xee, 0xbd, 0x63, 0x37, 0x0e, 0xbe,
  0x79, 0x42, 0x1c, 0xbe, 0x09, 0x79, 0xb0, 0xbe, 0xe2, 0x1d, 0x0f, 0x3e,
  0x65, 0x79, 0x15, 0xbe, 0xcc, 0x2b, 0x04, 0x3e, 0x0b, 0x8f, 0x03, 0x3d,
  0x6b, 0x19, 0x65, 0xbe, 0x2e, 0xb2, 0x31, 0x3e, 0x65, 0x24, 0xcd, 0xbd,
  0x01, 0xd1, 0x16, 0x3d, 0xcb, 0xc2, 0x9f, 0xbd, 0x93, 0xea, 0xb7, 0x3c,
  0xcd, 0xc5, 0xf0, 0xbd, 0x3f, 0x7f, 0x32, 0xbe, 0xc0, 0xdc, 0xe4, 0x3d,
  0x50, 0x01, 0x48, 0xbe, 0x36, 0xcc, 0x5f, 0xbd, 0xb0, 0x32, 0xe5, 0xbd,
  0xd0, 0x79, 0xa7, 0xbd, 0x6b, 0x9d, 0xf2, 0xbd, 0xd6, 0xa3, 0xb4, 0x3d,
  0xc7, 0xa7, 0xcf, 0xbd, 0x37, 0xdf, 0x91, 0xbd, 0x56, 0x5a, 0x36, 0x3e,
  0xa0, 0xf7, 0xbf, 0xbd, 0xf7, 0xb9, 0x6c, 0xbe, 0x46, 0xf3, 0x11, 0xbd,
  0x89, 0x4c, 0xf5, 0xbd, 0xf3, 0x67, 0xfe, 0x3d, 0xb0, 0x23, 0x30, 0x3c,
  0xa6, 0xa9, 0xc1, 0x3d, 0xaa, 0x82, 0x22, 0x3e, 0x65, 0xc2, 0x68, 0x3d,
  0xd1, 0x72, 0x3b, 0xbe, 0xda, 0x62, 0x78, 0x3d, 0x2a, 0x86, 0xe1, 0x3d,
  0xcb, 0x94, 0x31, 0x3e, 0x20, 0x4e, 0x41, 0xbd, 0xa0, 0x85, 0x61, 0xbe,
  0x81, 0x48, 0x1b, 0x3d, 0x35, 0x3f, 0x0c, 0xbe, 0x5d, 0x01, 0x9e, 0xbb,
  0xf9, 0x48, 0x38, 0x3d, 0x81, 0xd6, 0xeb, 0x3d, 0x3d, 0xe1, 0xea, 0x3d,
  0x3d, 0x27, 0x45, 0xbe, 0xec, 0x24, 0x20, 0xbe, 0xaf, 0xfb, 0x7d, 0xbd,
  0x4e, 0x42, 0x92, 0xbb, 0xdb, 0xec, 0xca, 0x3c, 0xd3, 0x93, 0x25, 0x3e,
  0x22, 0xcc, 0x5e, 0xbe, 0xfd, 0x32, 0x9a, 0xbd, 0xdc, 0x6f, 0x88, 0x3d,
  0x34, 0xf3, 0xf6, 0x3c, 0xbb, 0x38, 0x56, 0xbe, 0x84, 0x6b, 0xb7, 0xbd,
  0xf3, 0xf8, 0xa4, 0x3d, 0x43, 0x42, 0x02, 0x3b, 0xb3, 0x68, 0xd3, 0xbd,
  0x97, 0x90, 0x32, 0xbe, 0xc4, 0xbc, 0x4f, 0xbe, 0x2c, 0x6f, 0x04, 0x3e,
  0xb0, 0x28, 0x21, 0x3e, 0x79, 0x29, 0x11, 0x3e, 0xee, 0xdc, 0x6a, 0xbe,
  0x77, 0x7e, 0x3e, 0xbe, 0x1e, 0x37, 0x96, 0xbd, 0x7f, 0x85, 0x4b, 0xbe,
  0x0a, 0x3d, 0x2d, 0xbe, 0x1e, 0x7b, 0x79, 0x3c, 0x23, 0x75, 0x0c, 0xbe,
  0x02, 0x3b, 0x2f, 0x3e, 0xe2, 0x74, 0x0e, 0x3e, 0xee, 0xd6, 0x27, 0xbd,
  0x3a, 0xd9, 0xdc, 0xbd, 0x6e, 0x84, 0xc4, 0xbc, 0xf8, 0xe8, 0x6c, 0x3e,
  0x3e, 0xd2, 0xab, 0x3d, 0x89, 0x11, 0xb8, 0xbd, 0x37, 0x45, 0x3c, 0x3e,
  0x3d, 0x00, 0x65, 0x3d, 0xe5, 0x94, 0x32, 0x3d, 0x6f, 0xbb, 0x19, 0xbd,
  0x5f, 0x28, 0x06, 0xbd, 0xb5, 0x87, 0x01, 0xbd, 0x30, 0xe1, 0x79, 0xbe,
  0x79, 0x0e, 0x8a, 0xbc, 0x74, 0xd5, 0x39, 0xbe, 0x41, 0xd9, 0x41, 0xbd,
  0x5b, 0x7c, 0x1f, 0xbe, 0x88, 0xce, 0xbf, 0xbd, 0x77, 0x13, 0x49, 0x3e,
  0x74, 0x9c, 0x0f, 0x3e, 0xaf, 0x9f, 0x6a, 0xbe, 0xfe, 0x1a, 0x89, 0x3c,
  0x27, 0x27, 0x8f, 0x3e, 0xa0, 0x4f, 0xe6, 0xbb, 0x18, 0x8c, 0x8d, 0xbd,
  0xce, 0xa1, 0x9a, 0xbe, 0xfa, 0x69, 0x18, 0x3d, 0x0a, 0x76, 0x6d, 0xbe,
  0x22, 0xa8, 0x62, 0xbe, 0x27, 0x08, 0x38, 0x3e, 0x86, 0xb3, 0x0a, 0x3d,
  0x26, 0x35, 0x79, 0xbe, 0x42, 0x3c, 0xa8, 0x3b, 0xd0, 0x59, 0xd5, 0xbd,
  0xa5, 0x3e, 0x5c, 0x3e, 0x8a, 0x21, 0xf3, 0xbd, 0x03, 0x65, 0x22, 0x3c,
  0x9b, 0x03, 0x06, 0xbe, 0x09, 0x6b, 0x3d, 0x3d, 0x27, 0xd9, 0x97, 0xbd,
  0x0b, 0x14, 0xed, 0xbd, 0x6a, 0x24, 0x60, 0xbe, 0x19, 0x99, 0x0d, 0x3e,
  0x16, 0xe7, 0x84, 0x3d, 0x90, 0xc8, 0x06, 0x3b, 0x4f, 0x7a, 0xa0, 0xbd,
  0x30, 0x00, 0x11, 0xbc, 0x3a, 0x11, 0x81, 0xbe, 0x20, 0x3a, 0xde, 0xb9,
  0x49, 0x91, 0x01, 0xbe, 0x27, 0x4b, 0x75, 0x3b, 0x8d, 0x63, 0x3b, 0x3e,
  0xcd, 0x0d, 0x15, 0x3d, 0x41, 0x48, 0x03, 0x3c, 0x0f, 0x1b, 0xc8, 0x3d,
  0x88, 0x65, 0x9f, 0xbd, 0x77, 0xa7, 0xa7, 0xbc, 0x3d, 0xc3, 0xac, 0x3c,
  0xcd, 0x59, 0x7e, 0x3e, 0xd6, 0xb7, 0x7d, 0x3d, 0xae, 0xde, 0x65, 0xbe,
  0xe1, 0x43, 0x52, 0x3d, 0xcc, 0xfe, 0x0c, 0xbd, 0x89, 0xeb, 0xb3, 0xbd,
  0xee, 0x7b, 0x6c, 0xbd, 0xc9, 0x19, 0xb4, 0x3d, 0x75, 0x5a, 0x4c, 0x3d,
  0xc3, 0xca, 0x50, 0x3e, 0x89, 0xf9, 0x07, 0xbe, 0x24, 0x69, 0x06, 0xbe,
  0x84, 0x67, 0x94, 0x3e, 0x6b, 0x40, 0x04, 0xbd, 0xba, 0xaf, 0xe6, 0x3c,
  0x4c, 0xf3, 0x8e, 0xbe, 0xbe, 0x0a, 0x19, 0x3e, 0xcb, 0x26, 0xbb, 0x3d,
  0xa6, 0x3e, 0x03, 0xbe, 0xd9, 0x90, 0x99, 0x3d, 0xdf, 0xe5, 0x54, 0xbd,
  0x1a, 0xee, 0xe1, 0xbd, 0x79, 0x33, 0x08, 0x3d, 0xee, 0x90, 0xee, 0xbd,
  0xd7, 0xc1, 0x45, 0x3d, 0xbf, 0xcf, 0xf5, 0x3d, 0x87, 0x9c, 0x3d, 0x3d,
  0x8c, 0x9a, 0x49, 0xbc, 0x07, 0x1b, 0x8a, 0x3e, 0xf2, 0x0c, 0x5d, 0x3e,
  0x11, 0xc3, 0x3d, 0x3e, 0xa0, 0xc6, 0xa1, 0xbe, 0x9f, 0xf5, 0x24, 0x3e,
  0x68, 0x44, 0x48, 0xbe, 0xd2, 0x5b, 0xda, 0xbd, 0xcc, 0x2b, 0x53, 0xbe,
  0xf4, 0x3a, 0x87, 0x3d, 0x45, 0x6b, 0x5c, 0xbe, 0x68, 0x75, 0xf2, 0xbd,
  0xe9, 0xbb, 0x35, 0x3c, 0x22, 0xbc, 0x98, 0xbd, 0x8a, 0xc9, 0xec, 0x3d,
  0x60, 0x6d, 0xe2, 0xbd, 0xc1, 0x36, 0xcb, 0xbd, 0x19, 0x42, 0x5a, 0x3e,
  0x44, 0x99, 0x32, 0x3c, 0x18, 0x5b, 0x87, 0xbc, 0x36, 0x56, 0xa1, 0x3c,
  0x1a, 0x3f, 0x22, 0x3e, 0xb6, 0xa5, 0x12, 0xbd, 0xce, 0xe4, 0xf7, 0xbd,
  0xca, 0x63, 0xee, 0x3d, 0x46, 0xcf, 0xc9, 0x3d, 0x6e, 0x99, 0xc7, 0xbd,
  0xc5, 0xfb, 0x6b, 0x3d, 0x23, 0x0a, 0xc1, 0x3c, 0xb6, 0x52, 0x81, 0x3d,
  0x44, 0xb7, 0xe6, 0xbd, 0xda, 0x48, 0x25, 0xbe, 0x36, 0xd7, 0xfa, 0xbc,
  0x9c, 0xc7, 0xec, 0x3c, 0x63, 0x1a, 0x5d, 0xbe, 0x65, 0xcc, 0xd5, 0xbd,
  0x01, 0xc7, 0x8f, 0xbe, 0x12, 0x46, 0x57, 0x3c, 0xf5, 0x45, 0x59, 0xbe,
  0x6c, 0x03, 0xa0, 0xbd, 0xa0, 0xc1, 0xd3, 0x3d, 0x44, 0x8a, 0x28, 0xbd,
  0xfa, 0xe3, 0x3a, 0xbe, 0x95, 0xfd, 0x2a, 0x3e, 0x01, 0xc6, 0xb7, 0x3d,
  0xba, 0x2c, 0x18, 0xbe, 0xea, 0x37, 0x09, 0xbe, 0x4f, 0xbb, 0xbf, 0x3d,
  0x71, 0xf0, 0xd7, 0x3d, 0xed, 0x7f, 0x7a, 0x3d, 0xea, 0x43, 0xcc, 0xbd,
  0xf1, 0x60, 0xf1, 0xbb, 0xa1, 0x42, 0x2b, 0xbe, 0x6c, 0x6c, 0x51, 0xbe,
  0x96, 0xb5, 0x20, 0x3e, 0xf9, 0xc1, 0x81, 0xbe, 0x71, 0xf2, 0xc9, 0xbc,
  0x86, 0x56, 0x41, 0x3d, 0x9f, 0x05, 0xb9, 0x3b, 0x0e, 0x91, 0xa3, 0x3d,
  0xc4, 0x8d, 0xdd, 0xbd, 0xdd, 0x1b, 0x03, 0xbe, 0x7f, 0xcf, 0xbc, 0xbd,
  0xfb, 0xd8, 0xa3, 0x3c, 0xcd, 0xfd, 0xb4, 0x3d, 0xca, 0x35, 0xe0, 0xbd,
  0x0e, 0x0c, 0x35, 0x3c, 0x10, 0x66, 0x17, 0x3e, 0x10, 0x1b, 0xd3, 0x3d,
  0x69, 0x99, 0xcf, 0xbd, 0x55, 0x6d, 0x56, 0x3b, 0x65, 0xf0, 0x6d, 0xbe,
  0x17, 0xf0, 0x5a, 0xbe, 0x57, 0x4d, 0x76, 0xbe, 0x2e, 0x5f, 0x60, 0xbb,
  0x40, 0x62, 0xce, 0xbd, 0xdb, 0xa7, 0x47, 0xbe, 0xb4, 0x0b, 0x66, 0xbe,
  0xa8, 0x69, 0xa3, 0xbc, 0xe1, 0x14, 0x5f, 0xbe, 0x55, 0xb5, 0x30, 0x3d,
  0xbe, 0x36, 0x36, 0xbd, 0xe3, 0x2c, 0xb9, 0xbd, 0x45, 0x7d, 0x32, 0x3e,
  0xa8, 0xe1, 0x59, 0xbd, 0x79, 0x0d, 0x3d, 0x3e, 0xfd, 0x88, 0x9e, 0xbd,
  0x4e, 0x39, 0x25, 0xbe, 0xc1, 0x31, 0x6a, 0xbe, 0x9f, 0xca, 0xf5, 0xbd,
  0x81, 0xa4, 0x5f, 0xbe, 0x9a, 0x50, 0x0b, 0x3d, 0xb1, 0x8b, 0x41, 0x3d,
  0xff, 0x70, 0x12, 0xbe, 0x2d, 0x0b, 0x94, 0xbd, 0xc9, 0x8c, 0x82, 0x3c,
  0x50, 0xe8, 0x1a, 0xbd, 0xfe, 0xf6, 0x10, 0xbd, 0x7b, 0x51, 0xee, 0x3d,
  0x66, 0x50, 0x34, 0xbe, 0xef, 0xfc, 0x81, 0xbc, 0x08, 0xe1, 0x48, 0xbc,
  0xbb, 0x5e, 0x21, 0xbd, 0x42, 0x1f, 0xc5, 0xbd, 0x00, 0x5c, 0xd3, 0x3b,
  0xa4, 0x36, 0x03, 0xbe, 0x71, 0xec, 0x08, 0xbe, 0xc5, 0x43, 0x04, 0x3c,
  0x36, 0xa0, 0x6f, 0xbe, 0x55, 0x46, 0x00, 0x3e, 0x44, 0x3e, 0x28, 0x3e,
  0x9f, 0x61, 0x00, 0xbe, 0x2b, 0x6d, 0x69, 0x3b, 0x66, 0xbb, 0xad, 0xbd,
  0x70, 0xfe, 0x3c, 0xbe, 0x5d, 0xd7, 0x12, 0xbe, 0x65, 0xc5, 0x20, 0xbe,
  0x14, 0x15, 0x80, 0xbd, 0x24, 0x6d, 0x46, 0xbe, 0x57, 0x96, 0xe7, 0xbc,
  0x60, 0x81, 0x06, 0xbe, 0x3c, 0x67, 0x56, 0xbd, 0x2b, 0xc4, 0x3b, 0xbe,
  0xe9, 0x71, 0x5c, 0xbd, 0xfa, 0x9e, 0x7f, 0xbe, 0x24, 0xfc, 0xa9, 0xbd,
  0x83, 0x80, 0x99, 0xbc, 0xf1, 0xe0, 0x83, 0xbe, 0xbb, 0x52, 0xce, 0x3d,
  0x5c, 0x3f, 0x01, 0xbe, 0x5a, 0xdf, 0x36, 0x3d, 0xa1, 0xe7, 0xf0, 0xbd,
  0x0e, 0x48, 0xbe, 0x3d, 0xa1, 0x9f, 0x5e, 0x3c, 0x03, 0x09, 0x50, 0xbe,
  0x2e, 0x39, 0x49, 0xbd, 0xe4, 0x1f, 0x32, 0x3e, 0x25, 0xe4, 0xb2, 0x3d,
  0x22, 0x07, 0x26, 0x3e, 0x50, 0x77, 0x1b, 0x3e, 0x7d, 0xe3, 0x29, 0xbe,
  0x8f, 0x59, 0x27, 0x3f, 0xcd, 0x45, 0xc9, 0x3e, 0xde, 0x06, 0x85, 0xbe,
  0xee, 0x26, 0x4b, 0xbe, 0x56, 0x0b, 0xfd, 0x3e, 0x61, 0x6c, 0x46, 0x3f,
  0x23, 0x6a, 0x18, 0x3e, 0x4d, 0x7a, 0x36, 0xbe, 0xf1, 0xfc, 0xad, 0xbd,
  0x8d, 0x78, 0x37, 0x3d, 0x8c, 0xba, 0xdd, 0xbd, 0xcf, 0x88, 0x07, 0x3e,
  0x62, 0xb6, 0x27, 0xbd, 0xae, 0x0d, 0x84, 0x3e, 0xb3, 0x94, 0x5b, 0x3c,
  0x02, 0x9e, 0x23, 0xbe, 0x5a, 0xf9, 0x60, 0xbe, 0xd7, 0xaf, 0x24, 0xbe,
  0xde, 0x5c, 0xe0, 0xbe, 0x57, 0x35, 0xda, 0xbd, 0xa7, 0xbc, 0x84, 0xbe,
  0x52, 0x1b, 0xf6, 0x3e, 0xd7, 0xb3, 0x00, 0xbe, 0x85, 0x3d, 0x74, 0xbe,
  0x5a, 0x9a, 0xa4, 0xbe, 0xcc, 0x04, 0x6f, 0x3d, 0x6e, 0x03, 0xbd, 0xbd,
  0xcd, 0x28, 0x13, 0xbe, 0xaf, 0xeb, 0xf7, 0xbc, 0x7b, 0x0d, 0x95, 0x3d,
  0x12, 0x7a, 0xaf, 0x3d, 0x28, 0x79, 0x29, 0xbd, 0x24, 0x25, 0x77, 0xbd,
  0x32, 0x8a, 0x7c, 0x3e, 0x25, 0xb2, 0xa0, 0xbd, 0xa5, 0x96, 0x2a, 0xbd,
  0xd9, 0x4f, 0xbf, 0xbd, 0x39, 0x5e, 0xfb, 0x3d, 0x7f, 0xc2, 0x6b, 0xbd,
  0x42, 0x5e, 0xef, 0xbd, 0x7e, 0x31, 0x8c, 0x3d, 0x87, 0x41, 0xb1, 0x3d,
  0xa4, 0xc2, 0x26, 0xbe, 0x61, 0xcf, 0x45, 0x3e, 0xfa, 0x43, 0xce, 0xbd,
  0x72, 0x0a, 0x1e, 0x3e, 0x8b, 0x36, 0x1c, 0xbe, 0x02, 0x4c, 0xf9, 0x3d,
  0x11, 0x7f, 0x14, 0x3c, 0x4f, 0xa3, 0xb4, 0x3e, 0x6e, 0x6c, 0x9b, 0xbe,
  0x3c, 0xb9, 0xa8, 0xbd, 0xed, 0xfa, 0xe7, 0x3b, 0xb6, 0x43, 0x41, 0x3b,
  0xb6, 0x37, 0xf3, 0x3c, 0xa2, 0x02, 0xf0, 0x3d, 0xa5, 0xab, 0x67, 0xbe,
  0x5b, 0x58, 0xe2, 0x3d, 0x12, 0x73, 0xc8, 0xbd, 0xec, 0x1c, 0x25, 0xbe,
  0x3e, 0x9f, 0xe5, 0xbd, 0x8f, 0x3d, 0x61, 0x3b, 0xfe, 0x3c, 0xd3, 0xbd,
  0xe1, 0x45, 0x1b, 0xbd, 0xd7, 0x4b, 0xde, 0x3d, 0xb0, 0xec, 0x65, 0xbd,
  0x9a, 0x0b, 0x11, 0xbe, 0x41, 0x67, 0xf6, 0xbc, 0x8c, 0x44, 0xa7, 0xbc,
  0x7b, 0x48, 0x4e, 0x3e, 0xe0, 0x4c, 0x3e, 0x3d, 0xdd, 0x0f, 0xeb, 0x3d,
  0xfb, 0x99, 0x01, 0x3d, 0xbb, 0x5a, 0x67, 0x3d, 0xb6, 0xc2, 0x55, 0xbd,
  0x04, 0x95, 0xbb, 0xbb, 0x99, 0xbc, 0x85, 0xbd, 0xaf, 0xd7, 0x19, 0x3d,
  0xfb, 0xdc, 0x77, 0xbe, 0xf5, 0xbe, 0x89, 0x3c, 0x9d, 0xd9, 0x06, 0x3e,
  0x38, 0x5a, 0xe6, 0xbb, 0xa9, 0x10, 0x5f, 0x3c, 0x2e, 0xdb, 0xc6, 0xbd,
  0xad, 0xf0, 0x7b, 0x3e, 0xc3, 0x94, 0xbb, 0x3e, 0xcd, 0x09, 0x73, 0x3e,
  0xa6, 0xc2, 0xc8, 0xbd, 0xde, 0x6b, 0x88, 0x3d, 0x23, 0x29, 0x06, 0x3e,
  0xc3, 0xdd, 0xa7, 0xbd, 0x54, 0x01, 0x2e, 0xbe, 0xdc, 0x2a, 0x85, 0xbd,
  0xbd, 0x70, 0x2a, 0x3e, 0x75, 0x46, 0x6f, 0x3e, 0xbf, 0xb0, 0x3c, 0xbd,
  0xc9, 0x7b, 0x04, 0x3f, 0x88, 0xe5, 0xab, 0x3e, 0xe0, 0x5a, 0x35, 0xbe,
  0x7a, 0xbd, 0xe9, 0xbb, 0x26, 0xbf, 0xa9, 0x3e, 0x35, 0x9a, 0x9e, 0x3e,
  0x25, 0x3d, 0x1f, 0x3e, 0x04, 0xa6, 0xa7, 0xbe, 0xc7, 0x79, 0x74, 0x3d,
  0x51, 0x96, 0x84, 0x3d, 0x36, 0x40, 0xaf, 0xbd, 0x0f, 0x39, 0x03, 0x3e,
  0x4f, 0x30, 0x7d, 0x3d, 0xac, 0x6a, 0x95, 0xbe, 0x33, 0xa1, 0x18, 0x3e,
  0xe0, 0xcf, 0xc3, 0x3d, 0x24, 0x93, 0x16, 0x3c, 0xc1, 0xfb, 0x52, 0xbe,
  0x63, 0xf4, 0x92, 0x3d, 0x63, 0x7e, 0x5f, 0xbd, 0x91, 0x2f, 0x0e, 0x3d,
  0x0a, 0xdd, 0x04, 0xbc, 0x8b, 0x84, 0x65, 0xbe, 0xe9, 0x03, 0xa4, 0x3d,
  0xbe, 0x9f, 0xd9, 0xbd, 0xe2, 0x1d, 0xff, 0xbd, 0x8c, 0x6c, 0x81, 0xbe,
  0x8e, 0x5e, 0x9c, 0xbc, 0xd0, 0x9f, 0x5c, 0xbe, 0x2e, 0xa9, 0x92, 0xbe,
  0x87, 0x92, 0x31, 0x3e, 0x5c, 0x23, 0x5a, 0xbe, 0x44, 0xaa, 0x6c, 0x3d,
  0x0e, 0xe8, 0x94, 0xbd, 0x90, 0xf4, 0x26, 0xbe, 0x76, 0x5d, 0x85, 0xbd,
  0x0f, 0x47, 0x06, 0x3e, 0x75, 0x6c, 0x48, 0xbe, 0xa6, 0x7a, 0x47, 0x3e,
  0xba, 0x0f, 0x37, 0x3c, 0x28, 0xa0, 0x47, 0xbe, 0x43, 0xe7, 0x0b, 0x3e,
  0xc4, 0x40, 0x3c, 0x3d, 0x7f, 0xce, 0x3d, 0x3e, 0x28, 0x2c, 0xbe, 0xbb,
  0xf8, 0x99, 0x1d, 0xbd, 0xef, 0x63, 0x5f, 0xbe, 0xa4, 0x28, 0x26, 0xbe,
  0xad, 0x2e, 0xd1, 0x3c, 0xda, 0x2e, 0xe3, 0x3d, 0xbb, 0xf7, 0x1d, 0x3e,
  0xb6, 0xb4, 0x9d, 0x3d, 0x89, 0x62, 0x2a, 0xbe, 0xd5, 0xab, 0xcd, 0xbd,
  0xdb, 0x94, 0x9c, 0x3d, 0x20, 0x17, 0x22, 0x3a, 0xa0, 0xd4, 0x9b, 0x3d,
  0xb7, 0xeb, 0x09, 0x3e, 0x87, 0xef, 0x6a, 0x3c, 0x3c, 0x8e, 0xf9, 0x3d,
  0xf1, 0xe1, 0x79, 0xbe, 0x9a, 0xd5, 0x4d, 0xbe, 0x7a, 0x1b, 0x25, 0x3e,
  0xd1, 0xe6, 0xe1, 0x3d, 0x05, 0x4d, 0x62, 0xbe, 0xf8, 0xa0, 0x4b, 0xbe,
  0xee, 0xb5, 0x81, 0xbd, 0xa8, 0x2b, 0x56, 0xbd, 0x31, 0x30, 0x2c, 0x3e,
  0x42, 0xf8, 0x4f, 0xbe, 0x91, 0x1c, 0x1a, 0xbe, 0xc9, 0x5d, 0x40, 0xbc,
  0x5d, 0x06, 0xed, 0x3d, 0xc7, 0xd1, 0xe2, 0x3d, 0x49, 0xbb, 0x02, 0xbd,
  0x08, 0x1d, 0xd2, 0x3d, 0x87, 0x76, 0x86, 0x3d, 0xe1, 0x60, 0x02, 0xbe,
  0x28, 0x4c, 0xcf, 0xbd, 0x20, 0x22, 0x1f, 0x3e, 0xef, 0x0b, 0xc4, 0xbb,
  0x3a, 0xab, 0x13, 0xbd, 0xb7, 0xe8, 0x9e, 0xbd, 0xaf, 0x5f, 0x7b, 0xbd,
  0x32, 0x72, 0xb6, 0xba, 0xa4, 0xaa, 0xe9, 0xba, 0xc8, 0xec, 0x09, 0xbe,
  0x09, 0x09, 0xbf, 0xbd, 0xc5, 0x8f, 0x26, 0x3d, 0x95, 0xff, 0xc0, 0xbd,
  0x2f, 0xd7, 0xe3, 0x3c, 0x6e, 0x47, 0xc5, 0x3d, 0x88, 0xa4, 0x58, 0xbe,
  0x7f, 0xb8, 0x8f, 0xbd, 0x71, 0xc1, 0x72, 0xbe, 0x9d, 0x6e, 0x57, 0xbe,
  0x5a, 0x70, 0x29, 0xbd, 0x73, 0x89, 0x6e, 0xbd, 0x10, 0x07, 0x90, 0x3c,
  0x87, 0x6e, 0x90, 0x3d, 0xdd, 0x0a, 0x34, 0x3d, 0xc8, 0x46, 0x0f, 0xbe,
  0x35, 0x25, 0xae, 0xbd, 0xf0, 0xf4, 0xe6, 0x3c, 0x4f, 0x4a, 0x55, 0xbc,
  0xff, 0x36, 0x16, 0x3e, 0x2d, 0x5e, 0x4f, 0xbe, 0x26, 0x89, 0x2b, 0x3e,
  0x02, 0x7b, 0x22, 0x3d, 0x94, 0x93, 0x75, 0xbc, 0x8c, 0xdb, 0xe0, 0xbd,
  0x95, 0x3e, 0x3c, 0xbe, 0x18, 0x55, 0xcf, 0x3d, 0xc6, 0x05, 0x2f, 0xbe,
  0xd6, 0xda, 0xd8, 0x3c, 0x6d, 0x1b, 0x53, 0xbb, 0x11, 0xff, 0x30, 0xbe,
  0x0c, 0x45, 0xcc, 0x3d, 0xf7, 0x21, 0x5c, 0x3b, 0x8f, 0x4c, 0x07, 0xbd,
  0x18, 0xb1, 0x19, 0xbe, 0x86, 0x4e, 0x98, 0x3d, 0x8f, 0x11, 0x14, 0xbe,
  0xdd, 0x9f, 0xb9, 0x3d, 0xe3, 0xa7, 0x57, 0xbd, 0xf4, 0x69, 0x4b, 0xbc,
  0xef, 0x19, 0x99, 0xbd, 0x7e, 0xe1, 0xf5, 0xbd, 0x2e, 0x49, 0xb4, 0x3e,
  0x2e, 0x8b, 0x55, 0x3d, 0x18, 0x76, 0x8a, 0xbe, 0x86, 0xa8, 0xbb, 0xbd,
  0xa3, 0x0f, 0x0e, 0x3f, 0x68, 0xb6, 0x36, 0x3f, 0x8d, 0xd7, 0xa4, 0xbd,
  0xd0, 0x6b, 0x04, 0xbd, 0x89, 0xdd, 0x6d, 0x3e, 0x48, 0x56, 0x39, 0xbe,
  0x03, 0x92, 0x02, 0xbe, 0x28, 0x31, 0xb5, 0xbd, 0x55, 0xe8, 0xd5, 0xbd,
  0x15, 0x9c, 0x25, 0xbe, 0x29, 0xae, 0x50, 0x3e, 0x5e, 0x5a, 0x33, 0xbe,
  0x03, 0x57, 0x78, 0xbd, 0xc1, 0xeb, 0x14, 0x3d, 0xf0, 0x9c, 0x62, 0xbb,
  0x95, 0x0d, 0x0e, 0xbe, 0xc8, 0x7d, 0x10, 0x3e, 0x2a, 0xfd, 0xb0, 0x3e,
  0x3d, 0x37, 0xf5, 0xbd, 0x99, 0x0f, 0x08, 0xbe, 0x71, 0x0e, 0x3a, 0x3e,
  0xb6, 0x67, 0x04, 0xbe, 0x49, 0xc7, 0x77, 0xbd, 0xa6, 0x3e, 0x94, 0x3d,
  0x87, 0xae, 0x24, 0xbe, 0x82, 0x6b, 0x29, 0xbd, 0x8f, 0x53, 0x35, 0x3d,
  0x68, 0xfa, 0x29, 0xbe, 0x55, 0xaa, 0x1c, 0x3d, 0x35, 0x0b, 0x9a, 0x3e,
  0xc8, 0x25, 0x38, 0xbe, 0x00, 0x5f, 0x44, 0x3c, 0x29, 0x53, 0x10, 0xbe,
  0xda, 0x06, 0x99, 0x3e, 0xb2, 0xd1, 0x6c, 0xbd, 0x44, 0xbc, 0x7a, 0x3d,
  0x4d, 0xdb, 0xc9, 0xbc, 0x39, 0x24, 0xb0, 0xbd, 0xe3, 0x8c, 0xee, 0xbd,
  0x7c, 0xf4, 0x29, 0x3e, 0x96, 0x2a, 0x01, 0xbe, 0x61, 0xf2, 0xef, 0x3c,
  0xb1, 0x5c, 0xc6, 0x3d, 0x57, 0xee, 0x16, 0xbe, 0xfb, 0xe9, 0x0d, 0x3e,
  0xcd, 0x39, 0x90, 0x3e, 0x47, 0x85, 0x38, 0x3e, 0xde, 0xcc, 0xe8, 0x3d,
  0x6d, 0x94, 0x72, 0x3d, 0x3f, 0x02, 0x87, 0x3e, 0x8a, 0xab, 0x09, 0x3e,
  0x62, 0x1f, 0x6f, 0x3d, 0x9a, 0x6b, 0x17, 0x3e, 0xe8, 0xb2, 0x44, 0xbe,
  0xba, 0x9d, 0xdc, 0xbd, 0xba, 0xd8, 0x1f, 0xbe, 0x11, 0x1f, 0xc2, 0xbd,
  0x80, 0xb5, 0x68, 0x3d, 0xb7, 0x20, 0x77, 0xbe, 0xbc, 0x5b, 0x49, 0x3d,
  0x9f, 0xaf, 0x4d, 0x3e, 0x1a, 0x71, 0x5d, 0x3e, 0x97, 0x20, 0x2f, 0xbd,
  0x26, 0xad, 0x3e, 0xbd, 0xa0, 0xea, 0x73, 0x3e, 0x51, 0x8b, 0x32, 0x3d,
  0x7c, 0xe6, 0x43, 0x3e, 0xd2, 0x89, 0xd9, 0x3c, 0xf3, 0x57, 0xa6, 0xbd,
  0xd3, 0x7b, 0x12, 0x3e, 0x99, 0xb9, 0x02, 0xbe, 0xc5, 0x1e, 0x43, 0x3e,
  0xee, 0xf0, 0x36, 0xbe, 0xc2, 0xa1, 0xb9, 0x3d, 0x1c, 0xa7, 0x49, 0xbe,
  0x91, 0xf6, 0x07, 0x3b, 0xc9, 0xe4, 0x7e, 0x3e, 0x7e, 0x7b, 0xc0, 0xbc,
  0x1d, 0xec, 0xd3, 0x3d, 0xf4, 0xf3, 0x21, 0xbd, 0xdf, 0xac, 0xab, 0x3e,
  0x25, 0x3d, 0x8f, 0x3e, 0x6a, 0x3f, 0x50, 0x3d, 0x52, 0x52, 0xf1, 0xbd,
  0x87, 0x7d, 0x7d, 0xbd, 0x4f, 0xb2, 0x5e, 0xbe, 0x39, 0x8f, 0x76, 0xbe,
  0x2d, 0xe3, 0x3b, 0xbe, 0xa7, 0x23, 0x3d, 0x3c, 0xe3, 0x93, 0x9e, 0xbd,
  0x0a, 0xd3, 0xdc, 0x3d, 0x81, 0x4a, 0xfe, 0xbc, 0x97, 0x37, 0x31, 0x3e,
  0x15, 0x1a, 0x2b, 0x3d, 0x4f, 0xa9, 0x5c, 0xbd, 0x7a, 0x33, 0x94, 0xbe,
  0xe3, 0xb4, 0xb8, 0x3e, 0xbe, 0x43, 0x72, 0x3e, 0x67, 0x61, 0x25, 0x3d,
  0xe1, 0xb3, 0x0c, 0xbe, 0x6b, 0xd8, 0x0a, 0xbd, 0x4c, 0xe5, 0x5a, 0x3e,
  0xb5, 0x13, 0xb1, 0xbd, 0x53, 0x22, 0x1c, 0x3d, 0x36, 0x7b, 0x3c, 0xbe,
  0x61, 0x46, 0x88, 0x3d, 0xa3, 0x91, 0x3f, 0xbe, 0xf1, 0x06, 0xcb, 0x3c,
  0x99, 0x46, 0x12, 0x3c, 0x4e, 0x92, 0x1f, 0xba, 0x7a, 0x34, 0xf0, 0xbd,
  0x48, 0x7a, 0x27, 0xbe, 0x17, 0x61, 0x4f, 0xbe, 0xcf, 0x1e, 0x23, 0xbe,
  0x56, 0xc4, 0x15, 0xbd, 0x1b, 0x34, 0xda, 0xbd, 0x1b, 0xf8, 0x06, 0x3e,
  0xbd, 0x02, 0x31, 0xbd, 0x8d, 0x9c, 0xcf, 0xbd, 0x9c, 0x94, 0x0e, 0xbe,
  0x43, 0x14, 0x66, 0xbd, 0x99, 0xfb, 0x56, 0xbe, 0x08, 0x7b, 0xa9, 0x3d,
  0x7a, 0x16, 0x54, 0x3d, 0x93, 0xb3, 0xfe, 0xbd, 0x0d, 0x46, 0x02, 0xbe,
  0x18, 0xc7, 0x23, 0xbe, 0xfd, 0xb6, 0x88, 0xbd, 0x14, 0x85, 0xa5, 0x3d,
  0xeb, 0x96, 0xcf, 0x3c, 0xd4, 0x64, 0x46, 0xbe, 0x1d, 0x1d, 0x4e, 0x3b,
  0xe5, 0x74, 0xdb, 0x3a, 0x11, 0xc8, 0xe9, 0xbd, 0xac, 0x12, 0x04, 0x3c,
  0x34, 0xaf, 0x4b, 0x3e, 0x8e, 0x82, 0x5e, 0xbe, 0xb3, 0x2e, 0xdd, 0xbd,
  0xf3, 0x6b, 0xd5, 0xbd, 0xfa, 0xc1, 0x65, 0x3b, 0x01, 0x4a, 0x94, 0xbd,
  0xb7, 0xff, 0xdb, 0x3b, 0x9b, 0x3d, 0x8d, 0xbe, 0x6b, 0x9b, 0x34, 0xbe,
  0x37, 0xb4, 0x22, 0x3c, 0x65, 0xcb, 0x70, 0xbe, 0x1c, 0xf1, 0x8e, 0x3d,
  0x0b, 0x57, 0x7c, 0x3d, 0x7e, 0xd2, 0x4c, 0x3c, 0x47, 0xfb, 0x9d, 0x3d,
  0x85, 0x41, 0xc9, 0xbd, 0xcd, 0x51, 0x31, 0xbe, 0xf6, 0xc7, 0x02, 0xbe,
  0x10, 0x7f, 0x9a, 0xbd, 0x57, 0x91, 0xd5, 0xbd, 0x4b, 0x3e, 0x86, 0xbd,
  0xb0, 0x85, 0x80, 0x3d, 0x3d, 0x90, 0x98, 0xbd, 0xa1, 0x4e, 0x4c, 0xbe,
  0xa5, 0x63, 0x83, 0xbd, 0xe7, 0x82, 0x9d, 0xbd, 0x0c, 0xaa, 0xfa, 0xbd,
  0xd9, 0x0d, 0x06, 0x3e, 0xaf, 0x6a, 0xc9, 0xbc, 0x4b, 0xdc, 0x30, 0xbe,
  0xcc, 0xff, 0x4b, 0xbe, 0xe8, 0x64, 0x45, 0xbd, 0x1e, 0xce, 0x2a, 0x3e,
  0x01, 0x90, 0xf3, 0xbd, 0x3a, 0x62, 0x8e, 0xbd, 0xa6, 0x0d, 0x5f, 0xbe,
  0x2a, 0x95, 0x0b, 0xbe, 0xbe, 0x62, 0xc4, 0xbd, 0xb9, 0xb8, 0x2a, 0x3e,
  0x1b, 0x2b, 0x25, 0xbc, 0x90, 0x10, 0x7b, 0x3d, 0x9f, 0x6e, 0x11, 0xbe,
  0x61, 0x78, 0x32, 0xbe, 0x71, 0x6b, 0xb6, 0x3d, 0xe4, 0x7d, 0x04, 0xbe,
  0x13, 0x36, 0x45, 0x3e, 0xce, 0x6f, 0x14, 0x3d, 0xdc, 0x37, 0xf0, 0xbd,
  0xa0, 0x4f, 0x0a, 0x3e, 0xf7, 0x0e, 0x74, 0x3d, 0x58, 0xdc, 0x1d, 0xbd,
  0x6a, 0x80, 0x17, 0xbe, 0x67, 0xdd, 0x54, 0xbe, 0x66, 0xba, 0xa9, 0xbd,
  0x91, 0x33, 0x38, 0xbe, 0x33, 0x91, 0x3f, 0xbe, 0x6b, 0xc3, 0xb6, 0x3d,
  0x8c, 0x19, 0x4b, 0x3d, 0x55, 0x73, 0x27, 0x3d, 0x65, 0xcf, 0x3d, 0xbe,
  0x75, 0xdd, 0x84, 0xbd, 0xf6, 0x2c, 0x5c, 0xbd, 0xe9, 0x27, 0x3a, 0x3e,
  0x20, 0x56, 0xad, 0x3d, 0xad, 0xc0, 0x8e, 0x3d, 0x7a, 0xcb, 0x6c, 0xbd,
  0x21, 0x22, 0x36, 0x3d, 0xee, 0x3e, 0xba, 0xbd, 0x60, 0xe6, 0x47, 0xbd,
  0x3b, 0x71, 0x22, 0xbe, 0x51, 0x33, 0x21, 0xbe, 0x93, 0xcd, 0x2e, 0x3e,
  0xca, 0xbb, 0x7d, 0xbe, 0x06, 0xaf, 0x24, 0x3a, 0x97, 0x1e, 0x18, 0x3e,
  0x34, 0x89, 0x9a, 0x3d, 0x28, 0x90, 0x3c, 0xbe, 0xf1, 0x3e, 0x8f, 0x3d,
  0x87, 0x53, 0xaf, 0x3d, 0x18, 0xd4, 0xe7, 0x3d, 0x8b, 0xdd, 0x46, 0xbe,
  0xec, 0x98, 0x89, 0xbd, 0xbd, 0x58, 0xf2, 0x3e, 0xbe, 0x41, 0x8b, 0x3d,
  0xb6, 0x90, 0xe8, 0xbd, 0x09, 0xec, 0x26, 0xbd, 0x5b, 0x7f, 0x99, 0x3e,
  0x19, 0x17, 0xf8, 0x3e, 0x1e, 0xad, 0x49, 0x3d, 0xde, 0x59, 0x4a, 0xbe,
  0x45, 0x8a, 0x77, 0xbd, 0x2b, 0xbd, 0x50, 0x3c, 0x1a, 0x06, 0x22, 0xbe,
  0xee, 0x9f, 0x8e, 0x3d, 0xb5, 0xc3, 0xf2, 0xbd, 0x59, 0xa2, 0xdb, 0xbd,
  0xf4, 0xa2, 0x7b, 0x3d, 0x34, 0xf6, 0x55, 0xbe, 0x87, 0xb6, 0xce, 0x3e,
  0x31, 0xb7, 0xad, 0xbd, 0xa4, 0xfc, 0xff, 0xbd, 0xdf, 0xb3, 0x7f, 0xbe,
  0x62, 0xf9, 0xc5, 0x3f, 0x51, 0x28, 0xab, 0x3e, 0xce, 0xe5, 0x8a, 0xbe,
  0xcd, 0x6b, 0x53, 0xbd, 0xbc, 0xfd, 0x07, 0xbd, 0x73, 0x3b, 0x19, 0xbe,
  0xc9, 0x8b, 0x4e, 0x3d, 0x33, 0x59, 0x35, 0xbe, 0x3d, 0x9e, 0xd8, 0x3b,
  0x55, 0x47, 0x97, 0xbe, 0x25, 0xbd, 0x98, 0x3d, 0xce, 0x73, 0xa7, 0xbe,
  0x1a, 0xdd, 0xda, 0x3e, 0xbf, 0x7c, 0xb2, 0x3d, 0xff, 0xcf, 0x8b, 0xbe,
  0x0d, 0xf2, 0x84, 0xbe, 0x98, 0x12, 0xa6, 0x3e, 0x9a, 0xef, 0xff, 0x3d,
  0xf1, 0x60, 0xea, 0xbd, 0xe1, 0x3a, 0x44, 0xbe, 0x6f, 0x39, 0x5e, 0xbe,
  0x11, 0xe8, 0x7c, 0x3c, 0x31, 0x79, 0x65, 0xbe, 0xc3, 0xc6, 0x37, 0xbe,
  0xde, 0xb5, 0xb4, 0xbc, 0xb1, 0x52, 0x9e, 0xbe, 0xc9, 0x86, 0x2e, 0xbe,
  0x47, 0xcc, 0x51, 0x3d, 0x93, 0x89, 0xd5, 0x3e, 0x5f, 0x5e, 0x8b, 0xbc,
  0x88, 0x33, 0xdc, 0x3d, 0x97, 0xa5, 0x4d, 0x3b, 0xab, 0x9d, 0xee, 0x3e,
  0xad, 0x9a, 0x8f, 0x3e, 0x63, 0x3b, 0x1a, 0xbe, 0xa7, 0xf5, 0xbc, 0x3e,
  0x7c, 0x2b, 0xa8, 0xbd, 0x27, 0xe9, 0xcd, 0x3d, 0x3a, 0xf9, 0x74, 0xbb,
  0x65, 0x04, 0x7e, 0x3d, 0x77, 0x70, 0x35, 0x3e, 0xce, 0x62, 0x54, 0xbe,
  0x53, 0x2c, 0x8a, 0xbd, 0x73, 0xd2, 0x95, 0xbe, 0xbc, 0x00, 0xda, 0x3e,
  0x2e, 0x2b, 0x11, 0xbe, 0xca, 0x4f, 0x89, 0xbe, 0x31, 0x63, 0x6d, 0x3c,
  0x15, 0x3f, 0xc0, 0x3f, 0x38, 0x68, 0x0d, 0x3e, 0xe9, 0xef, 0x10, 0xbe,
  0x49, 0x22, 0xbc, 0xbe, 0x03, 0xf4, 0x04, 0xbe, 0x64, 0xf0, 0x10, 0xbd,
  0xe5, 0x8e, 0xf8, 0x3d, 0xb7, 0xe2, 0x95, 0x3c, 0x4d, 0x9f, 0x53, 0x3e,
  0x32, 0x1f, 0xb1, 0xbd, 0xa8, 0x6d, 0x38, 0x3d, 0x18, 0xe7, 0x04, 0xbe,
  0xa5, 0x87, 0x02, 0x3f, 0x43, 0xf1, 0xac, 0x3c, 0x8a, 0x54, 0xf0, 0x3b,
  0xb6, 0x0d, 0x99, 0xbe, 0xb8, 0x36, 0x77, 0x3e, 0xb9, 0xad, 0x47, 0x3d,
  0x84, 0x86, 0x4d, 0x3c, 0x66, 0x52, 0x87, 0xbe, 0x33, 0x2e, 0x3d, 0xbc,
  0x09, 0xad, 0x8d, 0xbd, 0xba, 0x8c, 0xee, 0xbd, 0x12, 0xea, 0x36, 0xbe,
  0x1a, 0xe0, 0x1b, 0xbe, 0xb0, 0x2f, 0x4b, 0xbe, 0x71, 0xc3, 0x42, 0x3e,
  0xed, 0x38, 0x51, 0xbe, 0xc6, 0x1d, 0xcd, 0x3e, 0x9b, 0xb6, 0x52, 0xbe,
  0x88, 0xad, 0x5f, 0xbe, 0x6a, 0xad, 0x89, 0xbe, 0x6c, 0x1f, 0xeb, 0x3e,
  0x5a, 0x4f, 0xc6, 0x3e, 0x2c, 0x11, 0x99, 0x3d, 0x06, 0x7d, 0x0a, 0xbe,
  0xe8, 0x54, 0x1c, 0xbe, 0xcd, 0x46, 0x43, 0xbe, 0x73, 0xf6, 0x37, 0xbe,
  0x15, 0xa9, 0xcb, 0xbd, 0x07, 0x28, 0xdd, 0xbd, 0xea, 0x24, 0xac, 0xbe,
  0x17, 0x0f, 0xed, 0xbd, 0xb4, 0x31, 0xb0, 0xbe, 0x7c, 0x59, 0xc7, 0xbb,
  0x4c, 0xb2, 0xab, 0x3d, 0x93, 0x2b, 0x83, 0xbe, 0x7c, 0xc0, 0x38, 0x3d,
  0x34, 0x5b, 0x25, 0xbe, 0x68, 0xa9, 0x35, 0xbe, 0xa5, 0x18, 0x2a, 0x3b,
  0x47, 0xee, 0xe8, 0x3d, 0xe7, 0x54, 0x9d, 0x3d, 0x54, 0x3e, 0x01, 0xbe,
  0x76, 0xce, 0x42, 0xbe, 0xa5, 0x19, 0x93, 0xbd, 0xff, 0xff, 0x89, 0xbd,
  0xaf, 0xb5, 0x88, 0x3d, 0xe9, 0xd0, 0x80, 0x3c, 0xfb, 0x62, 0x97, 0x3d,
  0x22, 0x7f, 0x11, 0xbd, 0x94, 0x87, 0xb1, 0x3c, 0x02, 0xad, 0xc4, 0x3d,
  0xfa, 0x91, 0xf7, 0xbd, 0x5e, 0x01, 0x10, 0x3c, 0x0b, 0xa0, 0x9b, 0xbd,
  0x0e, 0x61, 0xea, 0x3c, 0x24, 0x33, 0xc2, 0xbd, 0xed, 0x8d, 0xbc, 0xbd,
  0x17, 0x44, 0x8d, 0xbd, 0xe2, 0x7f, 0x73, 0xbe, 0xe2, 0x1a, 0xad, 0xbc,
  0x97, 0x57, 0x52, 0xbe, 0xfb, 0xf8, 0x8e, 0xbe, 0x88, 0xb0, 0x11, 0x3e,
  0xac, 0xd4, 0xd8, 0x3c, 0xb5, 0x6a, 0x76, 0xbe, 0x6c, 0xae, 0x9d, 0x3d,
  0x69, 0x1b, 0x88, 0xbe, 0x6d, 0xd1, 0x34, 0xbe, 0xb1, 0x9e, 0xad, 0xbc,
  0x5c, 0x3e, 0x07, 0x3e, 0x42, 0x48, 0x7f, 0xbe, 0xfe, 0x44, 0x16, 0x3b,
  0x89, 0x90, 0x31, 0xbe, 0x78, 0xbd, 0xf6, 0xbd, 0xa5, 0xf1, 0x9d, 0xbd,
  0x04, 0xa8, 0xb4, 0x3d, 0x7d, 0x83, 0x16, 0x3e, 0x35, 0x1a, 0x6f, 0xbe,
  0x0c, 0x7a, 0xd7, 0xbc, 0x0b, 0x26, 0xbb, 0xbd, 0x7c, 0xab, 0x2c, 0xbe,
  0x57, 0x0e, 0x4a, 0xbe, 0xed, 0x7f, 0xe9, 0x3c, 0x04, 0xec, 0x07, 0x3e,
  0x71, 0xee, 0x25, 0xbe, 0xe5, 0x5a, 0xbb, 0xbd, 0x2c, 0x3b, 0xe6, 0xbd,
  0x95, 0x66, 0x4b, 0x3c, 0x2b, 0x44, 0xc6, 0xbd, 0x72, 0xd4, 0x94, 0xb8,
  0x23, 0x9f, 0x88, 0x3d, 0x62, 0x4a, 0x8f, 0x3c, 0x6a, 0x33, 0x7a, 0x3c,
  0x7f, 0x1b, 0x3c, 0xbe, 0x4b, 0xd3, 0x2b, 0xbd, 0x7f, 0x43, 0x87, 0xbd,
  0x3c, 0x1c, 0x03, 0xbc, 0x0f, 0x50, 0x1c, 0xbe, 0xf3, 0x0e, 0x75, 0xbe,
  0x44, 0xf7, 0x95, 0x3d, 0xa5, 0xe4, 0x46, 0xbe, 0xb9, 0x04, 0xa1, 0xbd,
  0x08, 0x05, 0x7e, 0xbe, 0xfb, 0x3f, 0xde, 0xbd, 0xa2, 0x8f, 0xd5, 0xbc,
  0xac, 0xd2, 0x19, 0xbe, 0x49, 0x35, 0xc3, 0x3d, 0x97, 0x2d, 0x2c, 0xbe,
  0x70, 0xed, 0x26, 0xbe, 0xf0, 0xaa, 0x4c, 0xbe, 0x39, 0x57, 0x5c, 0x3e,
  0xa1, 0xff, 0x8e, 0xbc, 0xa0, 0x91, 0x48, 0xbe, 0x22, 0xca, 0xaa, 0x3d,
  0xce, 0xda, 0xb6, 0xbd, 0xca, 0x2f, 0x5f, 0xbc, 0xeb, 0x4e, 0xeb, 0x3d,
  0x6c, 0x76, 0x89, 0xbd, 0x5d, 0xfc, 0xc4, 0x3d, 0x42, 0xf0, 0x0e, 0x3e,
  0xca, 0xb9, 0x6e, 0xbe, 0x9e, 0xd2, 0x0a, 0xbd, 0x95, 0xb7, 0xa4, 0x3d,
  0x9c, 0xcb, 0xc1, 0xbc, 0x8d, 0x36, 0x00, 0xbe, 0x00, 0x44, 0x39, 0xbe,
  0xcd, 0x60, 0x32, 0x3e, 0xf8, 0x41, 0xec, 0x3d, 0x4c, 0xfc, 0x2a, 0xbe,
  0xc8, 0x54, 0xbe, 0xbd, 0x77, 0x00, 0x91, 0xbe, 0x29, 0xde, 0x97, 0xbe,
  0xf2, 0xca, 0x11, 0x3e, 0xc0, 0xed, 0x37, 0xbe, 0x48, 0x59, 0xab, 0x3d,
  0x7c, 0x96, 0x03, 0xbe, 0x71, 0x18, 0x86, 0x3d, 0x96, 0xee, 0x67, 0x3d,
  0x7d, 0xb6, 0x24, 0xbe, 0xd7, 0x13, 0x1a, 0x3c, 0x91, 0xa4, 0x07, 0x3e,
  0x76, 0x15, 0xbd, 0x3b, 0x0c, 0x73, 0x61, 0xbe, 0xe7, 0x5c, 0x6d, 0x3d,
  0x07, 0xe2, 0x8a, 0x3c, 0x9b, 0x84, 0x7e, 0xbc, 0x37, 0x94, 0x04, 0x3d,
  0x21, 0x82, 0xa3, 0x3d, 0x96, 0x3f, 0xc2, 0x3d, 0x5d, 0x2a, 0x9e, 0x3d,
  0xc3, 0xe0, 0x34, 0xbe, 0x19, 0xf9, 0x3b, 0xbe, 0x1d, 0x99, 0x5d, 0xbc,
  0x5a, 0x72, 0x26, 0x3e, 0x4e, 0x03, 0x75, 0xbe, 0x57, 0x0c, 0xad, 0x3d,
  0xe5, 0xf4, 0x39, 0x3d, 0xdb, 0x4b, 0xea, 0xbd, 0x6f, 0x4d, 0x17, 0xbe,
  0x25, 0xbf, 0x83, 0xbe, 0xde, 0x75, 0x93, 0xbe, 0x22, 0x51, 0xcb, 0x3d,
  0x91, 0x3c, 0x22, 0xbe, 0xbe, 0x93, 0x07, 0x3d, 0xf6, 0x3a, 0x2c, 0x3d,
  0xd2, 0xcf, 0x91, 0xbd, 0x11, 0xb6, 0xd9, 0x3d, 0xd8, 0xcd, 0x05, 0xbe,
  0xf6, 0x87, 0x01, 0x3d, 0x38, 0xbd, 0x72, 0xbe, 0xd8, 0x46, 0x85, 0xbe,
  0xdf, 0x8a, 0x2b, 0x3e, 0x00, 0x29, 0x34, 0xbe, 0xcd, 0x6a, 0xe3, 0xbd,
  0xd6, 0x9e, 0xf9, 0xbd, 0xe4, 0x9a, 0x3f, 0xbe, 0x0b, 0x9f, 0x0c, 0xbd,
  0x20, 0x3f, 0x23, 0xbd, 0x87, 0x17, 0x46, 0x3d, 0xf8, 0xfc, 0xcc, 0x3d,
  0xac, 0x58, 0xb4, 0xbd, 0xcc, 0x6a, 0x18, 0xbe, 0x73, 0xbd, 0xd1, 0xbd,
  0xb2, 0x8d, 0x1b, 0xbe, 0x11, 0x58, 0x87, 0xbe, 0x55, 0x99, 0x4f, 0xbe,
  0x00, 0xf6, 0xeb, 0xbb, 0xc3, 0x54, 0x90, 0x3d, 0x46, 0x1f, 0xca, 0x3d,
  0x2f, 0x13, 0x37, 0xbe, 0xbe, 0x05, 0x03, 0xbc, 0xfb, 0x4f, 0x16, 0xbd,
  0xfe, 0x6e, 0x26, 0xbe, 0xba, 0x50, 0x75, 0xbe, 0xae, 0x3c, 0x96, 0xbe,
  0x88, 0xd3, 0xb1, 0xbd, 0x3c, 0xeb, 0x87, 0x3d, 0x85, 0xb2, 0x5f, 0xbe,
  0xb4, 0x63, 0x28, 0x3a, 0x32, 0xe8, 0x5c, 0xbd, 0xc2, 0x5e, 0x70, 0xbd,
  0xca, 0xaa, 0x2d, 0xbd, 0xe7, 0x7d, 0x1d, 0xbe, 0x13, 0x8c, 0x75, 0xbe,
  0x24, 0x86, 0x17, 0xbe, 0x97, 0xd5, 0x21, 0xbe, 0xff, 0x3a, 0x23, 0xbe,
  0x4e, 0x9d, 0x82, 0x3d, 0x01, 0xbc, 0x2f, 0xbe, 0x3d, 0xd7, 0x62, 0xbe,
  0x79, 0x40, 0x84, 0x3c, 0xf0, 0x72, 0x76, 0xbe, 0xd2, 0xf8, 0x88, 0x3d,
  0x40, 0x25, 0x73, 0xbe, 0x2b, 0x31, 0x76, 0xbc, 0xf7, 0x62, 0x66, 0x3d,
  0x3e, 0x3f, 0xe5, 0x3b, 0x66, 0x9b, 0x4f, 0xbe, 0x6e, 0x10, 0x8a, 0xbd,
  0x16, 0x33, 0x1c, 0xbd, 0x85, 0x7f, 0x0f, 0x3e, 0x5f, 0xf6, 0xa4, 0xbc,
  0xcc, 0xba, 0xf5, 0x3d, 0xb5, 0x49, 0x61, 0x3d, 0xcc, 0xca, 0xdf, 0x3d,
  0x9d, 0x23, 0x4d, 0x3d, 0xbf, 0xed, 0x61, 0x3d, 0xc5, 0xa6, 0x3a, 0xbc,
  0xf3, 0x94, 0x3b, 0xbe, 0x15, 0x38, 0xdf, 0xbd, 0x53, 0x15, 0xa4, 0xbc,
  0x42, 0x27, 0x61, 0x3d, 0xf1, 0x71, 0xfa, 0xbd, 0xdd, 0x46, 0xad, 0x3d,
  0x64, 0x9d, 0x3a, 0xbe, 0x7d, 0x04, 0x46, 0xbd, 0x8a, 0x4e, 0xb6, 0x3d,
  0xd9, 0xaa, 0x6e, 0xbe, 0xf3, 0xdd, 0x07, 0x3e, 0x81, 0x4e, 0xab, 0xbd,
  0x7e, 0xa6, 0x93, 0xbd, 0xef, 0xe8, 0x31, 0xbd, 0x0d, 0x70, 0x9b, 0xbe,
  0x90, 0x13, 0xe2, 0x3d, 0x39, 0x77, 0x24, 0xbe, 0x87, 0x79, 0x2c, 0x3d,
  0xcc, 0xe3, 0x59, 0xbe, 0x5e, 0x63, 0x1a, 0xbd, 0x01, 0x0f, 0x87, 0x3c,
  0xd5, 0x0b, 0xca, 0x3d, 0x35, 0x55, 0x5b, 0xbe, 0xd5, 0x1e, 0xcd, 0xbd,
  0x3f, 0x7d, 0xdb, 0x3d, 0xb2, 0x5e, 0xeb, 0x3d, 0x7a, 0x7f, 0x31, 0x3e,
  0xbf, 0x95, 0x5e, 0xbe, 0x62, 0xfd, 0xff, 0xff, 0x10, 0x00, 0x00, 0x00,
  0x07, 0x00, 0x00, 0x00, 0x14, 0x00, 0x00, 0x00, 0x2c, 0x00, 0x00, 0x00,
  0x02, 0x00, 0x00, 0x00, 0x10, 0x00, 0x00, 0x00, 0x70, 0x00, 0x00, 0x00,
  0x17, 0x00, 0x00, 0x00, 0x73, 0x65, 0x71, 0x75, 0x65, 0x6e, 0x74, 0x69,
  0x61, 0x6c, 0x2f, 0x64, 0x65, 0x6e, 0x73, 0x65, 0x2f, 0x4d, 0x61, 0x74,
  0x4d, 0x75, 0x6c, 0x00, 0xcc, 0xfc, 0xff, 0xff, 0xd6, 0xfd, 0xff, 0xff,
  0x04, 0x00, 0x00, 0x00, 0x08, 0x00, 0x00, 0x00, 0xff, 0xff, 0xff, 0xff,
  0x70, 0x00, 0x00, 0x00, 0x00, 0x00, 0x0e, 0x00, 0x18, 0x00, 0x08, 0x00,
  0x07, 0x00, 0x0c, 0x00, 0x10, 0x00, 0x14, 0x00, 0x0e, 0x00, 0x00, 0x00,
  0x00, 0x00, 0x00, 0x02, 0x10, 0x00, 0x00, 0x00, 0x06, 0x00, 0x00, 0x00,
  0x10, 0x00, 0x00, 0x00, 0x2c, 0x00, 0x00, 0x00, 0x01, 0x00, 0x00, 0x00,
  0x02, 0x00, 0x00, 0x00, 0x18, 0x00, 0x00, 0x00, 0x73, 0x65, 0x71, 0x75,
  0x65, 0x6e, 0x74, 0x69, 0x61, 0x6c, 0x2f, 0x66, 0x6c, 0x61, 0x74, 0x74,
  0x65, 0x6e, 0x2f, 0x43, 0x6f, 0x6e, 0x73, 0x74, 0x00, 0x00, 0x00, 0x00,
  0x34, 0xfd, 0xff, 0xff, 0x3e, 0xfe, 0xff, 0xff, 0x04, 0x00, 0x00, 0x00,
  0x10, 0x00, 0x00, 0x00, 0xb5, 0xf7, 0xb2, 0x3d, 0xef, 0x68, 0x99, 0x3d,
  0xfd, 0xc2, 0xcf, 0x3d, 0xde, 0xdc, 0xdb, 0xbe, 0x26, 0xfe, 0xff, 0xff,
  0x10, 0x00, 0x00, 0x00, 0x05, 0x00, 0x00, 0x00, 0x10, 0x00, 0x00, 0x00,
  0x44, 0x00, 0x00, 0x00, 0x01, 0x00, 0x00, 0x00, 0x04, 0x00, 0x00, 0x00,
  0x32, 0x00, 0x00, 0x00, 0x73, 0x65, 0x71, 0x75, 0x65, 0x6e, 0x74, 0x69,
  0x61, 0x6c, 0x2f, 0x64, 0x65, 0x6e, 0x73, 0x65, 0x5f, 0x31, 0x2f, 0x42,
  0x69, 0x61, 0x73, 0x41, 0x64, 0x64, 0x2f, 0x52, 0x65, 0x61, 0x64, 0x56,
  0x61, 0x72, 0x69, 0x61, 0x62, 0x6c, 0x65, 0x4f, 0x70, 0x2f, 0x72, 0x65,
  0x73, 0x6f, 0x75, 0x72, 0x63, 0x65, 0x00, 0x00, 0xa8, 0xfd, 0xff, 0xff,
  0xb2, 0xfe, 0xff, 0xff, 0x04, 0x00, 0x00, 0x00, 0x40, 0x00, 0x00, 0x00,
  0x02, 0xc0, 0xa9, 0xbd, 0x3c, 0xbb, 0x19, 0xbe, 0x48, 0x35, 0x24, 0xbf,
  0x56, 0xf6, 0xaa, 0xbd, 0x5d, 0x71, 0xb9, 0xbd, 0x24, 0xa4, 0x8a, 0x3e,
  0x05, 0xa2, 0x6e, 0xbe, 0x86, 0xab, 0x66, 0xbc, 0xc4, 0x9f, 0xc5, 0xbd,
  0x05, 0x91, 0x82, 0x3f, 0x15, 0x11, 0x80, 0xbd, 0x3f, 0xa5, 0xdb, 0xbe,
  0xb0, 0xa6, 0x98, 0xbd, 0xf4, 0x8d, 0xb4, 0x3f, 0xf3, 0x3d, 0xb9, 0xbd,
  0x8e, 0x19, 0x14, 0xbe, 0xca, 0xfe, 0xff, 0xff, 0x10, 0x00, 0x00, 0x00,
  0x04, 0x00, 0x00, 0x00, 0x10, 0x00, 0x00, 0x00, 0x44, 0x00, 0x00, 0x00,
  0x01, 0x00, 0x00, 0x00, 0x10, 0x00, 0x00, 0x00, 0x30, 0x00, 0x00, 0x00,
  0x73, 0x65, 0x71, 0x75, 0x65, 0x6e, 0x74, 0x69, 0x61, 0x6c, 0x2f, 0x64,
  0x65, 0x6e, 0x73, 0x65, 0x2f, 0x42, 0x69, 0x61, 0x73, 0x41, 0x64, 0x64,
  0x2f, 0x52, 0x65, 0x61, 0x64, 0x56, 0x61, 0x72, 0x69, 0x61, 0x62, 0x6c,
  0x65, 0x4f, 0x70, 0x2f, 0x72, 0x65, 0x73, 0x6f, 0x75, 0x72, 0x63, 0x65,
  0x00, 0x00, 0x00, 0x00, 0x4c, 0xfe, 0xff, 0xff, 0x56, 0xff, 0xff, 0xff,
  0x04, 0x00, 0x00, 0x00, 0x40, 0x00, 0x00, 0x00, 0x80, 0xdc, 0xba, 0x3f,
  0x8e, 0xae, 0x81, 0xbe, 0xbc, 0xdd, 0x29, 0xbe, 0x74, 0x5e, 0xa6, 0x3c,
  0x83, 0x5b, 0x2f, 0x3e, 0x66, 0xac, 0xe7, 0x3e, 0xe9, 0x34, 0x52, 0xbe,
  0x3c, 0x5d, 0x3b, 0xbd, 0x3e, 0x23, 0x9b, 0xbb, 0x94, 0xc9, 0x2d, 0xbe,
  0x05, 0x48, 0xfa, 0xbd, 0xe0, 0x9c, 0xe3, 0x3c, 0xcc, 0x6e, 0x09, 0x3d,
  0xbc, 0x10, 0x93, 0xbe, 0x9f, 0x0a, 0xe5, 0xbd, 0xf6, 0x7d, 0x27, 0xbe,
  0x6e, 0xff, 0xff, 0xff, 0x10, 0x00, 0x00, 0x00, 0x03, 0x00, 0x00, 0x00,
  0x10, 0x00, 0x00, 0x00, 0x48, 0x00, 0x00, 0x00, 0x01, 0x00, 0x00, 0x00,
  0x10, 0x00, 0x00, 0x00, 0x33, 0x00, 0x00, 0x00, 0x73, 0x65, 0x71, 0x75,
  0x65, 0x6e, 0x74, 0x69, 0x61, 0x6c, 0x2f, 0x63, 0x6f, 0x6e, 0x76, 0x32,
  0x64, 0x5f, 0x31, 0x2f, 0x42, 0x69, 0x61, 0x73, 0x41, 0x64, 0x64, 0x2f,
  0x52, 0x65, 0x61, 0x64, 0x56, 0x61, 0x72, 0x69, 0x61, 0x62, 0x6c, 0x65,
  0x4f, 0x70, 0x2f, 0x72, 0x65, 0x73, 0x6f, 0x75, 0x72, 0x63, 0x65, 0x00,
  0x04, 0x00, 0x06, 0x00, 0x04, 0x00, 0x00, 0x00, 0x00, 0x00, 0x06, 0x00,
  0x08, 0x00, 0x04, 0x00, 0x06, 0x00, 0x00, 0x00, 0x04, 0x00, 0x00, 0x00,
  0x20, 0x00, 0x00, 0x00, 0x2c, 0x27, 0xe8, 0x3c, 0x2d, 0x14, 0x9c, 0xbe,
  0x8a, 0x95, 0x02, 0x3e, 0x79, 0x1a, 0x0d, 0xbf, 0x6e, 0x57, 0xce, 0xbe,
  0xbd, 0x00, 0x08, 0xbc, 0x19, 0x38, 0x46, 0xbf, 0xef, 0x90, 0xee, 0xbe,
  0x00, 0x00, 0x0e, 0x00, 0x14, 0x00, 0x04, 0x00, 0x00, 0x00, 0x08, 0x00,
  0x0c, 0x00, 0x10, 0x00, 0x0e, 0x00, 0x00, 0x00, 0x10, 0x00, 0x00, 0x00,
  0x02, 0x00, 0x00, 0x00, 0x10, 0x00, 0x00, 0x00, 0x44, 0x00, 0x00, 0x00,
  0x01, 0x00, 0x00, 0x00, 0x08, 0x00, 0x00, 0x00, 0x31, 0x00, 0x00, 0x00,
  0x73, 0x65, 0x71, 0x75, 0x65, 0x6e, 0x74, 0x69, 0x61, 0x6c, 0x2f, 0x63,
  0x6f, 0x6e, 0x76, 0x32, 0x64, 0x2f, 0x42, 0x69, 0x61, 0x73, 0x41, 0x64,
  0x64, 0x2f, 0x52, 0x65, 0x61, 0x64, 0x56, 0x61, 0x72, 0x69, 0x61, 0x62,
  0x6c, 0x65, 0x4f, 0x70, 0x2f, 0x72, 0x65, 0x73, 0x6f, 0x75, 0x72, 0x63,
  0x65, 0x00, 0x00, 0x00, 0x90, 0xff, 0xff, 0xff, 0x14, 0x00, 0x18, 0x00,
  0x04, 0x00, 0x00, 0x00, 0x08, 0x00, 0x0c, 0x00, 0x10, 0x00, 0x00, 0x00,
  0x00, 0x00, 0x14, 0x00, 0x14, 0x00, 0x00, 0x00, 0x14, 0x00, 0x00, 0x00,
  0x01, 0x00, 0x00, 0x00, 0x20, 0x00, 0x00, 0x00, 0x44, 0x00, 0x00, 0x00,
  0x2c, 0x00, 0x00, 0x00, 0x04, 0x00, 0x00, 0x00, 0x01, 0x00, 0x00, 0x00,
  0x40, 0x00, 0x00, 0x00, 0x03, 0x00, 0x00, 0x00, 0x01, 0x00, 0x00, 0x00,
  0x0c, 0x00, 0x00, 0x00, 0x63, 0x6f, 0x6e, 0x76, 0x32, 0x64, 0x5f, 0x69,
  0x6e, 0x70, 0x75, 0x74, 0x00, 0x00, 0x00, 0x00, 0x04, 0x00, 0x00, 0x00,
  0xff, 0xff, 0xff, 0xff, 0x40, 0x00, 0x00, 0x00, 0x03, 0x00, 0x00, 0x00,
  0x01, 0x00, 0x00, 0x00, 0xfc, 0xff, 0xff, 0xff, 0x04, 0x00, 0x04, 0x00,
  0x04, 0x00, 0x00, 0x00
};

unsigned int model_tflite_len = 13120;// Fill the int in `src/model.cc` here