#include "magic_wand_model_data.h"

// We need to keep the data array aligned on some architectures.
#ifdef __has_attribute
#define HAVE_ATTRIBUTE(x) __has_attribute(x)
#else
#define HAVE_ATTRIBUTE(x) 0
#endif
#if HAVE_ATTRIBUTE(aligned) || (defined(__GNUC__) && !defined(__clang__))
#define DATA_ALIGN_ATTRIBUTE __attribute__((aligned(4)))
#else
#define DATA_ALIGN_ATTRIBUTE
#endif

const unsigned char g_magic_wand_model_data[] DATA_ALIGN_ATTRIBUTE = {
  // Paste the data of the char array in `src/model.cc` here
  0x1c, 0x00, 0x00, 0x00, 0x54, 0x46, 0x4c, 0x33, 0x14, 0x00, 0x20, 0x00,
  0x04, 0x00, 0x08, 0x00, 0x0c, 0x00, 0x10, 0x00, 0x14, 0x00, 0x00, 0x00,
  0x18, 0x00, 0x1c, 0x00, 0x14, 0x00, 0x00, 0x00, 0x03, 0x00, 0x00, 0x00,
  0x18, 0x00, 0x00, 0x00, 0x2c, 0x00, 0x00, 0x00, 0xd8, 0x00, 0x00, 0x00,
  0x2c, 0x00, 0x00, 0x00, 0x80, 0x00, 0x00, 0x00, 0x78, 0x00, 0x00, 0x00,
  0x05, 0x00, 0x00, 0x00, 0x28, 0x07, 0x00, 0x00, 0x44, 0x06, 0x00, 0x00,
  0xbc, 0x03, 0x00, 0x00, 0xf8, 0x02, 0x00, 0x00, 0xac, 0x01, 0x00, 0x00,
  0x01, 0x00, 0x00, 0x00, 0xd0, 0x00, 0x00, 0x00, 0x14, 0x00, 0x00, 0x00,
  0xdc, 0x32, 0x00, 0x00, 0xd8, 0x32, 0x00, 0x00, 0xd0, 0x31, 0x00, 0x00,
  0x1c, 0x31, 0x00, 0x00, 0x74, 0x30, 0x00, 0x00, 0xfc, 0x2f, 0x00, 0x00,
  0x90, 0x2f, 0x00, 0x00, 0x40, 0x13, 0x00, 0x00, 0xec, 0x11, 0x00, 0x00,
  0x10, 0x10, 0x00, 0x00, 0xb4, 0x07, 0x00, 0x00, 0xb0, 0x32, 0x00, 0x00,
  0xac, 0x32, 0x00, 0x00, 0xa8, 0x32, 0x00, 0x00, 0xa4, 0x32, 0x00, 0x00,
  0xa0, 0x32, 0x00, 0x00, 0x9c, 0x32, 0x00, 0x00, 0x98, 0x32, 0x00, 0x00,
  0x94, 0x32, 0x00, 0x00, 0x3c, 0x00, 0x00, 0x00, 0x00, 0x00, 0x00, 0x00,
  0x01, 0x00, 0x00, 0x00, 0x0c, 0x00, 0x00, 0x00, 0x08, 0x00, 0x0c, 0x00,
  0x04, 0x00, 0x08, 0x00, 0x08, 0x00, 0x00, 0x00, 0x08, 0x00, 0x00, 0x00,
  0x13, 0x00, 0x00, 0x00, 0x13, 0x00, 0x00, 0x00, 0x6d, 0x69, 0x6e, 0x5f,
  0x72, 0x75, 0x6e, 0x74, 0x69, 0x6d, 0x65, 0x5f, 0x76, 0x65, 0x72, 0x73,
  0x69, 0x6f, 0x6e, 0x00, 0xb6, 0xce, 0xff, 0xff, 0x04, 0x00, 0x00, 0x00,
  0x10, 0x00, 0x00, 0x00, 0x31, 0x2e, 0x35, 0x2e, 0x30, 0x00, 0x00, 0x00,
  0x00, 0x00, 0x00, 0x00, 0x00, 0x00, 0x00, 0x00, 0x0f, 0x00, 0x00, 0x00,
  0x4d, 0x4c, 0x49, 0x52, 0x20, 0x43, 0x6f, 0x6e, 0x76, 0x65, 0x72, 0x74,
  0x65, 0x64, 0x2e, 0x00, 0x00, 0x00, 0x0e, 0x00, 0x18, 0x00, 0x04, 0x00,
  0x08, 0x00, 0x0c, 0x00, 0x10, 0x00, 0x14, 0x00, 0x0e, 0x00, 0x00, 0x00,
  0x14, 0x00, 0x00, 0x00, 0x5c, 0x00, 0x00, 0x00, 0x60, 0x00, 0x00, 0x00,
  0x64, 0x00, 0x00, 0x00, 0x84, 0x00, 0x00, 0x00, 0x12, 0x00, 0x00, 0x00,
  0x9c, 0x31, 0x00, 0x00, 0x2c, 0x31, 0x00, 0x00, 0x88, 0x30, 0x00, 0x00,
  0xe0, 0x2f, 0x00, 0x00, 0x38, 0x2f, 0x00, 0x00, 0xd4, 0x2e, 0x00, 0x00,
  0x6c, 0x2e, 0x00, 0x00, 0x18, 0x12, 0x00, 0x00, 0xbc, 0x10, 0x00, 0x00,
  0xe0, 0x0e, 0x00, 0x00, 0x0c, 0x06, 0x00, 0x00, 0x28, 0x05, 0x00, 0x00,
  0xe8, 0x03, 0x00, 0x00, 0x3c, 0x03, 0x00, 0x00, 0x98, 0x02, 0x00, 0x00,
  0xd4, 0x01, 0x00, 0x00, 0x10, 0x01, 0x00, 0x00, 0x84, 0x00, 0x00, 0x00,
  0x01, 0x00, 0x00, 0x00, 0x00, 0x00, 0x00, 0x00, 0x01, 0x00, 0x00, 0x00,
  0x11, 0x00, 0x00, 0x00, 0x08, 0x00, 0x00, 0x00, 0x74, 0x05, 0x00, 0x00,
  0x94, 0x04, 0x00, 0x00, 0x78, 0x03, 0x00, 0x00, 0xbc, 0x02, 0x00, 0x00,
  0x30, 0x02, 0x00, 0x00, 0x50, 0x01, 0x00, 0x00, 0xa8, 0x00, 0x00, 0x00,
  0x10, 0x00, 0x00, 0x00, 0x04, 0x00, 0x00, 0x00, 0x6d, 0x61, 0x69, 0x6e,
  0x00, 0x00, 0x00, 0x00, 0x7a, 0xff, 0xff, 0xff, 0x00, 0x00, 0x00, 0x09,
  0x04, 0x00, 0x00, 0x00, 0x1c, 0x00, 0x00, 0x00, 0x10, 0x00, 0x00, 0x00,
  0x04, 0x00, 0x00, 0x00, 0xb2, 0xcf, 0xff, 0xff, 0x00, 0x00, 0x80, 0x3f,
  0x01, 0x00, 0x00, 0x00, 0x11, 0x00, 0x00, 0x00, 0x01, 0x00, 0x00, 0x00,
  0x10, 0x00, 0x00, 0x00, 0xa0, 0xfa, 0xff, 0xff, 0x19, 0x00, 0x00, 0x00,
  0x00, 0x00, 0x00, 0x19, 0x01, 0x00, 0x00, 0x00, 0x40, 0xcf, 0xff, 0xff,
  0x14, 0x00, 0x00, 0x00, 0x12, 0x00, 0x00, 0x00, 0x18, 0x00, 0x00, 0x00,
  0x30, 0x00, 0x00, 0x00, 0x20, 0x00, 0x00, 0x00, 0x02, 0x00, 0x00, 0x00,
  0x01, 0x00, 0x00, 0x00, 0x04, 0x00, 0x00, 0x00, 0x08, 0x00, 0x00, 0x00,
  0x49, 0x64, 0x65, 0x6e, 0x74, 0x69, 0x74, 0x79, 0x00, 0x00, 0x00, 0x00,
  0x02, 0x00, 0x00, 0x00, 0xff, 0xff, 0xff, 0xff, 0x04, 0x00, 0x00, 0x00,
  0x24, 0xd0, 0xff, 0xff, 0x00, 0x00, 0x0e, 0x00, 0x18, 0x00, 0x08, 0x00,
  0x0c, 0x00, 0x10, 0x00, 0x07, 0x00, 0x14, 0x00, 0x0e, 0x00, 0x00, 0x00,
  0x00, 0x00, 0x00, 0x08, 0x03, 0x00, 0x00, 0x00, 0x18, 0x00, 0x00, 0x00,
  0x0c, 0x00, 0x00, 0x00, 0x04, 0x00, 0x00, 0x00, 0x40, 0xcf, 0xff, 0xff,
  0x01, 0x00, 0x00, 0x00, 0x10, 0x00, 0x00, 0x00, 0x03, 0x00, 0x00, 0x00,
  0x0f, 0x00, 0x00, 0x00, 0x07, 0x00, 0x00, 0x00, 0x04, 0x00, 0x00, 0x00,
  0xc8, 0xcf, 0xff, 0xff, 0x14, 0x00, 0x00, 0x00, 0x11, 0x00, 0x00, 0x00,
  0x18, 0x00, 0x00, 0x00, 0x5c, 0x00, 0x00, 0x00, 0x4c, 0x00, 0x00, 0x00,
  0x02, 0x00, 0x00, 0x00, 0x01, 0x00, 0x00, 0x00, 0x04, 0x00, 0x00, 0x00,
  0x34, 0x00, 0x00, 0x00, 0x73, 0x65, 0x71, 0x75, 0x65, 0x6e, 0x74, 0x69,
  0x61, 0x6c, 0x2f, 0x64, 0x65, 0x6e, 0x73, 0x65, 0x5f, 0x31, 0x2f, 0x4d,
  0x61, 0x74, 0x4d, 0x75, 0x6c, 0x3b, 0x73, 0x65, 0x71, 0x75, 0x65, 0x6e,
  0x74, 0x69, 0x61, 0x6c, 0x2f, 0x64, 0x65, 0x6e, 0x73, 0x65, 0x5f, 0x31,
  0x2f, 0x42, 0x69, 0x61, 0x73, 0x41, 0x64, 0x64, 0x00, 0x00, 0x00, 0x00,
  0x02, 0x00, 0x00, 0x00, 0xff, 0xff, 0xff, 0xff, 0x04, 0x00, 0x00, 0x00,
  0xc8, 0xcf, 0xff, 0xff, 0xda, 0xfc, 0xff, 0xff, 0x00, 0x00, 0x00, 0x08,
  0x03, 0x00, 0x00, 0x00, 0x24, 0x00, 0x00, 0x00, 0x18, 0x00, 0x00, 0x00,
  0x0c, 0x00, 0x00, 0x00, 0x00, 0x00, 0x06, 0x00, 0x08, 0x00, 0x07, 0x00,
  0x06, 0x00, 0x00, 0x00, 0x00, 0x00, 0x00, 0x01, 0x01, 0x00, 0x00, 0x00,
  0x0f, 0x00, 0x00, 0x00, 0x03, 0x00, 0x00, 0x00, 0x0e, 0x00, 0x00, 0x00,
  0x06, 0x00, 0x00, 0x00, 0x03, 0x00, 0x00, 0x00, 0xe8, 0xfb, 0xff, 0xff,
  0x09, 0x00, 0x00, 0x00, 0x00, 0x00, 0x00, 0x09, 0x01, 0x00, 0x00, 0x00,
  0x88, 0xd0, 0xff, 0xff, 0x14, 0x00, 0x00, 0x00, 0x10, 0x00, 0x00, 0x00,
  0x18, 0x00, 0x00, 0x00, 0x6c, 0x00, 0x00, 0x00, 0x5c, 0x00, 0x00, 0x00,
  0x02, 0x00, 0x00, 0x00, 0x01, 0x00, 0x00, 0x00, 0x10, 0x00, 0x00, 0x00,
  0x46, 0x00, 0x00, 0x00, 0x73, 0x65, 0x71, 0x75, 0x65, 0x6e, 0x74, 0x69,
  0x61, 0x6c, 0x2f, 0x64, 0x65, 0x6e, 0x73, 0x65, 0x2f, 0x4d, 0x61, 0x74,
  0x4d, 0x75, 0x6c, 0x3b, 0x73, 0x65, 0x71, 0x75, 0x65, 0x6e, 0x74, 0x69,
  0x61, 0x6c, 0x2f, 0x64, 0x65, 0x6e, 0x73, 0x65, 0x2f, 0x52, 0x65, 0x6c,
  0x75, 0x3b, 0x73, 0x65, 0x71, 0x75, 0x65, 0x6e, 0x74, 0x69, 0x61, 0x6c,
  0x2f, 0x64, 0x65, 0x6e, 0x73, 0x65, 0x2f, 0x42, 0x69, 0x61, 0x73, 0x41,
  0x64, 0x64, 0x00, 0x00, 0x02, 0x00, 0x00, 0x00, 0xff, 0xff, 0xff, 0xff,
  0x10, 0x00, 0x00, 0x00, 0xa8, 0xd1, 0xff, 0xff, 0x00, 0x00, 0x0a, 0x00,
  0x10, 0x00, 0x04, 0x00, 0x08, 0x00, 0x0c, 0x00, 0x0a, 0x00, 0x00, 0x00,
  0x02, 0x00, 0x00, 0x00, 0x10, 0x00, 0x00, 0x00, 0x04, 0x00, 0x00, 0x00,
  0x01, 0x00, 0x00, 0x00, 0x0e, 0x00, 0x00, 0x00, 0x02, 0x00, 0x00, 0x00,
  0x0d, 0x00, 0x00, 0x00, 0x05, 0x00, 0x00, 0x00, 0xa8, 0xfc, 0xff, 0xff,
  0x16, 0x00, 0x00, 0x00, 0x00, 0x00, 0x00, 0x16, 0x01, 0x00, 0x00, 0x00,
  0x48, 0xd1, 0xff, 0xff, 0x14, 0x00, 0x00, 0x00, 0x0f, 0x00, 0x00, 0x00,
  0x18, 0x00, 0x00, 0x00, 0x40, 0x00, 0x00, 0x00, 0x30, 0x00, 0x00, 0x00,
  0x02, 0x00, 0x00, 0x00, 0x01, 0x00, 0x00, 0x00, 0x70, 0x00, 0x00, 0x00,
  0x1a, 0x00, 0x00, 0x00, 0x73, 0x65, 0x71, 0x75, 0x65, 0x6e, 0x74, 0x69,
  0x61, 0x6c, 0x2f, 0x66, 0x6c, 0x61, 0x74, 0x74, 0x65, 0x6e, 0x2f, 0x52,
  0x65, 0x73, 0x68, 0x61, 0x70, 0x65, 0x00, 0x00, 0x02, 0x00, 0x00, 0x00,
  0xff, 0xff, 0xff, 0xff, 0x70, 0x00, 0x00, 0x00, 0x2c, 0xd1, 0xff, 0xff,
  0x3e, 0xfe, 0xff, 0xff, 0x00, 0x00, 0x00, 0x05, 0x01, 0x00, 0x00, 0x00,
  0x38, 0x00, 0x00, 0x00, 0x2c, 0x00, 0x00, 0x00, 0x14, 0x00, 0x00, 0x00,
  0x00, 0x00, 0x0e, 0x00, 0x14, 0x00, 0x00, 0x00, 0x10, 0x00, 0x0c, 0x00,
  0x08, 0x00, 0x04, 0x00, 0x0e, 0x00, 0x00, 0x00, 0x03, 0x00, 0x00, 0x00,
  0x01, 0x00, 0x00, 0x00, 0x03, 0x00, 0x00, 0x00, 0x01, 0x00, 0x00, 0x00,
  0x01, 0x00, 0x00, 0x00, 0x0d, 0x00, 0x00, 0x00, 0x01, 0x00, 0x00, 0x00,
  0x0c, 0x00, 0x00, 0x00, 0xe8, 0xd1, 0xff, 0xff, 0x14, 0x00, 0x00, 0x00,
  0x0e, 0x00, 0x00, 0x00, 0x20, 0x00, 0x00, 0x00, 0x58, 0x00, 0x00, 0x00,
  0x40, 0x00, 0x00, 0x00, 0x04, 0x00, 0x00, 0x00, 0x01, 0x00, 0x00, 0x00,
  0x07, 0x00, 0x00, 0x00, 0x01, 0x00, 0x00, 0x00, 0x10, 0x00, 0x00, 0x00,
  0x22, 0x00, 0x00, 0x00, 0x73, 0x65, 0x71, 0x75, 0x65, 0x6e, 0x74, 0x69,
  0x61, 0x6c, 0x2f, 0x6d, 0x61, 0x78, 0x5f, 0x70, 0x6f, 0x6f, 0x6c, 0x69,
  0x6e, 0x67, 0x32, 0x64, 0x5f, 0x31, 0x2f, 0x4d, 0x61, 0x78, 0x50, 0x6f,
  0x6f, 0x6c, 0x00, 0x00, 0x04, 0x00, 0x00, 0x00, 0xff, 0xff, 0xff, 0xff,
  0x07, 0x00, 0x00, 0x00, 0x01, 0x00, 0x00, 0x00, 0x10, 0x00, 0x00, 0x00,
  0xe4, 0xd1, 0xff, 0xff, 0x1a, 0xfe, 0xff, 0xff, 0x00, 0x00, 0x00, 0x01,
  0x24, 0x00, 0x00, 0x00, 0x18, 0x00, 0x00, 0x00, 0x04, 0x00, 0x00, 0x00,
  0x0c, 0xfe, 0xff, 0xff, 0x01, 0x00, 0x00, 0x00, 0x01, 0x00, 0x00, 0x00,
  0x00, 0x00, 0x00, 0x01, 0x01, 0x00, 0x00, 0x00, 0x0c, 0x00, 0x00, 0x00,
  0x03, 0x00, 0x00, 0x00, 0x0b, 0x00, 0x00, 0x00, 0x09, 0x00, 0x00, 0x00,
  0x02, 0x00, 0x00, 0x00, 0x90, 0xd2, 0xff, 0xff, 0x14, 0x00, 0x00, 0x00,
  0x0d, 0x00, 0x00, 0x00, 0x20, 0x00, 0x00, 0x00, 0xb8, 0x00, 0x00, 0x00,
  0xa0, 0x00, 0x00, 0x00, 0x04, 0x00, 0x00, 0x00, 0x01, 0x00, 0x00, 0x00,
  0x15, 0x00, 0x00, 0x00, 0x01, 0x00, 0x00, 0x00, 0x10, 0x00, 0x00, 0x00,
  0x83, 0x00, 0x00, 0x00, 0x73, 0x65, 0x71, 0x75, 0x65, 0x6e, 0x74, 0x69,
  0x61, 0x6c, 0x2f, 0x63, 0x6f, 0x6e, 0x76, 0x32, 0x64, 0x5f, 0x31, 0x2f,
  0x52, 0x65, 0x6c, 0x75, 0x3b, 0x73, 0x65, 0x71, 0x75, 0x65, 0x6e, 0x74,
  0x69, 0x61, 0x6c, 0x2f, 0x63, 0x6f, 0x6e, 0x76, 0x32, 0x64, 0x5f, 0x31,
  0x2f, 0x42, 0x69, 0x61, 0x73, 0x41, 0x64, 0x64, 0x3b, 0x73, 0x65, 0x71,
  0x75, 0x65, 0x6e, 0x74, 0x69, 0x61, 0x6c, 0x2f, 0x63, 0x6f, 0x6e, 0x76,
  0x32, 0x64, 0x5f, 0x31, 0x2f, 0x43, 0x6f, 0x6e, 0x76, 0x32, 0x44, 0x3b,
  0x73, 0x65, 0x71, 0x75, 0x65, 0x6e, 0x74, 0x69, 0x61, 0x6c, 0x2f, 0x63,
  0x6f, 0x6e, 0x76, 0x32, 0x64, 0x5f, 0x31, 0x2f, 0x42, 0x69, 0x61, 0x73,
  0x41, 0x64, 0x64, 0x2f, 0x52, 0x65, 0x61, 0x64, 0x56, 0x61, 0x72, 0x69,
  0x61, 0x62, 0x6c, 0x65, 0x4f, 0x70, 0x2f, 0x72, 0x65, 0x73, 0x6f, 0x75,
  0x72, 0x63, 0x65, 0x00, 0x04, 0x00, 0x00, 0x00, 0xff, 0xff, 0xff, 0xff,
  0x15, 0x00, 0x00, 0x00, 0x01, 0x00, 0x00, 0x00, 0x10, 0x00, 0x00, 0x00,
  0xfc, 0xd3, 0xff, 0xff, 0x00, 0x00, 0x0e, 0x00, 0x1a, 0x00, 0x08, 0x00,
  0x0c, 0x00, 0x10, 0x00, 0x07, 0x00, 0x14, 0x00, 0x0e, 0x00, 0x00, 0x00,
  0x00, 0x00, 0x00, 0x05, 0x01, 0x00, 0x00, 0x00, 0x3c, 0x00, 0x00, 0x00,
  0x30, 0x00, 0x00, 0x00, 0x14, 0x00, 0x00, 0x00, 0x00, 0x00, 0x0e, 0x00,
  0x18, 0x00, 0x17, 0x00, 0x10, 0x00, 0x0c, 0x00, 0x08, 0x00, 0x04, 0x00,
  0x0e, 0x00, 0x00, 0x00, 0x03, 0x00, 0x00, 0x00, 0x03, 0x00, 0x00, 0x00,
  0x03, 0x00, 0x00, 0x00, 0x03, 0x00, 0x00, 0x00, 0x00, 0x00, 0x00, 0x01,
  0x01, 0x00, 0x00, 0x00, 0x0b, 0x00, 0x00, 0x00, 0x01, 0x00, 0x00, 0x00,
  0x0a, 0x00, 0x00, 0x00, 0x2c, 0xff, 0xff, 0xff, 0x11, 0x00, 0x00, 0x00,
  0x00, 0x00, 0x00, 0x11, 0x01, 0x00, 0x00, 0x00, 0xcc, 0xd3, 0xff, 0xff,
  0x14, 0x00, 0x00, 0x00, 0x0c, 0x00, 0x00, 0x00, 0x20, 0x00, 0x00, 0x00,
  0x58, 0x00, 0x00, 0x00, 0x40, 0x00, 0x00, 0x00, 0x04, 0x00, 0x00, 0x00,
  0x01, 0x00, 0x00, 0x00, 0x15, 0x00, 0x00, 0x00, 0x01, 0x00, 0x00, 0x00,
  0x08, 0x00, 0x00, 0x00, 0x20, 0x00, 0x00, 0x00, 0x73, 0x65, 0x71, 0x75,
  0x65, 0x6e, 0x74, 0x69, 0x61, 0x6c, 0x2f, 0x6d, 0x61, 0x78, 0x5f, 0x70,
  0x6f, 0x6f, 0x6c, 0x69, 0x6e, 0x67, 0x32, 0x64, 0x2f, 0x4d, 0x61, 0x78,
  0x50, 0x6f, 0x6f, 0x6c, 0x00, 0x00, 0x00, 0x00, 0x04, 0x00, 0x00, 0x00,
  0xff, 0xff, 0xff, 0xff, 0x15, 0x00, 0x00, 0x00, 0x01, 0x00, 0x00, 0x00,
  0x08, 0x00, 0x00, 0x00, 0xd8, 0xd4, 0xff, 0xff, 0x00, 0x00, 0x0e, 0x00,
  0x14, 0x00, 0x00, 0x00, 0x08, 0x00, 0x0c, 0x00, 0x07, 0x00, 0x10, 0x00,
  0x0e, 0x00, 0x00, 0x00, 0x00, 0x00, 0x00, 0x01, 0x30, 0x00, 0x00, 0x00,
  0x24, 0x00, 0x00, 0x00, 0x10, 0x00, 0x00, 0x00, 0x0c, 0x00, 0x10, 0x00,
  0x00, 0x00, 0x04, 0x00, 0x08, 0x00, 0x0f, 0x00, 0x0c, 0x00, 0x00, 0x00,
  0x01, 0x00, 0x00, 0x00, 0x01, 0x00, 0x00, 0x00, 0x00, 0x00, 0x00, 0x01,
  0x01, 0x00, 0x00, 0x00, 0x0a, 0x00, 0x00, 0x00, 0x03, 0x00, 0x00, 0x00,
  0x00, 0x00, 0x00, 0x00, 0x08, 0x00, 0x00, 0x00, 0x01, 0x00, 0x00, 0x00,
  0x0c, 0x00, 0x10, 0x00, 0x0b, 0x00, 0x00, 0x00, 0x0c, 0x00, 0x04, 0x00,
  0x0c, 0x00, 0x00, 0x00, 0x03, 0x00, 0x00, 0x00, 0x00, 0x00, 0x00, 0x03,
  0x01, 0x00, 0x00, 0x00, 0xac, 0xd4, 0xff, 0xff, 0x14, 0x00, 0x00, 0x00,
  0x0b, 0x00, 0x00, 0x00, 0x20, 0x00, 0x00, 0x00, 0xb0, 0x00, 0x00, 0x00,
  0x98, 0x00, 0x00, 0x00, 0x04, 0x00, 0x00, 0x00, 0x01, 0x00, 0x00, 0x00,
  0x40, 0x00, 0x00, 0x00, 0x03, 0x00, 0x00, 0x00, 0x08, 0x00, 0x00, 0x00,
  0x7b, 0x00, 0x00, 0x00, 0x73, 0x65, 0x71, 0x75, 0x65, 0x6e, 0x74, 0x69,
  0x61, 0x6c, 0x2f, 0x63, 0x6f, 0x6e, 0x76, 0x32, 0x64, 0x2f, 0x52, 0x65,
  0x6c, 0x75, 0x3b, 0x73, 0x65, 0x71, 0x75, 0x65, 0x6e, 0x74, 0x69, 0x61,
  0x6c, 0x2f, 0x63, 0x6f, 0x6e, 0x76, 0x32, 0x64, 0x2f, 0x42, 0x69, 0x61,
  0x73, 0x41, 0x64, 0x64, 0x3b, 0x73, 0x65, 0x71, 0x75, 0x65, 0x6e, 0x74,
  0x69, 0x61, 0x6c, 0x2f, 0x63, 0x6f, 0x6e, 0x76, 0x32, 0x64, 0x2f, 0x43,
  0x6f, 0x6e, 0x76, 0x32, 0x44, 0x3b, 0x73, 0x65, 0x71, 0x75, 0x65, 0x6e,
  0x74, 0x69, 0x61, 0x6c, 0x2f, 0x63, 0x6f, 0x6e, 0x76, 0x32, 0x64, 0x2f,
  0x42, 0x69, 0x61, 0x73, 0x41, 0x64, 0x64, 0x2f, 0x52, 0x65, 0x61, 0x64,
  0x56, 0x61, 0x72, 0x69, 0x61, 0x62, 0x6c, 0x65, 0x4f, 0x70, 0x2f, 0x72,
  0x65, 0x73, 0x6f, 0x75, 0x72, 0x63, 0x65, 0x00, 0x04, 0x00, 0x00, 0x00,
  0xff, 0xff, 0xff, 0xff, 0x40, 0x00, 0x00, 0x00, 0x03, 0x00, 0x00, 0x00,
  0x08, 0x00, 0x00, 0x00, 0x00, 0xd5, 0xff, 0xff, 0x0a, 0xd6, 0xff, 0xff,
  0x04, 0x00, 0x00, 0x00, 0x00, 0x08, 0x00, 0x00, 0xeb, 0x3a, 0xb3, 0x3c,
  0x53, 0x21, 0x96, 0x3c, 0xc8, 0xfe, 0x2d, 0x3e, 0x3c, 0x97, 0x5a, 0x3d,
  0xcd, 0xcf, 0x43, 0xbd, 0x9f, 0xf3, 0xa3, 0x3c, 0x87, 0x2c, 0x23, 0x3d,
  0x61, 0xe4, 0x49, 0x3e, 0xde, 0x19, 0x84, 0x3c, 0x02, 0xe5, 0x92, 0x3d,
  0xe3, 0xab, 0x5d, 0x3e, 0x96, 0xa1, 0xe1, 0x3c, 0xd3, 0xbe, 0xcb, 0x3b,
  0xa5, 0x1b, 0x36, 0xbd, 0xdf, 0x6a, 0xff, 0xbd, 0x28, 0xa3, 0xdc, 0xbc,
  0xbb, 0xcd, 0x2c, 0xbe, 0xa9, 0x04, 0xd8, 0x3d, 0x00, 0x32, 0xde, 0xbd,
  0x08, 0x2d, 0x1a, 0x3e, 0xe7, 0x2b, 0x82, 0x3a, 0xf4, 0x7a, 0x88, 0x3c,
  0xf9, 0xb6, 0xa7, 0xbd, 0xc4, 0x38, 0xd9, 0xbd, 0x24, 0x13, 0xd3, 0xbd,
  0x63, 0x1d, 0x8e, 0x3c, 0x2a, 0xde, 0xe5, 0xbd, 0x24, 0xcd, 0x3e, 0x3d,
  0xa8, 0xd1, 0x2d, 0xbd, 0x25, 0x8d, 0x8e, 0xbd, 0x62, 0xab, 0x9d, 0x3e,
  0xde, 0x2d, 0x0d, 0x3e, 0x49, 0xa7, 0xb8, 0xbd, 0xaf, 0x46, 0x50, 0x3e,
  0x88, 0x74, 0xa1, 0xbe, 0x2d, 0xc2, 0x8b, 0xbd, 0x97, 0x61, 0xc8, 0xbd,
  0xaa, 0xc5, 0xe1, 0xbd, 0xd1, 0x91, 0xcd, 0x3d, 0x48, 0xea, 0x06, 0xbf,
  0xa8, 0x13, 0x8e, 0xbd, 0x60, 0xf9, 0x5d, 0xbd, 0xa0, 0x41, 0x1c, 0xbd,
  0xf3, 0xbb, 0x94, 0x3c, 0xbb, 0x71, 0x7f, 0xbe, 0xa6, 0xb2, 0xa4, 0xbd,
  0x4b, 0x3e, 0x81, 0xbd, 0xa6, 0x00, 0xac, 0xbe, 0x06, 0x05, 0x84, 0x3d,
  0xfd, 0xd9, 0x3e, 0x3c, 0xc4, 0xb4, 0xb4, 0xbd, 0x29, 0x4f, 0x38, 0xbc,
  0xad, 0xc1, 0x31, 0xbd, 0x4f, 0xc4, 0x2a, 0xbd, 0x6a, 0xe5, 0xeb, 0xbd,
  0xd4, 0x3b, 0x89, 0xbe, 0xc4, 0x74, 0xa8, 0x3c, 0x8a, 0x78, 0x48, 0x3e,
  0x33, 0x88, 0x75, 0xbe, 0x7a, 0x6e, 0x42, 0x3e, 0x84, 0x7f, 0x4a, 0xbe,
  0x24, 0xdd, 0x19, 0xbe, 0xd1, 0x6f, 0x96, 0xbc, 0x87, 0x7b, 0x83, 0xbe,
  0xaa, 0xb5, 0x11, 0xbf, 0xd8, 0x5c, 0xac, 0xbd, 0xfc, 0x02, 0xb0, 0x3d,
  0x7a, 0xfd, 0x82, 0x3e, 0x87, 0x91, 0x0c, 0xbd, 0x69, 0xb7, 0x71, 0xbc,
  0x88, 0x77, 0x10, 0xbe, 0xed, 0xd8, 0x4d, 0xbe, 0x60, 0x14, 0xc9, 0x3d,
  0x74, 0xb5, 0xfd, 0xbc, 0x34, 0x49, 0x12, 0x3f, 0xd4, 0x21, 0x83, 0xbe,
  0x10, 0x89, 0xb1, 0xbe, 0x8b, 0x56, 0xae, 0x3e, 0x02, 0x8e, 0x76, 0xbd,
  0x5c, 0x60, 0x6b, 0xbe, 0x19, 0x78, 0x62, 0x3e, 0x6b, 0x04, 0x37, 0x3e,
  0x4c, 0xdb, 0x9b, 0xbe, 0x70, 0xba, 0x6e, 0xbe, 0x06, 0xa7, 0x8b, 0xbd,
  0x00, 0x76, 0xe6, 0x3e, 0xbd, 0xaa, 0xff, 0xbc, 0x01, 0xf9, 0xfc, 0xbd,
  0x64, 0x46, 0x16, 0x3e, 0x80, 0xbf, 0xfe, 0x3c, 0xcc, 0x39, 0xef, 0xbe,
  0x7f, 0x6f, 0xa0, 0xbe, 0xd5, 0x66, 0x24, 0xbe, 0x60, 0x3f, 0x46, 0xbe,
  0x63, 0x75, 0x65, 0x3c, 0xda, 0xd9, 0x46, 0xbe, 0x6a, 0x20, 0x93, 0x3d,
  0xfe, 0x97, 0x78, 0xbd, 0x95, 0x67, 0xb3, 0xbd, 0xa8, 0x9a, 0xd8, 0xbd,
  0x0d, 0x71, 0x2d, 0x3d, 0x2f, 0x3c, 0x4f, 0x3d, 0xd3, 0xdf, 0x9c, 0xbe,
  0x09, 0x3d, 0x9d, 0xbd, 0x41, 0xdc, 0x24, 0x3d, 0x96, 0xa9, 0x05, 0x3c,
  0x76, 0xdc, 0xc5, 0xbe, 0x5a, 0x7e, 0x11, 0xbe, 0xba, 0x5a, 0xeb, 0xbc,
  0x84, 0x85, 0xb5, 0x3d, 0x54, 0x09, 0x83, 0xbe, 0xb3, 0xdf, 0x39, 0xbe,
  0xb0, 0x7b, 0x08, 0xbc, 0xcf, 0x19, 0xe2, 0xbd, 0xe8, 0xbc, 0xfb, 0x3b,
  0x8e, 0xbf, 0x14, 0xbe, 0x8f, 0x9c, 0x3c, 0x3e, 0x20, 0xc5, 0x02, 0xbe,
  0x15, 0x07, 0x9e, 0xbd, 0x29, 0xe5, 0x3f, 0xbc, 0xc5, 0xe8, 0x6b, 0xbe,
  0x7a, 0x10, 0x81, 0xbe, 0xa7, 0xb6, 0xdd, 0xbb, 0xd4, 0x5e, 0xf9, 0x3c,
  0x80, 0x43, 0x17, 0xbe, 0xeb, 0xd6, 0x1b, 0xbe, 0x61, 0xd0, 0x66, 0xbd,
  0x5f, 0x88, 0x54, 0xbd, 0x85, 0x76, 0x13, 0xbe, 0xe2, 0x63, 0x10, 0xbd,
  0xcf, 0xf6, 0x6c, 0x3e, 0x08, 0x54, 0xa2, 0x3e, 0x28, 0x9e, 0xfe, 0x3e,
  0xea, 0x9e, 0xfe, 0x3c, 0xa6, 0x54, 0xa8, 0xbe, 0x08, 0x7f, 0x06, 0xbf,
  0x0e, 0xb0, 0x5b, 0xbe, 0xc1, 0xfd, 0x28, 0xbe, 0xac, 0x3c, 0xbe, 0x3c,
  0x7a, 0x98, 0xee, 0xbd, 0x41, 0xcf, 0x4f, 0xbb, 0xed, 0x22, 0xdb, 0xbd,
  0x63, 0x68, 0x86, 0xbb, 0xf3, 0xba, 0x9a, 0xbe, 0x3a, 0xb8, 0xa6, 0x3d,
  0xbc, 0x81, 0x81, 0xbd, 0x37, 0xca, 0xd1, 0xbe, 0x8b, 0x18, 0x1d, 0xbf,
  0x14, 0x9a, 0x2c, 0xbf, 0x58, 0xb7, 0xab, 0x3c, 0x4b, 0xe6, 0xa7, 0x3d,
  0x2d, 0xf5, 0xf3, 0x3d, 0xa8, 0x06, 0x04, 0x3e, 0x71, 0x40, 0x01, 0x3d,
  0xb3, 0xa9, 0x05, 0x3d, 0x4c, 0xf2, 0x26, 0xbe, 0x7c, 0x74, 0x18, 0xbf,
  0x2e, 0x76, 0x74, 0x3d, 0xf7, 0x93, 0x61, 0xbc, 0x0d, 0x04, 0x5d, 0x3e,
  0x35, 0xe5, 0x69, 0x3e, 0x88, 0x6d, 0xa9, 0xbd, 0x65, 0xdc, 0xd6, 0x3d,
  0xed, 0x3a, 0x02, 0x3f, 0x2c, 0xc7, 0x8d, 0x3d, 0xd5, 0x4f, 0x0e, 0x3e,
  0x34, 0xd6, 0x3c, 0xbf, 0x04, 0x9f, 0xa9, 0x3d, 0x38, 0x67, 0xcf, 0xbe,
  0x48, 0x7a, 0x81, 0xbd, 0x67, 0xdf, 0xca, 0x3d, 0x47, 0xe9, 0xe8, 0xbd,
  0xeb, 0xb3, 0x91, 0x3d, 0x9f, 0x6a, 0x1a, 0x3e, 0xe1, 0xdf, 0xa4, 0xbe,
  0xc1, 0x5b, 0x8a, 0xbe, 0x35, 0xa9, 0x9a, 0xbd, 0xa3, 0xb4, 0xc2, 0xbd,
  0x22, 0xd6, 0x4c, 0xbd, 0x6a, 0x0e, 0x08, 0xbe, 0x87, 0x00, 0x56, 0xbd,
  0xb1, 0x12, 0x61, 0x3d, 0x56, 0x80, 0x64, 0x3d, 0x5c, 0xf9, 0x1b, 0xbe,
  0x8c, 0x77, 0x73, 0x3d, 0x8b, 0x4a, 0x9b, 0xbd, 0x90, 0x21, 0xda, 0xbe,
  0xe4, 0xba, 0x0d, 0xbe, 0x94, 0xc8, 0x82, 0xbe, 0xe7, 0x47, 0xf3, 0xbd,
  0x8b, 0x95, 0xf2, 0x3d, 0xca, 0x5a, 0x0f, 0xbe, 0x3d, 0x37, 0xf3, 0xbe,
  0x26, 0x59, 0xa4, 0xbe, 0xdf, 0x64, 0x60, 0xbe, 0xac, 0x14, 0xa3, 0x3b,
  0x57, 0xeb, 0x90, 0xbe, 0x60, 0xcc, 0x81, 0xbe, 0x5b, 0x59, 0x4d, 0xbe,
  0x46, 0x86, 0xe5, 0xbd, 0x39, 0x6e, 0x6f, 0x3d, 0xa6, 0x7b, 0x16, 0xbe,
  0x6f, 0x0c, 0x5a, 0xbf, 0xf6, 0x42, 0xa3, 0xbd, 0xa3, 0xef, 0xb3, 0xbe,
  0x35, 0xe2, 0xe5, 0x3e, 0x54, 0x9c, 0x03, 0xbf, 0x6c, 0xb8, 0xa4, 0x3e,
  0x18, 0xdb, 0xf8, 0x3e, 0x7f, 0x00, 0x3c, 0xbd, 0x24, 0x4a, 0xaa, 0xbd,
  0x88, 0x77, 0x77, 0x3d, 0x19, 0x2a, 0x1f, 0x3e, 0x87, 0x3a, 0x99, 0x3e,
  0xba, 0xee, 0x02, 0xbf, 0x78, 0xd2, 0xcf, 0xbc, 0xd9, 0x0f, 0x80, 0xbe,
  0x71, 0xc9, 0x55, 0xbd, 0x7b, 0x69, 0x17, 0x3e, 0x2e, 0xcd, 0x37, 0x3b,
  0xa2, 0x91, 0x07, 0x3e, 0x81, 0xdb, 0x44, 0x3e, 0xdb, 0x12, 0xe9, 0xbe,
  0x48, 0x33, 0x28, 0xbe, 0xcf, 0x70, 0xab, 0x3d, 0xdb, 0xeb, 0x1c, 0xbe,
  0xab, 0x55, 0xc1, 0xbe, 0x4c, 0xb4, 0x52, 0xbe, 0x14, 0xe2, 0x64, 0xbe,
  0x17, 0x43, 0xa7, 0xbe, 0xd7, 0xef, 0xf0, 0xbd, 0xbc, 0x5c, 0x2a, 0xbe,
  0xb4, 0xf8, 0x6c, 0x3e, 0xeb, 0x19, 0x16, 0xbe, 0xfc, 0xc7, 0xdc, 0xbd,
  0xb8, 0x4a, 0xd5, 0xbd, 0x2d, 0xe5, 0x47, 0xbd, 0x66, 0x5b, 0x96, 0x3d,
  0x17, 0x3e, 0x01, 0xbe, 0xd9, 0x64, 0xa1, 0xbd, 0xf9, 0x78, 0x2e, 0xbe,
  0x9e, 0x39, 0x14, 0xbe, 0x98, 0x77, 0x29, 0x3e, 0x10, 0x47, 0x14, 0x3d,
  0x53, 0x3c, 0x40, 0x3d, 0xfa, 0xe4, 0x5e, 0x3e, 0x64, 0xb4, 0x8c, 0xbd,
  0x41, 0x47, 0x12, 0xbd, 0x1d, 0xf9, 0xb8, 0xbe, 0xde, 0xfd, 0xa7, 0x3e,
  0x62, 0xfc, 0xcc, 0x3e, 0x28, 0xc3, 0x9a, 0xbd, 0x23, 0xd3, 0xb6, 0xbd,
  0x22, 0x6f, 0x92, 0x3e, 0xaf, 0xbe, 0x0c, 0x3e, 0xf4, 0x1c, 0xba, 0xbc,
  0x27, 0x5b, 0x03, 0x3f, 0x03, 0x57, 0xbc, 0x3e, 0x84, 0x0d, 0x25, 0xbd,
  0x5c, 0x6b, 0xa8, 0xbe, 0x5c, 0x83, 0x3f, 0xbe, 0xae, 0x1a, 0xad, 0x3e,
  0xca, 0x83, 0x69, 0x3e, 0x1b, 0x44, 0xcd, 0xbd, 0x1c, 0x0f, 0x48, 0x3e,
  0x26, 0x9e, 0xe7, 0xbd, 0x1e, 0x02, 0xeb, 0xbe, 0x2e, 0xc2, 0xa7, 0xbe,
  0x2e, 0x10, 0xc8, 0xbc, 0x8d, 0xe9, 0x5b, 0xbe, 0xb7, 0x33, 0x7a, 0xbd,
  0x45, 0xac, 0x1c, 0xbe, 0x2f, 0x04, 0x9a, 0x3e, 0x57, 0x52, 0x1c, 0xbe,
  0xba, 0xca, 0xc2, 0xbe, 0x42, 0xd8, 0x69, 0xbe, 0x8e, 0x2e, 0x39, 0x3c,
  0xfd, 0x75, 0x98, 0xbd, 0xaf, 0x54, 0x2a, 0xbe, 0x26, 0xfd, 0x6f, 0xbd,
  0x9f, 0x69, 0xd7, 0x3e, 0x96, 0x4d, 0x8a, 0xbe, 0x45, 0x60, 0x37, 0xbd,
  0x14, 0x4d, 0xca, 0xbd, 0x1b, 0xa2, 0xf4, 0xbc, 0x67, 0x5a, 0xc6, 0x3a,
  0x5a, 0xeb, 0x58, 0xbe, 0x9a, 0x1f, 0xcc, 0x3d, 0xe7, 0x1f, 0x1c, 0x3e,
  0x65, 0x7c, 0x9a, 0xbe, 0x09, 0x2a, 0x8e, 0x3d, 0x4d, 0xd6, 0xf3, 0xbd,
  0x91, 0xc9, 0x1c, 0x3e, 0xe2, 0xb8, 0xca, 0x3e, 0xb2, 0xbd, 0x43, 0xbe,
  0x34, 0xec, 0xdd, 0xbd, 0x4a, 0x81, 0x63, 0x3c, 0x93, 0xfa, 0x95, 0xbe,
  0xac, 0x37, 0xc7, 0x3d, 0x76, 0xcf, 0x06, 0xbe, 0x64, 0x6a, 0xb5, 0x3c,
  0x61, 0x1f, 0x34, 0x3e, 0x90, 0xef, 0xe3, 0xbd, 0xad, 0xf1, 0x69, 0xbd,
  0x76, 0x81, 0xdc, 0x3d, 0xea, 0xd0, 0x7c, 0xbe, 0x5d, 0x16, 0x9a, 0xbe,
  0xdd, 0x79, 0x36, 0xbe, 0xdf, 0x44, 0x67, 0x3d, 0xb5, 0xeb, 0x12, 0x3e,
  0x1a, 0x2a, 0x8f, 0xbd, 0x4e, 0x1a, 0xa1, 0x3d, 0x22, 0xac, 0x6e, 0x3e,
  0x90, 0x55, 0x55, 0xbe, 0x18, 0xf4, 0xe5, 0x3e, 0x33, 0x55, 0x2d, 0xbd,
  0xa0, 0xdf, 0x84, 0x3c, 0xbf, 0x26, 0x00, 0x3d, 0x28, 0xa9, 0x85, 0xbd,
  0x25, 0x20, 0xc0, 0x3d, 0x1e, 0x59, 0xd9, 0xbe, 0x5e, 0xe1, 0xa3, 0xbe,
  0x2d, 0x89, 0xad, 0xbd, 0x33, 0x16, 0xab, 0xbd, 0xe0, 0x05, 0x51, 0xbe,
  0x0e, 0x49, 0xb1, 0xbe, 0x6a, 0x7f, 0x05, 0xbe, 0xfe, 0x11, 0x2a, 0xbe,
  0x4b, 0x01, 0x45, 0xbd, 0xb9, 0x65, 0x7c, 0xbe, 0xc1, 0x70, 0xb5, 0x3d,
  0xd7, 0x46, 0x93, 0xbd, 0xa7, 0x41, 0xad, 0xbd, 0xd5, 0xe8, 0xd9, 0xbd,
  0x42, 0x3e, 0xda, 0xbc, 0xfb, 0x21, 0xf0, 0xbd, 0xb3, 0x5b, 0x4f, 0xbd,
  0x93, 0xae, 0x3c, 0xbe, 0x82, 0xc3, 0x22, 0xbe, 0xb0, 0x45, 0xab, 0xbc,
  0xdc, 0xf0, 0x2f, 0xbe, 0x1d, 0x16, 0xed, 0x3b, 0xb6, 0x85, 0xff, 0xbd,
  0x1f, 0xc4, 0x8c, 0x3c, 0x91, 0x4e, 0x09, 0x3f, 0xce, 0x10, 0x96, 0xbc,
  0xa6, 0x42, 0x8f, 0xbd, 0x25, 0xea, 0x96, 0x3e, 0x01, 0xde, 0x32, 0x3e,
  0x92, 0x9e, 0x37, 0xbd, 0x07, 0x5c, 0x29, 0xbe, 0xd1, 0xa1, 0xb1, 0x3e,
  0x41, 0xce, 0x6b, 0xbe, 0x85, 0x3c, 0x86, 0xbe, 0x27, 0xf1, 0xb4, 0xbe,
  0xec, 0x16, 0x6d, 0xbe, 0xed, 0x01, 0x1e, 0xbe, 0x5e, 0xdf, 0x04, 0xbe,
  0x30, 0xf0, 0x6d, 0xbe, 0x12, 0xd9, 0x08, 0xbf, 0x60, 0xe2, 0x0a, 0x3c,
  0xdb, 0xa8, 0x8d, 0xbd, 0x85, 0x11, 0x51, 0x3c, 0xf5, 0x39, 0x41, 0x3d,
  0xb4, 0x84, 0x5c, 0x3d, 0x46, 0x18, 0xa3, 0xbd, 0x3a, 0xf4, 0x01, 0xbe,
  0x57, 0x77, 0x89, 0x3e, 0x7c, 0xf5, 0x6a, 0xbe, 0x92, 0xbd, 0x9c, 0xbd,
  0x47, 0xea, 0x70, 0xbc, 0x6c, 0x58, 0xb4, 0x3d, 0x94, 0x77, 0x97, 0xbe,
  0x05, 0xa7, 0x1d, 0xbe, 0x7d, 0xae, 0xb1, 0x3d, 0x94, 0x30, 0x63, 0xbe,
  0x65, 0x5c, 0x3e, 0xbe, 0x51, 0x66, 0xdd, 0xbd, 0x73, 0x1e, 0xfd, 0x3d,
  0xc4, 0xd0, 0x17, 0x3e, 0xeb, 0x8c, 0x97, 0xbe, 0x77, 0x27, 0xc2, 0xbc,
  0x2d, 0x19, 0x19, 0x3e, 0x12, 0x9a, 0x91, 0xbc, 0x01, 0xc9, 0x02, 0xbf,
  0xab, 0x54, 0x01, 0xbe, 0x43, 0xe2, 0x60, 0xbe, 0x21, 0xee, 0xb6, 0xbe,
  0xe3, 0xc6, 0x55, 0xbe, 0x30, 0x91, 0x2d, 0xbf, 0xf5, 0x22, 0x1d, 0xbe,
  0x68, 0xf7, 0x51, 0xbe, 0xe2, 0xa4, 0xe2, 0xbd, 0x74, 0xce, 0x4f, 0xbd,
  0xdb, 0x5c, 0x37, 0x3e, 0x16, 0x47, 0xb6, 0xbe, 0xf5, 0xfd, 0xd9, 0xbe,
  0x4d, 0xcd, 0x55, 0x3e, 0x4e, 0x9a, 0x99, 0xbd, 0x82, 0x90, 0x99, 0xbe,
  0x62, 0x86, 0x93, 0x3e, 0x19, 0xee, 0x5b, 0x3e, 0xd5, 0x1d, 0x0e, 0x3d,
  0x23, 0xc7, 0x20, 0xbe, 0xf7, 0x1d, 0x65, 0xbe, 0x3e, 0x42, 0xef, 0x3e,
  0xe2, 0x73, 0xef, 0x3a, 0x00, 0xa6, 0xb2, 0x3b, 0x42, 0xe8, 0xbf, 0x3e,
  0xb5, 0xc0, 0x21, 0x3d, 0x1a, 0x97, 0x45, 0xbe, 0x6b, 0x36, 0x29, 0xbe,
  0x41, 0x74, 0xb2, 0xbc, 0x96, 0x16, 0x3d, 0x3e, 0xa0, 0xfe, 0xb6, 0x3c,
  0xeb, 0x9d, 0x99, 0xbd, 0x06, 0xcc, 0x44, 0x3d, 0xba, 0x27, 0x14, 0xbe,
  0x79, 0x4c, 0xd8, 0x3d, 0xef, 0xc5, 0xa5, 0x3c, 0x5a, 0xd1, 0xb7, 0xbc,
  0xec, 0x55, 0x61, 0x3e, 0xbb, 0x00, 0x13, 0xbe, 0x20, 0x8c, 0x29, 0x3f,
  0xad, 0xd5, 0xbc, 0xbd, 0x1c, 0x70, 0x05, 0xbe, 0xf3, 0xf7, 0xea, 0xbd,
  0x79, 0xf3, 0xbd, 0xba, 0xe9, 0xdf, 0x7d, 0xbd, 0xdb, 0x99, 0x88, 0x3e,
  0xa4, 0x4d, 0x51, 0xbe, 0xa2, 0x58, 0x8b, 0xbd, 0x44, 0x27, 0xc1, 0xbd,
  0xfb, 0xac, 0x27, 0xbe, 0x46, 0xd7, 0xa6, 0x3d, 0xc9, 0xac, 0x88, 0x3d,
  0x97, 0x8f, 0x5f, 0x3b, 0x19, 0xb0, 0xeb, 0xba, 0xbf, 0x50, 0x5a, 0x3c,
  0x43, 0x3f, 0x4a, 0xbd, 0xa0, 0xbf, 0x4a, 0x3d, 0x5f, 0xc7, 0x20, 0xbe,
  0xc6, 0x9f, 0xf7, 0xbd, 0x41, 0xbf, 0xea, 0xbc, 0x98, 0x47, 0xa7, 0x3c,
  0xf6, 0x96, 0x88, 0x3d, 0x7b, 0xb9, 0x1d, 0xbe, 0x5f, 0x36, 0x09, 0xbd,
  0xc1, 0x6b, 0x34, 0xbd, 0x3a, 0x81, 0xfa, 0xbe, 0x43, 0xae, 0xde, 0xbd,
  0xb3, 0xc3, 0xa5, 0x3d, 0x3e, 0xc2, 0xce, 0xbb, 0x74, 0x6d, 0xaa, 0xbe,
  0xe9, 0x4a, 0x03, 0xbe, 0x77, 0x79, 0x3f, 0xbd, 0xcd, 0x90, 0xc5, 0xbd,
  0xbe, 0xc5, 0x1c, 0x3c, 0x46, 0x0a, 0xeb, 0xbd, 0x72, 0xe8, 0x59, 0xbd,
  0x45, 0x16, 0xb9, 0x3d, 0x55, 0xfd, 0x42, 0x3e, 0x90, 0x9c, 0xa8, 0x3e,
  0x81, 0xa7, 0xfc, 0x3c, 0xb5, 0xbf, 0x79, 0xbe, 0x49, 0xe5, 0x8d, 0xbc,
  0x75, 0x1a, 0x9c, 0xbe, 0x4b, 0xe2, 0x8c, 0xbd, 0xd1, 0xe2, 0x36, 0xbd,
  0xbe, 0x6e, 0xeb, 0xbe, 0xa8, 0x6f, 0x17, 0xbe, 0xc0, 0xa2, 0x8d, 0xbe,
  0x40, 0x46, 0x97, 0xbd, 0x55, 0xe3, 0xb8, 0x3e, 0xc1, 0x0d, 0xfa, 0xbc,
  0x1b, 0xb8, 0xd4, 0x3d, 0x4a, 0xe7, 0x7d, 0xbd, 0x2a, 0x1e, 0x20, 0xbe,
  0x51, 0x74, 0xdd, 0xbc, 0x34, 0xc0, 0x5a, 0xbe, 0x5c, 0x43, 0x8d, 0xbe,
  0x0e, 0xd7, 0x25, 0xbe, 0xad, 0xba, 0xa1, 0xbd, 0x5f, 0x46, 0x34, 0x3e,
  0x38, 0xeb, 0x0c, 0xbd, 0x13, 0x67, 0x14, 0xbe, 0xd0, 0x7b, 0xf4, 0xbc,
  0xed, 0x3e, 0xd7, 0xbd, 0x6f, 0x77, 0xed, 0xbd, 0xc6, 0xda, 0xa3, 0xbd,
  0x3d, 0x9b, 0xe1, 0xbd, 0xa7, 0x77, 0x4a, 0x3d, 0x5d, 0x00, 0x50, 0xbe,
  0xdf, 0x7b, 0x6b, 0x3e, 0x5b, 0x16, 0x62, 0x3e, 0xa2, 0xc5, 0xe2, 0xbd,
  0x29, 0xb2, 0xa6, 0xbe, 0x2c, 0x24, 0x57, 0xbe, 0xf8, 0xbb, 0x90, 0xbe,
  0xfb, 0x7f, 0xc3, 0x3c, 0xf1, 0xe4, 0x63, 0xbd, 0xb9, 0x30, 0x97, 0xbe,
  0xa9, 0x36, 0x4c, 0xbe, 0x0d, 0x2e, 0x3d, 0xbe, 0xd1, 0xd4, 0xba, 0x3e,
  0xbe, 0xde, 0x2f, 0xbd, 0xe5, 0x36, 0xcc, 0xbc, 0xcf, 0x87, 0x1b, 0xbe,
  0xeb, 0x21, 0x9e, 0xbe, 0x03, 0xf1, 0x35, 0x3e, 0x5e, 0xe4, 0x92, 0xbe,
  0x92, 0x92, 0xb1, 0x3d, 0xe2, 0xdd, 0xff, 0xff, 0x10, 0x00, 0x00, 0x00,
  0x0a, 0x00, 0x00, 0x00, 0x1c, 0x00, 0x00, 0x00, 0x38, 0x00, 0x00, 0x00,
  0x04, 0x00, 0x00, 0x00, 0x10, 0x00, 0x00, 0x00, 0x04, 0x00, 0x00, 0x00,
  0x01, 0x00, 0x00, 0x00, 0x08, 0x00, 0x00, 0x00, 0x1a, 0x00, 0x00, 0x00,
  0x73, 0x65, 0x71, 0x75, 0x65, 0x6e, 0x74, 0x69, 0x61, 0x6c, 0x2f, 0x63,
  0x6f, 0x6e, 0x76, 0x32, 0x64, 0x5f, 0x31, 0x2f, 0x43, 0x6f, 0x6e, 0x76,
  0x32, 0x44, 0x00, 0x00, 0x58, 0xdd, 0xff, 0xff, 0x62, 0xde, 0xff, 0xff,
  0x04, 0x00, 0x00, 0x00, 0x80, 0x01, 0x00, 0x00, 0xd8, 0x25, 0xb7, 0xbe,
  0xcd, 0x31, 0x1d, 0xbd, 0xfb, 0x5a, 0x42, 0x3c, 0x10, 0xeb, 0x82, 0xbe,
  0x89, 0xa0, 0x03, 0xbe, 0xd4, 0x40, 0xb2, 0x3b, 0xff, 0x33, 0xe7, 0x3e,
  0x74, 0x79, 0x1d, 0x3e, 0xd4, 0x63, 0x1a, 0x39, 0x13, 0x81, 0x40, 0x3e,
  0x62, 0x40, 0x7e, 0x3d, 0x68, 0x94, 0x58, 0x3c, 0x64, 0x14, 0x32, 0x3e,
  0x95, 0xb6, 0x25, 0xbe, 0xdb, 0x94, 0xa3, 0x3c, 0x4b, 0x43, 0xe1, 0x3c,
  0x92, 0x7d, 0xf9, 0xbd, 0x80, 0xd7, 0x21, 0x3e, 0x67, 0x7f, 0x1c, 0xbe,
  0x90, 0x8d, 0x96, 0x3d, 0x24, 0xc4, 0x37, 0x3e, 0x4f, 0xdf, 0x1a, 0xbe,
  0x85, 0xad, 0xe4, 0x3d, 0x1d, 0x38, 0xf1, 0x3d, 0x33, 0xb6, 0x0f, 0x3e,
  0xfa, 0xb6, 0xc7, 0xb7, 0x25, 0xf0, 0x08, 0x3c, 0x9d, 0xf6, 0x60, 0x3e,
  0xab, 0xc2, 0x94, 0x3e, 0xd4, 0x1f, 0xdc, 0x3e, 0xfa, 0xc2, 0x61, 0xbe,
  0x96, 0x23, 0xa2, 0xbd, 0xca, 0x21, 0xdb, 0xbd, 0xfd, 0xd5, 0x32, 0x3c,
  0xd0, 0x80, 0x81, 0xbe, 0x27, 0x62, 0xc7, 0xbe, 0x60, 0x04, 0x47, 0x3e,
  0x78, 0x8b, 0x15, 0xbe, 0x2c, 0x67, 0x6c, 0xbe, 0xc6, 0xa7, 0xbc, 0x3e,
  0xde, 0x7d, 0x88, 0x3e, 0xee, 0x22, 0x39, 0x3e, 0xeb, 0x6a, 0xc8, 0x3d,
  0x5a, 0xdd, 0x2f, 0x3d, 0x45, 0x06, 0x71, 0x3d, 0x12, 0x8f, 0x39, 0xbe,
  0x6a, 0x66, 0xf7, 0x3c, 0xe9, 0x66, 0xa6, 0xbd, 0xcc, 0x04, 0x9b, 0x3d,
  0xa9, 0xb3, 0x9f, 0x3e, 0xe1, 0x85, 0xbc, 0x3d, 0x2d, 0xb0, 0xf7, 0xbd,
  0x34, 0x2c, 0x35, 0xbe, 0xa7, 0xb4, 0x76, 0x3e, 0xd3, 0x7f, 0x8c, 0x3d,
  0x00, 0xe9, 0x41, 0x3d, 0x7f, 0x37, 0x02, 0x3e, 0xe9, 0xfd, 0xb3, 0x3d,
  0x5f, 0x83, 0x35, 0xbd, 0x42, 0x0c, 0xba, 0xbe, 0x6f, 0x42, 0x0c, 0x3e,
  0xb0, 0x6f, 0x5a, 0xbd, 0xa3, 0x67, 0xf9, 0xbd, 0xd1, 0x5d, 0xf8, 0x3e,
  0xf5, 0x1d, 0xd3, 0xbd, 0x2a, 0x42, 0x81, 0xbe, 0x7c, 0x75, 0x0e, 0xbe,
  0x9b, 0x81, 0x85, 0x3d, 0xfc, 0x6e, 0x44, 0x3e, 0x45, 0x78, 0xeb, 0xbe,
  0x6d, 0x9d, 0x93, 0x3d, 0xbd, 0x84, 0x3f, 0x3e, 0x85, 0x28, 0x4f, 0xbe,
  0xe5, 0x5a, 0x1f, 0xbe, 0x41, 0xfa, 0x9e, 0xbe, 0x6f, 0x3a, 0x07, 0x3d,
  0x20, 0x45, 0x90, 0x3d, 0x4d, 0x61, 0x4f, 0x3e, 0x0d, 0x90, 0x7e, 0xbd,
  0xab, 0x35, 0x18, 0x3c, 0xd3, 0xd0, 0x46, 0xbe, 0x40, 0xda, 0x10, 0x3c,
  0xff, 0xa5, 0xd4, 0xbd, 0x20, 0x6e, 0x15, 0x3e, 0x37, 0x22, 0xbd, 0xbd,
  0x8c, 0x19, 0x1f, 0x3e, 0x53, 0x35, 0x0f, 0xbd, 0x6b, 0x83, 0x4e, 0x3c,
  0x26, 0x86, 0x04, 0xbf, 0x81, 0xb1, 0x33, 0xbd, 0x84, 0x12, 0xa2, 0xbd,
  0x97, 0xcd, 0xf0, 0x3c, 0xf1, 0x5c, 0x4a, 0xbd, 0xbb, 0x87, 0xb8, 0x3e,
  0xe8, 0xaa, 0xad, 0x3e, 0xee, 0xd2, 0x7b, 0x3d, 0xba, 0xdf, 0xff, 0xff,
  0x10, 0x00, 0x00, 0x00, 0x09, 0x00, 0x00, 0x00, 0x1c, 0x00, 0x00, 0x00,
  0x38, 0x00, 0x00, 0x00, 0x04, 0x00, 0x00, 0x00, 0x08, 0x00, 0x00, 0x00,
  0x04, 0x00, 0x00, 0x00, 0x03, 0x00, 0x00, 0x00, 0x01, 0x00, 0x00, 0x00,
  0x18, 0x00, 0x00, 0x00, 0x73, 0x65, 0x71, 0x75, 0x65, 0x6e, 0x74, 0x69,
  0x61, 0x6c, 0x2f, 0x63, 0x6f, 0x6e, 0x76, 0x32, 0x64, 0x2f, 0x43, 0x6f,
  0x6e, 0x76, 0x32, 0x44, 0x00, 0x00, 0x00, 0x00, 0x30, 0xdf, 0xff, 0xff,
  0x3a, 0xe0, 0xff, 0xff, 0x04, 0x00, 0x00, 0x00, 0x00, 0x01, 0x00, 0x00,
  0x6e, 0xa6, 0x59, 0x3e, 0x14, 0xf1, 0x9f, 0x3e, 0x0a, 0x25, 0xdb, 0x3d,
  0x59, 0x4d, 0x6f, 0x3e, 0x56, 0xbf, 0x83, 0xbe, 0x22, 0x4d, 0x94, 0x3d,
  0x14, 0xc9, 0xca, 0xbd, 0xed, 0xc8, 0xea, 0xbe, 0xaa, 0x8f, 0x48, 0x3d,
  0xa5, 0x47, 0x4e, 0x3d, 0x69, 0x11, 0x23, 0xbe, 0x00, 0xb3, 0x6c, 0xbe,
  0x90, 0x67, 0x39, 0x3d, 0xfd, 0x99, 0x5d, 0x3e, 0xfa, 0x46, 0x40, 0x3d,
  0x3c, 0x8d, 0xb6, 0xbc, 0xb1, 0x8c, 0x75, 0x3e, 0x2a, 0x27, 0xb4, 0x3e,
  0xf6, 0x47, 0x7b, 0xbe, 0x81, 0xfe, 0x95, 0x3e, 0x61, 0x04, 0x56, 0xbe,
  0xa6, 0x34, 0xf3, 0x3d, 0xf0, 0x4d, 0x26, 0x3e, 0x0f, 0x5e, 0x81, 0xbe,
  0x2f, 0xb2, 0x10, 0x3e, 0x5b, 0x02, 0xe9, 0x3d, 0xdd, 0xbc, 0x23, 0xbd,
  0xae, 0x91, 0xeb, 0x3c, 0xd2, 0xe2, 0x8f, 0x39, 0xf8, 0x7a, 0x89, 0x3e,
  0x68, 0x26, 0x95, 0xbc, 0xbf, 0x22, 0x55, 0x3e, 0xdf, 0xd0, 0xdb, 0xbe,
  0xb1, 0xe8, 0x11, 0xbf, 0xc3, 0xab, 0x6b, 0x3e, 0x25, 0x87, 0xfd, 0xbe,
  0xee, 0x10, 0xac, 0xbe, 0xea, 0x9e, 0xaf, 0xbf, 0xdf, 0x86, 0x0a, 0xbf,
  0xc5, 0x74, 0x0a, 0xbf, 0xee, 0xb1, 0x57, 0xbf, 0x89, 0xb8, 0x10, 0xbf,
  0x9b, 0xf5, 0xe5, 0xbe, 0x51, 0xe4, 0x80, 0xbe, 0x39, 0xbb, 0x20, 0xbf,
  0x54, 0x80, 0x79, 0xbd, 0x98, 0x21, 0xee, 0xbd, 0x43, 0xc3, 0x08, 0x3c,
  0xfc, 0xe4, 0x8c, 0x3e, 0xed, 0x75, 0x8e, 0x3e, 0x62, 0x85, 0x08, 0xbe,
  0x16, 0x31, 0x38, 0x3e, 0x33, 0x9e, 0x93, 0xbe, 0x85, 0x67, 0x1f, 0x3e,
  0xfc, 0xe9, 0xdc, 0x3c, 0x38, 0x15, 0x08, 0xbd, 0x96, 0xc2, 0x22, 0x3e,
  0xf2, 0x2b, 0x0d, 0x3d, 0xcf, 0x01, 0x39, 0xbd, 0xf4, 0x36, 0xc2, 0x3d,
  0x8e, 0x32, 0x88, 0xbc, 0x74, 0x9b, 0x3b, 0x3e, 0x0d, 0x62, 0xee, 0xba,
  0xf0, 0x55, 0x6a, 0xbe, 0x12, 0xe1, 0xff, 0xff, 0x10, 0x00, 0x00, 0x00,
  0x08, 0x00, 0x00, 0x00, 0x14, 0x00, 0x00, 0x00, 0x30, 0x00, 0x00, 0x00,
  0x02, 0x00, 0x00, 0x00, 0x04, 0x00, 0x00, 0x00, 0x10, 0x00, 0x00, 0x00,
  0x19, 0x00, 0x00, 0x00, 0x73, 0x65, 0x71, 0x75, 0x65, 0x6e, 0x74, 0x69,
  0x61, 0x6c, 0x2f, 0x64, 0x65, 0x6e, 0x73, 0x65, 0x5f, 0x31, 0x2f, 0x4d,
  0x61, 0x74, 0x4d, 0x75, 0x6c, 0x00, 0x00, 0x00, 0x80, 0xe0, 0xff, 0xff,
  0x8a, 0xe1, 0xff, 0xff, 0x04, 0x00, 0x00, 0x00, 0x00, 0x1c, 0x00, 0x00,
  0x34, 0xab, 0xbe, 0x3c, 0xc9, 0x37, 0x8b, 0x3e, 0xfb, 0x56, 0xae, 0xbe,
  0x21, 0xe9, 0xa4, 0xbd, 0xaa, 0xa7, 0x21, 0xbe, 0xc4, 0x1d, 0xac, 0xbe,
  0xe0, 0x8f, 0x97, 0xbe, 0xf1, 0x82, 0xdc, 0xbd, 0x7b, 0x61, 0x23, 0xbe,
  0xff, 0x0c, 0x82, 0x3e, 0x04, 0x9d, 0x55, 0x3e, 0x82, 0x54, 0xa7, 0x3e,
  0xee, 0x01, 0x1f, 0xbe, 0xa4, 0x07, 0x83, 0xbe, 0x71, 0xe9, 0xae, 0x3e,
  0xc5, 0xe3, 0x4a, 0xbc, 0x33, 0xd8, 0x0f, 0x3e, 0x44, 0xf1, 0x0e, 0x3d,
  0x12, 0xef, 0xb1, 0xbd, 0xd4, 0xf1, 0x37, 0xbe, 0xd6, 0x0a, 0x40, 0x3d,
  0x7f, 0xfb, 0xa2, 0xbe, 0x56, 0xd4, 0xc6, 0x3d, 0xaf, 0x63, 0xa2, 0x3c,
  0x04, 0xba, 0xcc, 0xbe, 0xfc, 0x85, 0x74, 0x3e, 0x9d, 0x9b, 0xbc, 0x3e,
  0xee, 0xbb, 0x06, 0x3f, 0x1d, 0x29, 0xcd, 0xbd, 0xd4, 0x80, 0x5c, 0x3e,
  0xd1, 0x05, 0xbd, 0x3e, 0x09, 0x33, 0xb4, 0x3e, 0x76, 0x9e, 0xfa, 0xbb,
  0xd9, 0x2c, 0x55, 0x3d, 0x43, 0xf2, 0x53, 0xbe, 0x6b, 0xc8, 0x5c, 0x3d,
  0x2c, 0xa0, 0x0c, 0x3c, 0xb2, 0x86, 0x33, 0x3e, 0x8f, 0x1a, 0xd5, 0x3d,
  0x2f, 0xfc, 0x2a, 0xbe, 0x92, 0xe4, 0x86, 0x3b, 0xcf, 0x2e, 0xa3, 0x3e,
  0x7e, 0x2e, 0x4e, 0x3e, 0x11, 0x23, 0x09, 0x3e, 0x70, 0xe9, 0x69, 0xbd,
  0x17, 0xfa, 0x76, 0x3e, 0xdc, 0x7e, 0x86, 0x3d, 0x21, 0x40, 0xaf, 0x3e,
  0x8c, 0x78, 0x4a, 0x3d, 0x3e, 0x65, 0x42, 0x3d, 0x00, 0x6c, 0x12, 0xbe,
  0x35, 0xe5, 0x4b, 0x3e, 0x9e, 0x11, 0x79, 0x3d, 0x87, 0x0f, 0x75, 0x3d,
  0xf7, 0xe7, 0x09, 0xbd, 0x42, 0xc0, 0x95, 0xbd, 0x6a, 0x4d, 0x71, 0x3d,
  0x65, 0xb9, 0xbe, 0x3e, 0xb5, 0x54, 0xd5, 0x3d, 0x56, 0x82, 0xef, 0x3d,
  0x21, 0x6a, 0x9e, 0xbd, 0x48, 0x7e, 0x72, 0x3e, 0x20, 0x41, 0x3a, 0x3e,
  0xbd, 0xdb, 0x23, 0xbd, 0xd8, 0xd4, 0x99, 0xbc, 0x99, 0xde, 0xd0, 0x3d,
  0x67, 0x0d, 0x8a, 0xbd, 0xf7, 0x34, 0x19, 0x3e, 0xd4, 0x5b, 0x4e, 0xbe,
  0xce, 0x75, 0xb4, 0x3d, 0x13, 0x08, 0x49, 0xbe, 0x9d, 0x0e, 0x4e, 0xbe,
  0x32, 0xb7, 0x6a, 0xbd, 0x4e, 0xb3, 0x2f, 0x3e, 0xc6, 0x4c, 0x58, 0x3c,
  0x39, 0x7b, 0x9b, 0x3d, 0xa5, 0xcb, 0x16, 0xbe, 0x90, 0xf8, 0x16, 0x3e,
  0xf4, 0x52, 0x0e, 0x3e, 0x3c, 0x43, 0x97, 0x3d, 0x5e, 0xe1, 0x04, 0x3d,
  0x48, 0x5a, 0xa6, 0x3d, 0x98, 0x84, 0x96, 0xbe, 0x4e, 0xe1, 0xd2, 0xbc,
  0xcd, 0xf2, 0x90, 0x3c, 0x17, 0x9e, 0x28, 0xbd, 0xa1, 0x5a, 0xb4, 0xbe,
  0x1d, 0x5d, 0xaf, 0xbe, 0x22, 0xf6, 0x14, 0xbe, 0xba, 0x4b, 0x87, 0x3e,
  0x60, 0xd0, 0x75, 0xbe, 0xc5, 0x3c, 0x82, 0x3e, 0xf1, 0x19, 0x92, 0xbe,
  0x5d, 0x90, 0xcc, 0x3d, 0x6b, 0x49, 0xf1, 0x3d, 0x88, 0x9b, 0xda, 0xbd,
  0xcf, 0x23, 0x6b, 0xbd, 0x54, 0xb6, 0xb0, 0x3e, 0x4c, 0x4b, 0x4c, 0xbe,
  0x24, 0x77, 0x1f, 0x3e, 0x97, 0x05, 0x55, 0x3c, 0x2e, 0x40, 0x13, 0x3e,
  0xf9, 0xba, 0x16, 0xbe, 0x3e, 0x03, 0xc4, 0xbe, 0xbf, 0x63, 0xde, 0xbd,
  0x9d, 0xd7, 0x42, 0x3d, 0x21, 0x65, 0xb1, 0x3c, 0xbb, 0x65, 0x1b, 0x3e,
  0x2d, 0xad, 0x4c, 0x3d, 0x6b, 0x14, 0x1a, 0xbc, 0x3f, 0x6c, 0xdf, 0x3d,
  0x58, 0xe8, 0xc8, 0x3d, 0x76, 0xfb, 0x2e, 0x3d, 0x31, 0x5b, 0x15, 0xbe,
  0x86, 0x93, 0xb3, 0x3d, 0xbd, 0x67, 0x13, 0xbe, 0x35, 0xa1, 0x6e, 0x3e,
  0x3f, 0x7e, 0x2e, 0x3e, 0x50, 0x43, 0x04, 0x3e, 0x0f, 0x94, 0x48, 0x3d,
  0x46, 0xfe, 0x6e, 0x3c, 0x0e, 0x91, 0x56, 0xbd, 0x22, 0xee, 0x0b, 0xbe,
  0x51, 0x97, 0xc4, 0x3a, 0xa4, 0xde, 0x8e, 0xbb, 0xeb, 0xb2, 0x26, 0x3e,
  0x33, 0xc1, 0xa1, 0xbd, 0x87, 0x72, 0x12, 0x3e, 0x75, 0x8e, 0xe6, 0xbc,
  0x9c, 0x20, 0xbb, 0xbd, 0x13, 0x25, 0x04, 0x3d, 0x89, 0xb1, 0xe7, 0xbd,
  0xac, 0xaa, 0xb4, 0x3e, 0xa7, 0x80, 0x0b, 0x3e, 0x44, 0xb2, 0x9e, 0xbe,
  0xcb, 0x9a, 0x99, 0x3d, 0xdc, 0xda, 0x0e, 0x3b, 0xd9, 0xb6, 0x4b, 0xbd,
  0xfd, 0xbc, 0xb2, 0xbe, 0x03, 0xca, 0x8f, 0xbe, 0xa9, 0x15, 0xc5, 0x3d,
  0xca, 0x65, 0x5c, 0xbc, 0x26, 0xbe, 0xdc, 0xbd, 0x3f, 0x1d, 0x21, 0xbe,
  0xe2, 0xa0, 0x53, 0xbd, 0xad, 0xe9, 0x96, 0xbd, 0xb0, 0x74, 0xee, 0x3b,
  0xad, 0x1f, 0x03, 0xbc, 0x87, 0xf4, 0xd1, 0xbc, 0x65, 0xf3, 0x3c, 0x3c,
  0x33, 0x4e, 0x10, 0xbe, 0x32, 0x4a, 0xba, 0xbd, 0x5c, 0x28, 0x08, 0x3c,
  0xf6, 0x8b, 0xc5, 0xbe, 0x27, 0x73, 0x3d, 0xbe, 0xea, 0xfb, 0x8e, 0xbd,
  0x11, 0xbb, 0x04, 0x3e, 0x4f, 0xbd, 0x33, 0xbd, 0x76, 0x30, 0xba, 0x3d,
  0xd8, 0x10, 0x70, 0xbe, 0xc9, 0xe8, 0x25, 0xbd, 0xc9, 0x9a, 0xfa, 0x3c,
  0xf7, 0x0d, 0x98, 0xbd, 0x4a, 0xed, 0x7a, 0xbe, 0xa5, 0xaf, 0x70, 0xbe,
  0x0f, 0xc1, 0x05, 0xbe, 0x97, 0x14, 0x94, 0x3d, 0x56, 0x30, 0xe5, 0xbd,
  0x99, 0x06, 0x3f, 0x3c, 0x4f, 0x5c, 0x97, 0xbe, 0xe5, 0xc1, 0x12, 0x3e,
  0x40, 0x37, 0x82, 0xbe, 0x9a, 0xad, 0xe6, 0x3d, 0xcb, 0x9c, 0x00, 0xbe,
  0x21, 0x4e, 0x05, 0xbd, 0x29, 0x02, 0xcf, 0xbd, 0x16, 0xd7, 0x96, 0xbd,
  0xfd, 0x5d, 0x49, 0x3b, 0x5d, 0x28, 0xea, 0x3c, 0xa2, 0x88, 0x8d, 0xbe,
  0x6a, 0x50, 0x43, 0x3e, 0x72, 0xc4, 0xa5, 0xbd, 0x40, 0x2f, 0xa6, 0x3e,
  0x4a, 0xe3, 0x84, 0x3d, 0xc3, 0x43, 0x90, 0x3d, 0xf0, 0x2c, 0x24, 0x3d,
  0x19, 0xc2, 0x88, 0x3e, 0x37, 0x34, 0x05, 0xbe, 0x92, 0x0d, 0xbf, 0x3c,
  0x4b, 0x58, 0x80, 0xbd, 0x8d, 0x97, 0x23, 0x3c, 0xff, 0xe6, 0x61, 0x3e,
  0x57, 0xf3, 0x20, 0xbb, 0x16, 0xe6, 0xd7, 0xbd, 0x58, 0x05, 0x20, 0xbc,
  0x5d, 0xc8, 0x04, 0xbd, 0x7c, 0x36, 0x18, 0x3e, 0x62, 0xb1, 0x8d, 0xbd,
  0x07, 0x57, 0x4c, 0x3e, 0xbe, 0xe1, 0x26, 0x3e, 0x9d, 0x12, 0xc5, 0x3c,
  0xdc, 0x49, 0xb3, 0xbc, 0x96, 0x5c, 0xc0, 0x3e, 0x88, 0xdb, 0x05, 0xbe,
  0x20, 0x3c, 0xa8, 0xbd, 0xed, 0xbe, 0x04, 0xbe, 0x3a, 0x6e, 0x41, 0xbe,
  0xb0, 0xee, 0xdd, 0x3d, 0xd3, 0x05, 0x24, 0xbd, 0xd8, 0x3b, 0x4c, 0xbe,
  0xa0, 0x16, 0x40, 0xbd, 0x57, 0xfc, 0xd1, 0x3c, 0xcc, 0xe2, 0x3d, 0x3d,
  0x4b, 0x77, 0x0f, 0xbd, 0x0b, 0x59, 0xe9, 0x3d, 0x86, 0xd9, 0x16, 0xbb,
  0xb7, 0x6e, 0xa1, 0xbc, 0xb7, 0xd4, 0x9a, 0x3d, 0x17, 0x9e, 0x42, 0x3e,
  0x2d, 0x08, 0x00, 0xbe, 0x84, 0x01, 0xc7, 0x3d, 0xc8, 0x7a, 0x9f, 0xbd,
  0xe5, 0xf1, 0x1a, 0xbe, 0x5a, 0x30, 0x4f, 0xbd, 0xbc, 0x58, 0x68, 0xbe,
  0xfe, 0x00, 0xec, 0x3c, 0x3a, 0xf9, 0xf1, 0xbc, 0x46, 0xa5, 0x0a, 0xbe,
  0x2f, 0xf8, 0x2e, 0x3c, 0x73, 0x81, 0x7b, 0x3d, 0x6d, 0xb3, 0xb6, 0xbd,
  0x92, 0x61, 0x86, 0xbd, 0x28, 0x44, 0xb1, 0xbd, 0x6a, 0xdb, 0x2b, 0xbd,
  0xf9, 0x77, 0x23, 0xbe, 0x27, 0xf8, 0x2c, 0xbe, 0x0e, 0x8f, 0x69, 0x3e,
  0x2c, 0xfe, 0x7f, 0xbd, 0xd0, 0x14, 0x5e, 0xbe, 0x23, 0x12, 0x65, 0x3e,
  0x9a, 0x0b, 0x80, 0xbe, 0x75, 0xc5, 0x86, 0xba, 0x90, 0x52, 0x00, 0x3d,
  0xc9, 0x4a, 0x31, 0xbe, 0x66, 0x67, 0x89, 0xbe, 0x10, 0x41, 0x3c, 0xbe,
  0x84, 0x53, 0x26, 0xbe, 0xa3, 0x9b, 0x37, 0xbe, 0xdb, 0x37, 0x82, 0x3d,
  0x06, 0xe0, 0x33, 0xbd, 0xbc, 0x5c, 0x19, 0xbe, 0xa0, 0xe0, 0x64, 0xbe,
  0x12, 0x9a, 0xf4, 0x3d, 0x3d, 0x2f, 0x4a, 0x3d, 0xd3, 0x43, 0x10, 0xbb,
  0x78, 0x05, 0x59, 0x3e, 0xdd, 0xc6, 0xc8, 0xbe, 0x14, 0x8e, 0x82, 0xbd,
  0x80, 0xe2, 0xbf, 0xbd, 0x89, 0x99, 0x28, 0xbe, 0x99, 0x2a, 0x5b, 0x3d,
  0x2e, 0x8f, 0x28, 0x3e, 0x1a, 0xcc, 0x55, 0x3e, 0xcc, 0x1e, 0x01, 0xbe,
  0xef, 0x1d, 0x88, 0x3d, 0x91, 0xff, 0x83, 0xbd, 0x6e, 0xf2, 0xb0, 0x3d,
  0xdf, 0x40, 0xb2, 0x3d, 0x4e, 0xc5, 0x19, 0x3e, 0x39, 0x9b, 0x23, 0xbe,
  0x3a, 0x17, 0xb3, 0x3e, 0xa2, 0x76, 0xd0, 0x3d, 0x3d, 0xf3, 0x60, 0xbe,
  0x16, 0x75, 0x37, 0x3e, 0x4a, 0xc7, 0x45, 0x3d, 0x91, 0xda, 0x80, 0x3d,
  0xa4, 0x11, 0xb6, 0xbd, 0x84, 0x38, 0x87, 0xbe, 0x35, 0x36, 0x5e, 0x3e,
  0x5d, 0x32, 0x80, 0xbd, 0x28, 0x48, 0x32, 0x3e, 0x60, 0x32, 0x48, 0x3e,
  0x7b, 0x08, 0xf3, 0x3c, 0xc1, 0x4d, 0xa4, 0xbd, 0x27, 0x2d, 0xdc, 0xba,
  0xa2, 0x45, 0x80, 0xbd, 0x95, 0x96, 0x85, 0x3d, 0xc6, 0x7e, 0x2f, 0xbc,
  0x12, 0xf5, 0xa2, 0xbe, 0xa3, 0x96, 0xe1, 0x3d, 0xf4, 0x3d, 0x1b, 0xbe,
  0x3c, 0x4a, 0x5b, 0xbe, 0x56, 0xc9, 0x87, 0xbd, 0x62, 0x7a, 0x56, 0x3d,
  0xad, 0xaa, 0x31, 0x3d, 0xb0, 0x53, 0x38, 0xbd, 0xb8, 0x79, 0x9d, 0x3c,
  0xa5, 0x7a, 0x19, 0xbe, 0xac, 0x6b, 0xf1, 0xbd, 0x49, 0x7d, 0x8a, 0xbe,
  0x1c, 0xbf, 0xb7, 0x3d, 0x4b, 0x16, 0x49, 0xbc, 0xac, 0x35, 0xec, 0x3d,
  0x0f, 0x95, 0x1e, 0xbe, 0xd9, 0x2c, 0x63, 0xbe, 0xdd, 0x62, 0xd1, 0xbd,
  0x0e, 0xd5, 0x39, 0xbe, 0x56, 0xd8, 0xb9, 0x38, 0xb2, 0x0c, 0xe5, 0xbd,
  0xb2, 0x21, 0x5b, 0x3d, 0x39, 0xaa, 0x9d, 0x3c, 0x17, 0xb0, 0x42, 0x3d,
  0xc1, 0xe1, 0x86, 0x3d, 0xff, 0x98, 0x4a, 0xbe, 0xca, 0xe1, 0xd4, 0x3d,
  0xb7, 0x6f, 0xd1, 0x3d, 0x50, 0xa0, 0x14, 0xbe, 0xb2, 0x01, 0xff, 0xbd,
  0x8c, 0xfa, 0x95, 0x3d, 0x4e, 0x2f, 0xdf, 0xbd, 0xea, 0xf9, 0x48, 0xbe,
  0x49, 0xb0, 0x2d, 0x3e, 0x58, 0x07, 0x3a, 0xbe, 0x82, 0xb6, 0x7a, 0x3c,
  0x88, 0x5d, 0xaa, 0xbd, 0xea, 0x58, 0x71, 0x3e, 0xeb, 0x0b, 0x72, 0xbc,
  0xa7, 0x99, 0x6a, 0xbe, 0x1e, 0xe9, 0x01, 0xbe, 0xe6, 0x09, 0x9c, 0xbc,
  0xba, 0x7b, 0x9a, 0x3d, 0xb7, 0xfc, 0x09, 0x3e, 0x5e, 0x6e, 0xa4, 0x3d,
  0xa4, 0x44, 0xfe, 0xbd, 0x7a, 0x4b, 0x96, 0x3d, 0x96, 0x96, 0xb0, 0xbd,
  0x8a, 0xcf, 0x28, 0x3e, 0x62, 0x98, 0xa5, 0xbe, 0x89, 0x61, 0x66, 0x3c,
  0x75, 0xad, 0x0b, 0x3e, 0xee, 0x31, 0x85, 0x3e, 0xd0, 0x70, 0x82, 0x3e,
  0x01, 0x1f, 0x06, 0x3e, 0x30, 0xc1, 0xd7, 0x3d, 0xb8, 0x20, 0xb8, 0xbe,
  0x3e, 0xdc, 0x4a, 0x3e, 0x82, 0xae, 0xa5, 0x3d, 0x6a, 0xdf, 0x37, 0xbe,
  0x07, 0x01, 0xef, 0xbd, 0x8a, 0xa5, 0x09, 0x3e, 0x65, 0xdd, 0xbf, 0xbd,
  0xef, 0x7c, 0x88, 0x3d, 0x49, 0xd4, 0x39, 0xbc, 0xc8, 0x3f, 0xad, 0x3b,
  0x9f, 0x51, 0x06, 0x3e, 0x07, 0x20, 0x63, 0xbc, 0x1e, 0xd7, 0x97, 0x3e,
  0x7c, 0xc7, 0xbe, 0x3d, 0xc3, 0x21, 0x29, 0xbe, 0xcc, 0x05, 0xf9, 0xbd,
  0x02, 0x85, 0xc0, 0xbd, 0x17, 0x1f, 0x1b, 0xbc, 0xfd, 0x73, 0x3a, 0xbd,
  0x8a, 0x18, 0x8f, 0xbe, 0x09, 0x2c, 0x3f, 0x3e, 0x7c, 0xeb, 0xb4, 0x3d,
  0xff, 0xb4, 0xf2, 0x3c, 0x41, 0x2d, 0x0c, 0x3e, 0xb8, 0x27, 0xc4, 0xbc,
  0x1c, 0x68, 0x77, 0x3d, 0x82, 0xa9, 0xa3, 0xbe, 0xdf, 0x42, 0x88, 0xbd,
  0xd6, 0xaa, 0xf1, 0xbc, 0x16, 0x2b, 0xa7, 0xbd, 0x5f, 0x05, 0xb1, 0xbc,
  0x96, 0xa5, 0x1d, 0xbf, 0xb7, 0x06, 0xac, 0xbd, 0xae, 0x01, 0x3b, 0xbf,
  0x1a, 0x17, 0xe7, 0xbd, 0x60, 0xb6, 0xb0, 0x3d, 0x1a, 0xdd, 0xad, 0x3d,
  0x01, 0x50, 0x66, 0xbe, 0x55, 0x69, 0xa9, 0x3d, 0xbb, 0xa9, 0x64, 0x3e,
  0xba, 0xba, 0x13, 0xbd, 0x2c, 0x4a, 0x98, 0x3d, 0xcb, 0xfb, 0xe0, 0xbe,
  0xfa, 0x02, 0xe3, 0x3d, 0x52, 0x91, 0x24, 0xbf, 0xf4, 0xde, 0x96, 0xbe,
  0xa0, 0x5b, 0x34, 0xbc, 0x6a, 0xe2, 0x0a, 0xbf, 0xbd, 0x1b, 0x91, 0xbe,
  0x5d, 0x2b, 0x9d, 0xbe, 0x0e, 0xff, 0x08, 0xbe, 0xee, 0xde, 0x20, 0x3d,
  0xf5, 0xf9, 0xc5, 0xbd, 0x92, 0x32, 0x35, 0xbf, 0x0e, 0xd2, 0x1c, 0x3c,
  0x32, 0xaa, 0xb5, 0xbd, 0xf6, 0xbf, 0x70, 0xbd, 0x9c, 0xfc, 0xdf, 0xbd,
  0x1b, 0x24, 0x8c, 0xbe, 0x4c, 0x36, 0xa0, 0x3d, 0x9f, 0x8a, 0xdb, 0xbe,
  0xd1, 0x3c, 0x08, 0xbe, 0xcd, 0x29, 0x4b, 0xbe, 0x4d, 0x5e, 0x7d, 0xbe,
  0x02, 0x99, 0x3c, 0xbe, 0x41, 0x35, 0xbf, 0xbe, 0x6d, 0xe4, 0x6a, 0xbe,
  0xd4, 0x03, 0x49, 0xbe, 0x73, 0x9b, 0x00, 0x3c, 0x53, 0xd5, 0x0b, 0xbf,
  0xea, 0xa8, 0x4c, 0x3d, 0xc9, 0x02, 0x16, 0xbe, 0x48, 0x86, 0x81, 0xbd,
  0xc6, 0x6a, 0xac, 0xbd, 0x71, 0x5d, 0xf4, 0xbd, 0xa0, 0x12, 0x3c, 0xbe,
  0x15, 0x2b, 0x8a, 0xbe, 0x5a, 0xb8, 0xe0, 0xbd, 0xf9, 0x79, 0x90, 0x3d,
  0x3e, 0x40, 0x2e, 0xbe, 0xce, 0x78, 0xd8, 0xbd, 0xd7, 0xbe, 0x25, 0xbe,
  0xf9, 0xa9, 0x1c, 0xbe, 0x61, 0xe9, 0xba, 0xbd, 0x7c, 0x15, 0x37, 0x3d,
  0x7b, 0x0a, 0x06, 0xbf, 0x90, 0xcd, 0x2b, 0xbd, 0xe7, 0xce, 0x29, 0x3d,
  0xcb, 0x16, 0x69, 0xbd, 0xef, 0x1a, 0x62, 0xbe, 0x68, 0x20, 0x6d, 0xbd,
  0xf5, 0xa2, 0x4d, 0x3c, 0xea, 0xc6, 0xfb, 0x3b, 0x33, 0x13, 0x01, 0x3d,
  0xa5, 0xc1, 0x47, 0xbe, 0x88, 0x09, 0x1f, 0xbe, 0xa1, 0x20, 0x95, 0xbb,
  0xe6, 0x1b, 0x16, 0x3d, 0xe4, 0x2e, 0x90, 0xbe, 0x07, 0x6f, 0x09, 0x3d,
  0xff, 0x44, 0xd1, 0x3d, 0x6f, 0x14, 0xa0, 0xbe, 0x96, 0xb2, 0xe7, 0xbd,
  0xde, 0xe6, 0x75, 0xbe, 0x6a, 0x0c, 0x13, 0xbe, 0x06, 0xf3, 0x1c, 0xbe,
  0xbb, 0x55, 0x02, 0xbf, 0xbc, 0x2c, 0xa4, 0x3d, 0x3d, 0xa8, 0x4e, 0xbe,
  0xf3, 0xf8, 0x4a, 0xbd, 0x52, 0x58, 0xc9, 0x3e, 0xef, 0x84, 0x50, 0xbe,
  0xe1, 0xc8, 0x93, 0xbd, 0xa4, 0xa8, 0x09, 0xbe, 0x64, 0x17, 0x21, 0xbd,
  0x06, 0x18, 0x10, 0x3e, 0xda, 0xac, 0x66, 0xbe, 0x26, 0x71, 0x9b, 0x3e,
  0x41, 0x7b, 0x04, 0xbf, 0xc5, 0xcf, 0x91, 0x3d, 0x5e, 0xf6, 0x25, 0xbe,
  0x7c, 0xa6, 0x14, 0xbf, 0x1d, 0x40, 0x1d, 0xbf, 0x1f, 0xc7, 0x4f, 0x3d,
  0x81, 0x26, 0xaf, 0xbc, 0xb9, 0x95, 0xd9, 0x3d, 0x52, 0xc1, 0x47, 0xbe,
  0x56, 0x73, 0x16, 0xbe, 0x77, 0xe2, 0x6e, 0xbe, 0x44, 0x53, 0xa0, 0xbe,
  0xe2, 0x22, 0x5d, 0xbe, 0x61, 0xe6, 0x0c, 0xbe, 0x2f, 0x70, 0xf3, 0xbd,
  0xd0, 0x6b, 0x40, 0xbd, 0x1c, 0xbe, 0xac, 0xbe, 0xcc, 0x2a, 0x34, 0x3d,
  0xf1, 0x6a, 0x68, 0xbe, 0xa1, 0x19, 0x86, 0xbe, 0xbc, 0x39, 0x09, 0xbf,
  0xd3, 0x68, 0x22, 0x3d, 0xe2, 0x66, 0xa0, 0xbe, 0xf5, 0xb1, 0xb3, 0xbd,
  0x9b, 0xf4, 0x95, 0x3b, 0xd9, 0xda, 0xac, 0xbe, 0xb0, 0x93, 0x94, 0xbe,
  0xc3, 0x1b, 0xe2, 0xbd, 0x71, 0xf1, 0x30, 0xbe, 0x56, 0x24, 0x11, 0x3d,
  0x06, 0x18, 0x96, 0xbe, 0x03, 0xc5, 0x90, 0xbb, 0x4c, 0x2c, 0x31, 0xbd,
  0x72, 0xbb, 0x1b, 0xbe, 0x7c, 0x99, 0x85, 0xbe, 0x01, 0xae, 0x4f, 0xbe,
  0x81, 0x7e, 0xe4, 0xbe, 0xb1, 0x04, 0x8b, 0x3d, 0xaf, 0xb7, 0x8f, 0xbe,
  0x64, 0x7c, 0xaf, 0x3d, 0xd5, 0xc5, 0xc4, 0x3d, 0xe8, 0xed, 0x94, 0xbe,
  0x6f, 0xe6, 0x38, 0xbe, 0x0b, 0x8f, 0x7b, 0xbd, 0x0a, 0x1f, 0x1d, 0x3e,
  0x67, 0x64, 0x81, 0x3d, 0x47, 0xe5, 0xfc, 0x3c, 0x33, 0x6e, 0x5f, 0x3d,
  0x58, 0x13, 0x94, 0xbd, 0xa9, 0xfc, 0xc0, 0x3d, 0x23, 0x21, 0x80, 0xbd,
  0x41, 0x54, 0x97, 0xbe, 0x3c, 0x7e, 0x2e, 0x3b, 0x2d, 0xdc, 0x11, 0xbe,
  0x56, 0xa0, 0xf1, 0x3d, 0x6d, 0xdc, 0x40, 0xbd, 0xe8, 0xd2, 0x55, 0x3e,
  0x83, 0xd1, 0xa4, 0x3c, 0xfd, 0x0a, 0x8c, 0xbd, 0x2f, 0x96, 0x41, 0x3d,
  0xb6, 0x53, 0x3e, 0x3e, 0x8f, 0x77, 0x1f, 0xbd, 0xcd, 0x79, 0xe3, 0xb9,
  0x23, 0x25, 0x80, 0x3c, 0x77, 0x12, 0x99, 0xbe, 0xcf, 0x8a, 0xe9, 0x3e,
  0xd0, 0xd6, 0x1d, 0x3e, 0xf9, 0x7b, 0x1b, 0xbd, 0x6c, 0x19, 0x61, 0x3c,
  0x16, 0x17, 0x4e, 0xbc, 0x21, 0xb5, 0x76, 0x3e, 0x69, 0x38, 0xa5, 0x3e,
  0xcc, 0xae, 0xd2, 0x3e, 0x70, 0xf8, 0x8e, 0x3d, 0x3d, 0x20, 0xbb, 0xbd,
  0x55, 0x61, 0x9d, 0x3d, 0x0d, 0xe3, 0xcb, 0x3d, 0x9a, 0x05, 0xea, 0x3c,
  0xd6, 0x18, 0xab, 0xbd, 0xcb, 0xdc, 0x8b, 0x3b, 0x0f, 0x16, 0xa1, 0x3d,
  0xf9, 0x01, 0x11, 0x3e, 0x6b, 0x54, 0x14, 0x3c, 0x59, 0xe5, 0x89, 0xbc,
  0x30, 0x8f, 0x04, 0x3c, 0x68, 0x37, 0x1a, 0x3e, 0xd9, 0x8f, 0x99, 0x3e,
  0x39, 0x93, 0xe5, 0xbb, 0xd0, 0x37, 0x19, 0xbe, 0x8d, 0x6e, 0xe4, 0xbd,
  0xe0, 0x35, 0xc0, 0x3a, 0xfc, 0xa1, 0x05, 0xbd, 0x57, 0x0a, 0x6b, 0xbe,
  0x5a, 0x60, 0x14, 0xbe, 0xa3, 0x1b, 0x3d, 0xbd, 0x05, 0xfd, 0x04, 0xbe,
  0x63, 0x31, 0x08, 0xbe, 0x2d, 0xea, 0x74, 0xbe, 0x12, 0x9f, 0x92, 0xba,
  0xe6, 0xc4, 0xac, 0x3e, 0xb0, 0xa1, 0xd5, 0xbe, 0xbd, 0x8d, 0x90, 0x3d,
  0xc5, 0xf4, 0x1d, 0xbe, 0x16, 0x23, 0xe6, 0xbe, 0xa9, 0x5c, 0xcb, 0xbe,
  0x61, 0x35, 0x6a, 0xbc, 0x58, 0x96, 0x99, 0xbe, 0x91, 0x1c, 0x71, 0xbd,
  0x29, 0xdb, 0x9d, 0x3e, 0x58, 0xad, 0x42, 0x3e, 0x70, 0xbb, 0x7d, 0xbe,
  0x01, 0x09, 0x15, 0xbe, 0x2a, 0x23, 0xb1, 0x3d, 0x99, 0x74, 0x49, 0x3d,
  0xeb, 0x28, 0x70, 0x3d, 0x8c, 0x7f, 0x69, 0xbd, 0x44, 0xe2, 0xcb, 0xbd,
  0xfd, 0xc4, 0x95, 0x3e, 0x8f, 0x64, 0x17, 0x3e, 0xdc, 0x29, 0x4c, 0xbe,
  0x79, 0x25, 0xbb, 0xbd, 0x03, 0xaf, 0x1a, 0xbe, 0xe6, 0x2c, 0x04, 0xbf,
  0xe8, 0x90, 0x6e, 0x3e, 0x63, 0xac, 0xf5, 0x3d, 0xa1, 0x06, 0xdf, 0x3e,
  0xa7, 0x15, 0x02, 0xbe, 0x0a, 0xc0, 0x92, 0x3d, 0xd3, 0x27, 0x5a, 0x3e,
  0x95, 0xe3, 0xb4, 0x3e, 0x6e, 0x60, 0x9a, 0x3d, 0x21, 0xe4, 0xa4, 0xbc,
  0x74, 0x1e, 0x90, 0xbe, 0x47, 0xc0, 0x99, 0x3e, 0x5c, 0x2e, 0xac, 0xbc,
  0x36, 0x2f, 0xe7, 0xbc, 0x68, 0x63, 0x0d, 0x3d, 0xd8, 0x17, 0x9a, 0xbe,
  0x97, 0x9f, 0xa2, 0xbe, 0x08, 0xa4, 0xe2, 0x3d, 0x6a, 0xa2, 0x1d, 0x3e,
  0x44, 0xc6, 0x35, 0x3e, 0x69, 0x7b, 0x8b, 0xbd, 0x24, 0xb5, 0x8c, 0xbc,
  0x27, 0x28, 0xca, 0x3c, 0x26, 0xed, 0xe8, 0x3d, 0xb0, 0xb3, 0x83, 0x3d,
  0x58, 0xf9, 0x85, 0x3c, 0x6e, 0xf5, 0x80, 0xbe, 0xb0, 0x86, 0x94, 0x3e,
  0x6d, 0x24, 0xa4, 0xba, 0xbf, 0xc5, 0x3f, 0x3e, 0xb6, 0x5b, 0xb9, 0x3c,
  0x5e, 0xde, 0x5a, 0xbe, 0x6b, 0x1e, 0xaf, 0xbe, 0xdb, 0xaa, 0xaf, 0x3e,
  0x91, 0x1b, 0x02, 0x3c, 0xa6, 0x6b, 0xa3, 0x3e, 0xe9, 0xeb, 0x58, 0xbe,
  0x22, 0xd0, 0xcf, 0x3d, 0x61, 0xb4, 0xa5, 0x3b, 0x95, 0x9b, 0x1a, 0x3e,
  0xd7, 0x55, 0x9a, 0x3d, 0x33, 0x8c, 0x2e, 0x3d, 0xda, 0xaa, 0xfa, 0xbd,
  0x2c, 0xc2, 0x8b, 0x3e, 0x69, 0xe6, 0x90, 0x3d, 0x01, 0xeb, 0xc2, 0xbe,
  0xfe, 0x1f, 0x62, 0xbe, 0x09, 0xee, 0x82, 0xbe, 0x8c, 0x7a, 0x51, 0xbe,
  0x0f, 0xec, 0xb3, 0x3e, 0xea, 0x1e, 0x20, 0xbc, 0xf0, 0x46, 0x89, 0x3e,
  0x4b, 0x21, 0x82, 0xbe, 0x3b, 0xc7, 0x8e, 0x3d, 0x4b, 0x1b, 0x63, 0x3c,
  0x3e, 0x58, 0xa7, 0x3e, 0xcd, 0x0d, 0x63, 0x3d, 0x1d, 0x98, 0xbf, 0x3c,
  0x97, 0xa8, 0x9b, 0xbe, 0xdb, 0x42, 0x09, 0x3e, 0xad, 0x24, 0xa7, 0xbd,
  0xb2, 0x4e, 0x16, 0x3e, 0x30, 0x61, 0xf5, 0xbe, 0xd5, 0x49, 0x17, 0xbf,
  0x02, 0x5d, 0xb3, 0xbe, 0x6f, 0x71, 0x62, 0x3d, 0xa8, 0xf7, 0xf1, 0xbe,
  0xa4, 0xec, 0xc5, 0x3e, 0x31, 0x54, 0xf0, 0xbe, 0x83, 0x84, 0xd3, 0x3d,
  0x5c, 0x6e, 0x5d, 0x3d, 0x9f, 0x1a, 0x4e, 0x3e, 0x55, 0x1e, 0x3c, 0x3d,
  0x38, 0xd1, 0x82, 0x3d, 0xb9, 0x1d, 0x51, 0xbd, 0x43, 0xa1, 0x04, 0x3d,
  0x8e, 0x00, 0x9b, 0x3c, 0x30, 0x26, 0x90, 0x3b, 0xb9, 0xd1, 0x82, 0xbe,
  0x9f, 0x08, 0x54, 0xbe, 0x9a, 0x57, 0x12, 0xbe, 0xa0, 0x3b, 0x7c, 0xbe,
  0xbf, 0x08, 0xc2, 0xbe, 0x48, 0xd7, 0x8d, 0x3e, 0x90, 0xb6, 0x4b, 0xbe,
  0x04, 0x9b, 0x39, 0x3d, 0xfa, 0xec, 0xeb, 0x3d, 0x90, 0x41, 0xdf, 0x3d,
  0x1e, 0x52, 0x89, 0xbe, 0x9c, 0x87, 0x81, 0xbd, 0xd7, 0x1b, 0x0b, 0xbe,
  0x26, 0xdb, 0x51, 0xbe, 0x63, 0x0a, 0x1d, 0xbe, 0xdd, 0x21, 0xf3, 0xbc,
  0xb5, 0xcf, 0x2b, 0xbe, 0xd9, 0xf4, 0x0e, 0xbd, 0x54, 0xa5, 0x36, 0x3d,
  0x87, 0xaf, 0xc7, 0xbc, 0xfd, 0xdf, 0x5e, 0xbe, 0x9b, 0xce, 0xdd, 0xbd,
  0x73, 0x3b, 0xdf, 0x3b, 0x31, 0x92, 0xbb, 0xbd, 0xfb, 0x81, 0x83, 0xbd,
  0xa4, 0x50, 0x09, 0xbd, 0xd4, 0xfa, 0x86, 0xbe, 0x00, 0x5c, 0x1d, 0xbe,
  0xb3, 0xd8, 0x13, 0xbe, 0x8b, 0x0a, 0x4a, 0xbd, 0x83, 0x96, 0x56, 0x3d,
  0x40, 0x57, 0x27, 0x3d, 0xf6, 0x24, 0x1e, 0xbe, 0xc9, 0x8a, 0x2d, 0xbe,
  0xdb, 0x45, 0x2e, 0x3a, 0xdc, 0x37, 0x90, 0x3d, 0x08, 0x23, 0x14, 0xbe,
  0x79, 0x1e, 0xd6, 0xbd, 0xb3, 0xff, 0x55, 0x3d, 0x8c, 0xd9, 0xe2, 0xbc,
  0x25, 0x04, 0x96, 0xbd, 0xdd, 0x15, 0x15, 0x3e, 0x9c, 0x53, 0x64, 0xbe,
  0xaa, 0xb7, 0xb0, 0xbd, 0x23, 0x96, 0x30, 0xbd, 0x6e, 0x3a, 0x16, 0xbd,
  0xc8, 0x65, 0xaf, 0xba, 0x32, 0xba, 0xaa, 0xbd, 0xe6, 0xa0, 0x11, 0x3e,
  0x88, 0x0b, 0x22, 0xbe, 0x51, 0xa1, 0x19, 0xbe, 0x69, 0x53, 0x17, 0xbe,
  0x39, 0x49, 0x36, 0xbe, 0xa9, 0xf5, 0x29, 0x3d, 0x04, 0xc4, 0x1e, 0xbe,
  0x7a, 0x42, 0x4c, 0xbe, 0x15, 0x55, 0x06, 0x3e, 0x37, 0x3d, 0x1c, 0xbc,
  0x5f, 0x4b, 0x8b, 0xbe, 0x61, 0xb2, 0x45, 0x3d, 0xa2, 0x04, 0xc6, 0xbe,
  0x6e, 0xda, 0x1e, 0x3e, 0xa2, 0xdd, 0x27, 0xbe, 0x48, 0x16, 0xd4, 0xbb,
  0x15, 0x2d, 0x3b, 0x3d, 0x6c, 0x21, 0x8b, 0x3d, 0x79, 0x63, 0xf0, 0x3b,
  0xe4, 0xef, 0x85, 0xbc, 0x34, 0xe0, 0x8e, 0xbd, 0x54, 0xaa, 0xa1, 0xbd,
  0x1f, 0xd5, 0x8d, 0x3d, 0x0d, 0x39, 0x8e, 0x3d, 0xaf, 0xc6, 0x13, 0x3e,
  0xfb, 0x8d, 0x52, 0xbe, 0xbd, 0xee, 0x0d, 0xbe, 0xb7, 0x9d, 0x65, 0xbe,
  0x91, 0xaa, 0x89, 0xbe, 0xd4, 0x33, 0xa0, 0xbc, 0xee, 0x40, 0xdd, 0x3b,
  0x6c, 0x96, 0x6b, 0x3d, 0x6a, 0x58, 0xa9, 0xbb, 0x24, 0x3e, 0x54, 0xbe,
  0x38, 0xd9, 0xc2, 0xbc, 0x1a, 0x46, 0x56, 0xbe, 0xa4, 0x8f, 0x24, 0x3e,
  0x20, 0x8c, 0x12, 0x3d, 0xa6, 0xa7, 0x90, 0x3c, 0xe4, 0x4f, 0xa6, 0xbd,
  0xd2, 0x44, 0x29, 0xbe, 0xf2, 0xaf, 0x61, 0x3e, 0x31, 0x22, 0x20, 0xbc,
  0xcd, 0x28, 0xca, 0xbd, 0xac, 0x4e, 0x42, 0xbd, 0xa0, 0x83, 0x11, 0x3e,
  0x02, 0xaf, 0x55, 0xbe, 0xbb, 0x61, 0x0d, 0xbe, 0xf9, 0x44, 0xb8, 0x3c,
  0x97, 0x9d, 0xd1, 0xbd, 0x61, 0xfc, 0x5c, 0x3d, 0xf1, 0x7b, 0x85, 0x3d,
  0xd6, 0xde, 0x83, 0xbe, 0x37, 0xe2, 0x29, 0xbe, 0xb6, 0x40, 0x85, 0xbe,
  0xd5, 0x81, 0x03, 0xbe, 0x72, 0x13, 0x89, 0x39, 0x29, 0x67, 0xd3, 0x3d,
  0x74, 0x69, 0x3b, 0xbe, 0x1e, 0x10, 0xda, 0xbd, 0xb2, 0x96, 0x8e, 0xbd,
  0x6c, 0xce, 0xf2, 0xbd, 0x2a, 0x72, 0x9d, 0xbc, 0x43, 0x15, 0x9c, 0xbc,
  0x21, 0x26, 0x6b, 0xbe, 0xe2, 0x03, 0x77, 0xbe, 0x32, 0xda, 0x97, 0x3d,
  0xec, 0xdb, 0xf2, 0xbd, 0xba, 0x0f, 0x25, 0xbe, 0x35, 0x45, 0x8c, 0xbc,
  0x65, 0xa0, 0xc6, 0x3d, 0x31, 0x94, 0x8c, 0x3d, 0x66, 0x84, 0x22, 0xbe,
  0x42, 0xff, 0x09, 0x3c, 0x00, 0x0a, 0xc0, 0xbd, 0x76, 0xa7, 0xb7, 0x3d,
  0x50, 0x65, 0x71, 0xbe, 0xac, 0x56, 0x0e, 0x3e, 0xec, 0xe4, 0x2b, 0x3e,
  0x88, 0x3c, 0x33, 0xbe, 0xb8, 0xec, 0x39, 0x3d, 0x9b, 0xcb, 0x95, 0xbe,
  0x98, 0x87, 0x11, 0xbd, 0xd5, 0x26, 0x68, 0xbe, 0xb7, 0x5c, 0xe0, 0x3d,
  0x78, 0xf9, 0x9d, 0x3d, 0x20, 0x4b, 0x2b, 0x3d, 0x7f, 0x42, 0xa0, 0x3d,
  0x41, 0xad, 0x18, 0x3e, 0xe9, 0x00, 0x23, 0x3e, 0x12, 0x0c, 0x1b, 0xbe,
  0x72, 0xe4, 0x01, 0xbe, 0xde, 0x9a, 0x04, 0xbe, 0x37, 0xde, 0x07, 0xbe,
  0x94, 0xbe, 0xbd, 0xbd, 0x94, 0x3f, 0x65, 0xbe, 0x75, 0x11, 0xe6, 0xbc,
  0xd3, 0xa6, 0x20, 0x3e, 0x47, 0x20, 0x9e, 0xbc, 0x67, 0x6d, 0xff, 0x3d,
  0x08, 0x5c, 0x41, 0x3e, 0x34, 0x0d, 0x3d, 0x3e, 0xfd, 0x78, 0xae, 0x3d,
  0x97, 0x3f, 0x7f, 0xbe, 0x0d, 0xc8, 0x8a, 0x3e, 0x81, 0xd0, 0xec, 0x3c,
  0x6c, 0x16, 0x13, 0xbe, 0xcf, 0x23, 0x81, 0xbe, 0xbf, 0x34, 0x4f, 0xbe,
  0xcb, 0x7e, 0xa3, 0xbd, 0x04, 0x08, 0x03, 0xbe, 0xf0, 0xf1, 0x2b, 0xbe,
  0x3f, 0xe8, 0x13, 0x3e, 0xef, 0x18, 0x5a, 0xbd, 0xa0, 0x07, 0x7a, 0x3e,
  0x00, 0x25, 0x2c, 0xbe, 0xa2, 0xf2, 0x18, 0x3e, 0xa0, 0x90, 0x59, 0x3d,
  0x6f, 0x43, 0x58, 0x3d, 0x17, 0x10, 0x72, 0xbe, 0x41, 0x86, 0xaa, 0xbd,
  0xb3, 0xa2, 0xce, 0x3d, 0x6c, 0x66, 0x96, 0xbe, 0xa5, 0x19, 0x98, 0x3d,
  0x53, 0xb3, 0xd4, 0xbd, 0x66, 0xd4, 0x2d, 0x3c, 0xf1, 0x28, 0x07, 0x3d,
  0x96, 0x0b, 0x32, 0x3e, 0x7b, 0x8d, 0x8b, 0x3c, 0x41, 0xfc, 0x3b, 0x3e,
  0xdb, 0x93, 0x53, 0xbd, 0xf3, 0x99, 0x21, 0x3e, 0x7c, 0xbb, 0x05, 0xbd,
  0x8d, 0x9f, 0x3f, 0xbe, 0x3c, 0x70, 0x82, 0x3d, 0x92, 0xc6, 0xa0, 0x3b,
  0x00, 0xd8, 0x55, 0x3e, 0xaf, 0x80, 0x22, 0x3e, 0xde, 0x18, 0xbe, 0xbe,
  0x9e, 0x67, 0x00, 0x3e, 0x54, 0x2a, 0x71, 0xbd, 0xf2, 0xdc, 0x97, 0xbd,
  0xbf, 0x99, 0x14, 0xbe, 0xb7, 0x89, 0x3e, 0xbe, 0xe7, 0xf4, 0xf2, 0xbd,
  0x21, 0x36, 0x89, 0xbd, 0xcc, 0x18, 0x0c, 0xbe, 0xf7, 0xeb, 0x3f, 0x3e,
  0x08, 0x0b, 0x21, 0xbe, 0x20, 0xa5, 0x87, 0x3c, 0x1c, 0x4b, 0x59, 0xbd,
  0x41, 0x5c, 0xcf, 0xbc, 0xf0, 0xed, 0x85, 0x3d, 0xb8, 0x5b, 0x94, 0xbd,
  0xb5, 0x78, 0x88, 0xbe, 0x96, 0xf0, 0x49, 0x3d, 0x0e, 0x08, 0xfc, 0xbd,
  0x22, 0x19, 0x13, 0x3e, 0xe1, 0x89, 0x69, 0x3d, 0xe3, 0xc8, 0xe2, 0xba,
  0x83, 0xe3, 0x09, 0xbe, 0x0f, 0xc1, 0xc1, 0xbd, 0xd6, 0x55, 0xb7, 0x3d,
  0xfa, 0xe2, 0x07, 0xbe, 0xd6, 0x5e, 0xf3, 0x3c, 0x86, 0xf7, 0xc9, 0x3c,
  0xd5, 0x8e, 0x8c, 0x3d, 0xd7, 0x0b, 0x5e, 0x3e, 0x3a, 0x4e, 0xdd, 0x3d,
  0xb9, 0xb5, 0x0e, 0xbe, 0xd8, 0x24, 0x9d, 0xbe, 0xe9, 0xd0, 0x40, 0xbc,
  0xb9, 0xac, 0xe7, 0xbd, 0x48, 0xd6, 0x1b, 0x3e, 0x70, 0xed, 0xff, 0x3c,
  0x3c, 0xfe, 0xe5, 0x3b, 0xdd, 0x8e, 0x3e, 0x3b, 0x51, 0xeb, 0x16, 0xbe,
  0xe7, 0xee, 0x51, 0xbe, 0xba, 0x4f, 0x19, 0xbd, 0x96, 0xe4, 0x13, 0xbe,
  0xad, 0x5b, 0x02, 0xbe, 0x48, 0x01, 0xa3, 0xbd, 0x25, 0x88, 0x06, 0x3e,
  0x07, 0xaa, 0x3c, 0x3e, 0x39, 0xda, 0xfb, 0xbd, 0x99, 0x5a, 0xcf, 0x3c,
  0xdb, 0x8f, 0x72, 0x3e, 0xa8, 0x78, 0xc0, 0xbe, 0xd4, 0x17, 0x62, 0xbd,
  0xf5, 0xe5, 0x0a, 0xbe, 0x19, 0x72, 0x9e, 0xbd, 0x07, 0xa8, 0x45, 0xbe,
  0xd1, 0xa8, 0x58, 0xbc, 0x21, 0x35, 0xb5, 0xbe, 0xa4, 0xd7, 0x19, 0x3d,
  0xe8, 0xc8, 0x4d, 0x3e, 0x1e, 0xca, 0x0c, 0x3e, 0xce, 0x0f, 0xeb, 0xbe,
  0x81, 0x53, 0x86, 0xbd, 0x3e, 0x67, 0x23, 0x3c, 0x2e, 0xba, 0x65, 0x3d,
  0x7a, 0xc1, 0x23, 0x3d, 0xd8, 0xa4, 0xcc, 0x3d, 0x41, 0x8a, 0xa9, 0xbd,
  0xc7, 0x10, 0xe5, 0x3d, 0xf7, 0x54, 0x16, 0x3c, 0xaf, 0x6b, 0xae, 0xbc,
  0xfd, 0xac, 0x58, 0x3e, 0x1b, 0x8d, 0xda, 0xbd, 0xcb, 0x5d, 0xf5, 0xbe,
  0x1c, 0x61, 0x36, 0x3e, 0x82, 0xd2, 0x6f, 0x3e, 0x5f, 0xbf, 0x8a, 0x3e,
  0xd4, 0x13, 0x14, 0xbe, 0xdd, 0x2f, 0x93, 0x3b, 0xb6, 0xe4, 0xd5, 0x3d,
  0xa0, 0xd0, 0x26, 0x3e, 0xcc, 0x4e, 0xac, 0x3d, 0xa6, 0xe5, 0xc2, 0x3d,
  0x3c, 0x22, 0x53, 0xbe, 0x49, 0x30, 0xdb, 0x3d, 0x86, 0x4b, 0xe6, 0xbc,
  0x54, 0x48, 0x9a, 0xbc, 0x7e, 0xb6, 0x01, 0x3e, 0x4b, 0x09, 0x43, 0xbe,
  0x9b, 0x00, 0x95, 0xbe, 0xb9, 0xd4, 0x59, 0x3e, 0xb4, 0xb9, 0xc3, 0xba,
  0xef, 0xf0, 0xb0, 0x3e, 0x55, 0x96, 0x4b, 0xbe, 0xa2, 0x7e, 0x0d, 0x3d,
  0x0c, 0x8f, 0xa6, 0x3d, 0x22, 0xa4, 0xc9, 0x3e, 0xd5, 0xef, 0xb4, 0x3d,
  0xba, 0x9f, 0x36, 0x3d, 0x9a, 0x53, 0x24, 0xbe, 0x40, 0xcb, 0x87, 0x3d,
  0xa4, 0x07, 0x4e, 0x3e, 0x7e, 0x13, 0x3c, 0x3e, 0x97, 0x87, 0x27, 0x3d,
  0x12, 0x13, 0x42, 0xbe, 0xa3, 0x9c, 0xd5, 0xbd, 0x3a, 0xb4, 0xbd, 0x3e,
  0x01, 0xdb, 0xf9, 0x3d, 0x38, 0x7f, 0x12, 0x3e, 0x9f, 0x9a, 0x3e, 0xbe,
  0x38, 0x69, 0x05, 0x3d, 0x43, 0x84, 0xdc, 0x3a, 0x68, 0xfd, 0x66, 0x3e,
  0x6a, 0xc6, 0x87, 0x3d, 0x92, 0xce, 0xe1, 0xbd, 0xb9, 0x09, 0x33, 0xbe,
  0x11, 0x1a, 0x5d, 0xbd, 0xef, 0x6b, 0x6c, 0xbd, 0x23, 0x96, 0x36, 0x3d,
  0x8e, 0xa0, 0x83, 0xbe, 0x4b, 0x89, 0x56, 0xbe, 0x3c, 0x6b, 0x5a, 0xbe,
  0xcb, 0x3e, 0xab, 0x3e, 0xcd, 0x78, 0x1b, 0xbc, 0xc6, 0xbd, 0x7b, 0x3e,
  0xc7, 0xcd, 0xa0, 0xbe, 0xcb, 0x5c, 0xa6, 0x3d, 0x07, 0x39, 0xef, 0x3d,
  0x58, 0xed, 0x61, 0x3e, 0x42, 0x6d, 0xa3, 0x3d, 0x26, 0x39, 0x76, 0x3d,
  0xf4, 0xb7, 0x5d, 0xbe, 0x06, 0xfa, 0xf1, 0x3d, 0x51, 0x09, 0xce, 0xbb,
  0x5a, 0x73, 0x4f, 0x3d, 0xf4, 0x62, 0x38, 0xbe, 0xbc, 0xa0, 0xae, 0xbe,
  0x6e, 0x4c, 0x57, 0xbe, 0xb1, 0x77, 0xb9, 0x3c, 0x74, 0x20, 0x7d, 0xbe,
  0x28, 0xf0, 0xc3, 0x3e, 0x20, 0x63, 0xd5, 0xbe, 0x9d, 0x92, 0xcd, 0x3d,
  0x88, 0x71, 0x00, 0xbd, 0x54, 0xef, 0x26, 0x3c, 0x83, 0x7b, 0xe9, 0x3c,
  0xe2, 0xf3, 0x53, 0x3e, 0x19, 0xf6, 0x2b, 0xbd, 0x0f, 0xd9, 0x93, 0x3e,
  0x17, 0x96, 0x32, 0xbb, 0x5b, 0x7d, 0x80, 0x3d, 0x6c, 0xaf, 0xa6, 0x3c,
  0x37, 0x32, 0xe3, 0xbd, 0x03, 0x95, 0xac, 0xbd, 0x83, 0xda, 0x91, 0xbd,
  0x72, 0xff, 0xfb, 0xbd, 0xee, 0x21, 0x17, 0x3e, 0x0e, 0xe6, 0xf9, 0xbd,
  0x14, 0xbe, 0x8d, 0x3c, 0x0d, 0x8a, 0x02, 0x3e, 0x7d, 0x24, 0x1e, 0x3e,
  0x94, 0xcc, 0xbf, 0xbd, 0xcb, 0x18, 0x32, 0xbe, 0x63, 0x66, 0xde, 0xbe,
  0x3a, 0x1a, 0x47, 0xbd, 0x0d, 0x9f, 0xba, 0xbe, 0x55, 0xf4, 0x89, 0xbe,
  0x29, 0x52, 0x8e, 0xbe, 0x89, 0x13, 0x15, 0xbe, 0xa6, 0x4e, 0x36, 0xbe,
  0x0b, 0x8e, 0x8f, 0xbd, 0x22, 0xbd, 0x74, 0xbe, 0x23, 0x66, 0xe3, 0x3d,
  0x00, 0x51, 0x3b, 0xbe, 0xa7, 0x78, 0x22, 0xbd, 0x4c, 0xc2, 0x0c, 0xbf,
  0xda, 0x75, 0x18, 0xbe, 0x27, 0x5e, 0xe1, 0xbd, 0xe8, 0x93, 0xc7, 0xbd,
  0x8b, 0xef, 0xa4, 0xbe, 0x6f, 0xf4, 0x62, 0xbe, 0x7c, 0xdc, 0xa3, 0x3d,
  0x08, 0xe2, 0xf5, 0xbd, 0xce, 0x4a, 0x89, 0xbe, 0x43, 0xa7, 0xa0, 0xbe,
  0x39, 0x1a, 0x5a, 0xbe, 0x1a, 0xda, 0x98, 0xbd, 0x6d, 0x4f, 0x8f, 0xbe,
  0xe9, 0x9c, 0x9c, 0xbe, 0xee, 0x6f, 0x70, 0xbd, 0xe4, 0xc4, 0x9d, 0xbd,
  0xd4, 0x5c, 0xe6, 0xbd, 0x94, 0x60, 0xfa, 0xbd, 0x27, 0x6f, 0xcc, 0xbd,
  0xc4, 0xad, 0x18, 0xbe, 0x85, 0x84, 0x9d, 0xbe, 0xdc, 0x23, 0x4f, 0xbd,
  0x12, 0x7b, 0x6f, 0xbe, 0xea, 0x61, 0x03, 0x3d, 0x79, 0x8e, 0x62, 0xbe,
  0xce, 0x26, 0x9d, 0xbe, 0xa5, 0xf8, 0x26, 0xbe, 0x96, 0x0e, 0xa8, 0xbd,
  0x3c, 0x5a, 0xbf, 0xbe, 0xc6, 0xb9, 0xb1, 0xbd, 0x66, 0x46, 0xb3, 0xbc,
  0x2c, 0xcb, 0x13, 0x3e, 0xf6, 0x8b, 0x13, 0xbe, 0x85, 0x0e, 0xc5, 0x3d,
  0xd0, 0x1c, 0x37, 0xbd, 0x4c, 0x1f, 0x95, 0xbe, 0xed, 0x2a, 0x09, 0xbf,
  0x08, 0x2d, 0x27, 0x3d, 0xfc, 0xe4, 0x11, 0xbe, 0xf0, 0x1f, 0xd0, 0xbd,
  0xbb, 0xc9, 0xa4, 0x3d, 0xa6, 0x61, 0x66, 0xbe, 0xb3, 0x7b, 0x31, 0xbc,
  0x04, 0xaa, 0xcf, 0xbd, 0xf8, 0xc8, 0x06, 0xbf, 0xde, 0xc7, 0x5b, 0xbe,
  0xaa, 0x82, 0x9e, 0xbe, 0x5f, 0x3d, 0x01, 0xbd, 0x3f, 0xc8, 0x14, 0xbe,
  0x40, 0x41, 0x7f, 0xbc, 0xb5, 0x5f, 0x06, 0xbe, 0xe1, 0x19, 0x85, 0xbe,
  0x0a, 0xbe, 0xe7, 0xbe, 0x3e, 0x3f, 0x34, 0x3e, 0x52, 0x65, 0x1c, 0xbe,
  0xc4, 0x70, 0xe5, 0x3d, 0x93, 0x50, 0xec, 0xbc, 0x4e, 0x65, 0x17, 0xbe,
  0xc5, 0x72, 0x81, 0xbe, 0x5d, 0x48, 0x67, 0xbe, 0xae, 0x36, 0xcd, 0xbe,
  0xd9, 0x63, 0x5b, 0xbe, 0xb2, 0x2a, 0x53, 0xbe, 0x97, 0x5a, 0x31, 0xbe,
  0xe9, 0xfc, 0x78, 0x37, 0x0e, 0xc4, 0xd1, 0xbd, 0xce, 0xad, 0xaf, 0xbd,
  0x58, 0x1c, 0xa3, 0xbe, 0xdb, 0x1c, 0x57, 0xbe, 0xe2, 0x87, 0x86, 0xbd,
  0xa4, 0xce, 0x7c, 0x3d, 0x51, 0xad, 0x26, 0xbf, 0x18, 0x0d, 0x50, 0x3e,
  0xcc, 0x8a, 0x43, 0xbe, 0x12, 0x03, 0x4e, 0xbe, 0x3c, 0xea, 0x10, 0xbd,
  0x78, 0x5f, 0xdd, 0x3e, 0xe3, 0xbb, 0x59, 0x3d, 0xdb, 0xb9, 0xe5, 0xbc,
  0xb6, 0xbf, 0x73, 0xbe, 0xad, 0xf8, 0x37, 0xbe, 0xb9, 0x24, 0xd1, 0x3e,
  0xd1, 0xbb, 0x1d, 0x3e, 0xde, 0xdd, 0xa1, 0x3e, 0x07, 0xbc, 0x9c, 0x3b,
  0x20, 0x75, 0x65, 0x3e, 0x9e, 0xd7, 0xdd, 0xbe, 0xbe, 0xbf, 0xa0, 0x3c,
  0x4e, 0x8a, 0xa6, 0x3e, 0xe7, 0x28, 0x9d, 0x3d, 0xf6, 0x1f, 0x1d, 0xbe,
  0x2c, 0xfd, 0x7d, 0x3e, 0xa4, 0x11, 0xf5, 0x3e, 0xac, 0xea, 0x31, 0xbe,
  0x4a, 0x38, 0x2d, 0xbe, 0x19, 0x19, 0xac, 0x3d, 0x8c, 0x0c, 0x24, 0xbd,
  0x41, 0xf6, 0x8f, 0xbe, 0x95, 0xaf, 0x1b, 0x3d, 0x03, 0xf1, 0x13, 0x3e,
  0x82, 0xb9, 0xc7, 0xbd, 0x1e, 0xe5, 0x46, 0xbd, 0x41, 0x07, 0x8f, 0x3e,
  0x6c, 0x29, 0x9b, 0x3e, 0xcf, 0x81, 0x5c, 0x3d, 0x45, 0x22, 0x55, 0x3d,
  0x4f, 0xae, 0xb6, 0xbe, 0xf2, 0x5b, 0x0b, 0x3d, 0xd4, 0xc6, 0x45, 0x3b,
  0xa4, 0xba, 0x53, 0x3d, 0x1a, 0xb4, 0x93, 0xbe, 0xb9, 0x90, 0xf3, 0x3d,
  0x14, 0xce, 0x48, 0xba, 0xba, 0x05, 0xc4, 0x3d, 0x10, 0x68, 0xa4, 0x3c,
  0x8e, 0x0d, 0xe6, 0xbb, 0xd7, 0xf4, 0x13, 0x3c, 0x26, 0xc7, 0x5b, 0xbe,
  0x1b, 0x2b, 0xc7, 0x3e, 0x9c, 0x8d, 0x2a, 0x3d, 0x8f, 0xb3, 0x48, 0xbe,
  0x64, 0x74, 0x87, 0xbe, 0xfb, 0x52, 0x2f, 0xbe, 0x2e, 0x75, 0xe7, 0x3c,
  0xa0, 0x42, 0xdb, 0xbe, 0x4b, 0x76, 0x8b, 0x3d, 0x48, 0x62, 0x69, 0x3d,
  0x49, 0x17, 0x06, 0x3d, 0xd4, 0x28, 0xf9, 0x3c, 0xbd, 0x3c, 0x1f, 0x3e,
  0x63, 0xae, 0x3f, 0x3d, 0x9e, 0x4c, 0xc8, 0x3d, 0x4c, 0xeb, 0x69, 0xbe,
  0xd6, 0x7d, 0x61, 0x3c, 0xa9, 0x19, 0xe2, 0xbd, 0xbc, 0xf1, 0xbd, 0x3c,
  0x89, 0x24, 0xd1, 0xbe, 0x83, 0xb7, 0xbd, 0xbe, 0x85, 0x78, 0x66, 0xbe,
  0x63, 0x83, 0x23, 0xbf, 0x05, 0xb2, 0x48, 0x3d, 0x9e, 0x65, 0xb6, 0x3c,
  0x8c, 0x79, 0x7a, 0x3d, 0xce, 0x52, 0xe8, 0xbc, 0xca, 0x62, 0xba, 0xbd,
  0x8a, 0xf5, 0x44, 0xbd, 0xc7, 0x20, 0x3b, 0x3d, 0x50, 0x0e, 0xd8, 0xbd,
  0x4c, 0x96, 0x62, 0xbe, 0x26, 0x66, 0x9e, 0xbd, 0xca, 0x34, 0x80, 0xbe,
  0xde, 0x28, 0x7d, 0x3a, 0x76, 0x9d, 0xbf, 0x3d, 0x34, 0xcb, 0x77, 0xbe,
  0xf8, 0xb5, 0xa9, 0xbe, 0x4a, 0x15, 0xcb, 0xbd, 0x39, 0x73, 0xfb, 0xbc,
  0xf8, 0xaf, 0xee, 0x3d, 0x38, 0x32, 0xfa, 0xbd, 0xc2, 0x91, 0xc8, 0xbd,
  0xc7, 0x72, 0xb1, 0xbc, 0x9c, 0x9b, 0x99, 0x3d, 0xc7, 0xf2, 0x9a, 0x3c,
  0x7c, 0x77, 0x85, 0x3c, 0x58, 0xa7, 0x91, 0xbe, 0x05, 0xd6, 0xff, 0xbd,
  0x35, 0x90, 0x0d, 0xbe, 0x08, 0x0c, 0xbf, 0xbd, 0xbe, 0x5c, 0x46, 0x3e,
  0x5b, 0xc2, 0x91, 0xbe, 0x66, 0x62, 0x90, 0xbe, 0xc9, 0xe3, 0x41, 0x3e,
  0x2c, 0x40, 0xae, 0x3e, 0xdf, 0xea, 0x1a, 0x3d, 0xa0, 0xa1, 0x8e, 0xbd,
  0xfa, 0x07, 0xba, 0x3d, 0x8a, 0x52, 0x25, 0x3d, 0xb7, 0xd6, 0xfe, 0x3e,
  0x83, 0xbd, 0xd7, 0x3c, 0xc4, 0xbf, 0x1d, 0xbe, 0x2f, 0x35, 0xe0, 0xbd,
  0x8f, 0x3a, 0x02, 0xbe, 0xe6, 0x1c, 0x7f, 0x3e, 0x83, 0x13, 0x2e, 0x3e,
  0x12, 0xf8, 0xb8, 0x3e, 0xd7, 0x56, 0xf7, 0xbd, 0x89, 0x0a, 0x86, 0xbe,
  0xea, 0x8d, 0xd3, 0x3d, 0x68, 0x6c, 0x10, 0x3d, 0x19, 0x6f, 0x55, 0x3e,
  0x74, 0x9d, 0xa9, 0xbe, 0x38, 0x96, 0xcf, 0xbb, 0x93, 0xa7, 0x10, 0x3e,
  0x60, 0x4b, 0x43, 0x3d, 0xc1, 0x7a, 0xd1, 0x3c, 0x3b, 0xe2, 0x22, 0xbe,
  0x55, 0xa5, 0xc8, 0xbc, 0x66, 0x83, 0x76, 0x3e, 0xd7, 0x26, 0x59, 0x3d,
  0xaf, 0x49, 0x23, 0x3d, 0x1d, 0xd9, 0x91, 0x3d, 0x87, 0xdc, 0xa7, 0xbd,
  0x60, 0x8a, 0x15, 0xbd, 0x26, 0xcc, 0xe9, 0xbc, 0xd5, 0xca, 0x1a, 0x3e,
  0x28, 0x6e, 0x22, 0x3d, 0x8d, 0xed, 0x26, 0xbe, 0x15, 0x7a, 0x8a, 0xbd,
  0x19, 0x29, 0xd4, 0x3c, 0xf9, 0x56, 0x20, 0x3d, 0x4a, 0x51, 0x82, 0xbe,
  0x44, 0x22, 0x07, 0x3f, 0xd7, 0x3f, 0x5f, 0xbe, 0x3d, 0xf4, 0x33, 0xbe,
  0x6c, 0x0e, 0xe6, 0xbd, 0x91, 0x35, 0xdd, 0xbd, 0xc5, 0x23, 0x84, 0x3d,
  0x2a, 0x4f, 0xe6, 0x3c, 0x07, 0x5b, 0x94, 0xbd, 0x7a, 0x20, 0x58, 0xbe,
  0x4f, 0x49, 0x79, 0x3e, 0x61, 0xe2, 0x41, 0x3d, 0xdc, 0x5a, 0x25, 0xbe,
  0x60, 0x50, 0xff, 0xbd, 0x11, 0xc8, 0xa3, 0xbd, 0x17, 0x14, 0xc1, 0xbd,
  0xc5, 0x54, 0x2c, 0xbe, 0x19, 0xb3, 0x67, 0x3e, 0x05, 0x18, 0x06, 0x3d,
  0xb6, 0x6e, 0x98, 0xbc, 0x62, 0x82, 0x02, 0xbe, 0xd1, 0x1f, 0x88, 0xbd,
  0x08, 0x0a, 0xd7, 0xbb, 0x66, 0xd0, 0x53, 0xbd, 0x52, 0x3c, 0xad, 0x3c,
  0x65, 0x21, 0xc3, 0x3c, 0x8b, 0xaa, 0x0a, 0x3e, 0x01, 0x3e, 0xd7, 0x3d,
  0x3e, 0x1e, 0x80, 0x3e, 0x09, 0xb8, 0x23, 0xbd, 0x2d, 0xf4, 0x32, 0x3e,
  0x42, 0x97, 0xa9, 0xbd, 0xff, 0xde, 0xc5, 0xbd, 0xed, 0x0a, 0xb6, 0x3e,
  0x31, 0x9c, 0xca, 0x3d, 0xc0, 0xc8, 0x78, 0x3e, 0xa5, 0x1c, 0xe7, 0xbc,
  0x48, 0xe8, 0x2d, 0x3e, 0xe0, 0x29, 0xf0, 0xbd, 0xc2, 0x70, 0x94, 0x3d,
  0xde, 0xe8, 0x22, 0x3e, 0x6d, 0x2f, 0x1e, 0xbe, 0xbf, 0xde, 0x23, 0x3c,
  0x91, 0xa3, 0xff, 0x3d, 0xf7, 0x90, 0x31, 0xbe, 0xf8, 0x3a, 0xde, 0xbd,
  0xcd, 0x4b, 0xee, 0x3e, 0xdf, 0x61, 0xe1, 0x3d, 0x72, 0x70, 0x3f, 0xbe,
  0x02, 0x23, 0x89, 0x3c, 0x09, 0x41, 0x52, 0xbe, 0x23, 0x84, 0x4d, 0xbd,
  0xaa, 0x52, 0xa6, 0x3d, 0x9e, 0x83, 0x03, 0x3e, 0x7e, 0x8c, 0x28, 0xbc,
  0xcf, 0xb9, 0x08, 0xbe, 0x21, 0x83, 0x6a, 0xbd, 0x16, 0x2a, 0x59, 0xbe,
  0x21, 0x5c, 0x54, 0xbe, 0x0f, 0x58, 0x66, 0xbe, 0x25, 0x18, 0xb6, 0xbc,
  0xe4, 0x4a, 0x3e, 0x3d, 0x02, 0x21, 0x46, 0x3d, 0x65, 0xcc, 0x5a, 0x3e,
  0xef, 0xb2, 0xc7, 0xbe, 0x66, 0x28, 0x13, 0xbd, 0xd0, 0x4c, 0x38, 0xbe,
  0xe0, 0x02, 0x85, 0x3d, 0xc5, 0x93, 0xf2, 0x3b, 0x07, 0x2b, 0x81, 0x3e,
  0xab, 0xb2, 0x21, 0x3e, 0xa2, 0x86, 0x0e, 0xbe, 0x23, 0xce, 0x9a, 0xbd,
  0x4e, 0x30, 0x16, 0x3d, 0x97, 0x39, 0x15, 0xbe, 0x44, 0x10, 0x6c, 0xbe,
  0x64, 0x98, 0x31, 0x3c, 0xa6, 0x66, 0x37, 0xbe, 0xad, 0x17, 0x8e, 0xbc,
  0x13, 0xf0, 0x3a, 0xbe, 0x2a, 0x44, 0x94, 0xbe, 0x0c, 0x4c, 0x4b, 0x3d,
  0x9c, 0xda, 0x44, 0xbd, 0xd4, 0x10, 0x4f, 0x3e, 0xad, 0xa1, 0x15, 0x3e,
  0xe1, 0xe6, 0xe2, 0x3d, 0x81, 0x73, 0x53, 0xbe, 0x4e, 0xc1, 0x94, 0xbe,
  0x5c, 0x52, 0x0f, 0x3d, 0xa2, 0xe7, 0x0b, 0xbe, 0xd6, 0x87, 0x10, 0x3d,
  0x02, 0x40, 0x60, 0xbd, 0x16, 0x70, 0x4b, 0x3d, 0xfc, 0x6b, 0x33, 0xbd,
  0xa7, 0x88, 0xb2, 0x3d, 0x93, 0x34, 0x1d, 0xbc, 0xee, 0x51, 0x5d, 0xbe,
  0x1b, 0x98, 0x75, 0x3e, 0x3e, 0x74, 0x48, 0xbe, 0xf9, 0x31, 0x02, 0x3e,
  0xcb, 0x64, 0x9f, 0x3e, 0x96, 0x0a, 0x96, 0x3e, 0xbb, 0xa6, 0x98, 0x3d,
  0x0e, 0xd1, 0xfe, 0x3c, 0x15, 0xb8, 0x57, 0xbe, 0xcb, 0xe8, 0xf6, 0xbd,
  0x41, 0x8e, 0x11, 0xbe, 0xb2, 0xa9, 0x46, 0x3e, 0x9a, 0x1f, 0x07, 0xbb,
  0x0a, 0xef, 0x6f, 0xbe, 0xa1, 0x2f, 0xe7, 0xbd, 0x7c, 0x6c, 0x84, 0x3e,
  0x44, 0x2d, 0x91, 0xbd, 0x9c, 0x0a, 0x5a, 0x3d, 0x3b, 0x6c, 0x21, 0x3d,
  0x01, 0xa7, 0x00, 0x3e, 0xd3, 0xa8, 0xff, 0xbd, 0x53, 0xb2, 0xb5, 0xbe,
  0xcf, 0xf7, 0x3c, 0xbe, 0x84, 0xd6, 0xd6, 0xbd, 0xdb, 0x69, 0x41, 0x3e,
  0xf9, 0x11, 0x6d, 0xbe, 0x95, 0x20, 0x31, 0x3d, 0x80, 0xee, 0xc0, 0xbc,
  0xfc, 0x8d, 0x7d, 0x3e, 0x50, 0xc9, 0x04, 0xbf, 0x3e, 0xa1, 0x7e, 0xbc,
  0x12, 0xb8, 0x3c, 0x3e, 0xac, 0xc5, 0x04, 0xbd, 0xac, 0x24, 0x82, 0xbd,
  0x19, 0x8a, 0x48, 0xbd, 0x72, 0xe2, 0x21, 0x3e, 0xaa, 0x17, 0x43, 0xbe,
  0xe9, 0x7b, 0x1d, 0xbd, 0xf1, 0xd1, 0x30, 0xbd, 0x50, 0xd9, 0x49, 0x3e,
  0x32, 0xf8, 0x96, 0x3e, 0x33, 0x07, 0x65, 0xbd, 0x7e, 0x5d, 0x23, 0xbd,
  0xfa, 0xa6, 0x08, 0xbd, 0xc8, 0xa2, 0x75, 0x3e, 0x2d, 0xe2, 0xb6, 0xbe,
  0x1a, 0xdc, 0x25, 0xbe, 0x25, 0x30, 0x7c, 0xbe, 0xfc, 0x75, 0x32, 0xbd,
  0xb0, 0xc7, 0x4f, 0xbe, 0x27, 0x10, 0x81, 0x3e, 0x30, 0x1e, 0x46, 0x3e,
  0x33, 0xd3, 0x72, 0x3e, 0xab, 0x08, 0xb9, 0xbd, 0xcf, 0x1d, 0xfe, 0xba,
  0x5f, 0xcb, 0x91, 0x3e, 0xa5, 0x4e, 0x95, 0x3e, 0xf5, 0xa7, 0x88, 0xbd,
  0xfe, 0xda, 0x04, 0x3d, 0xbf, 0x97, 0xb1, 0xbd, 0x14, 0xfc, 0x69, 0x3d,
  0xec, 0x81, 0x98, 0xbd, 0xf4, 0x75, 0x57, 0xbe, 0x6f, 0xdc, 0xa8, 0xbe,
  0x20, 0xd2, 0x80, 0xbc, 0xd3, 0x52, 0x4d, 0xbe, 0x4c, 0xc8, 0x7c, 0x3e,
  0x09, 0x42, 0x2f, 0xbe, 0x73, 0x7f, 0x88, 0x3e, 0xde, 0xe0, 0x50, 0xbe,
  0x17, 0x02, 0xa9, 0x3c, 0xca, 0x5a, 0x90, 0x3e, 0xff, 0xaa, 0x24, 0x3e,
  0x19, 0xac, 0x32, 0xbe, 0x5d, 0x45, 0x86, 0xbe, 0x98, 0x5a, 0xa4, 0xbc,
  0x29, 0x0a, 0x25, 0x3e, 0xe6, 0xc5, 0x8b, 0xbd, 0x7e, 0xd6, 0x0e, 0xbe,
  0x35, 0xe6, 0x32, 0xbe, 0x93, 0xc1, 0x11, 0xbd, 0x09, 0x55, 0x09, 0xbe,
  0x49, 0xff, 0x28, 0x3e, 0xfd, 0x07, 0x0f, 0x3e, 0x13, 0x9a, 0xc3, 0x3d,
  0xd8, 0x1d, 0xa3, 0x3e, 0x8e, 0x14, 0xd8, 0xbe, 0xa9, 0x16, 0xe6, 0x3d,
  0x77, 0x29, 0xbd, 0x3e, 0xdc, 0x67, 0x82, 0xbe, 0x75, 0x9c, 0xe8, 0xbe,
  0x8b, 0x20, 0x1d, 0x3e, 0xf1, 0x20, 0x7d, 0x3e, 0xda, 0xb4, 0x78, 0xbe,
  0xa0, 0x78, 0x5a, 0xbe, 0xde, 0x01, 0x36, 0xbe, 0x40, 0x9e, 0x78, 0xbd,
  0x7c, 0x83, 0x99, 0xbd, 0x48, 0x55, 0xd9, 0x3d, 0x99, 0x2e, 0x3d, 0xbe,
  0x22, 0xce, 0xdd, 0xbc, 0x93, 0xd4, 0xbc, 0xbe, 0x15, 0xe4, 0x16, 0xbe,
  0xba, 0xb0, 0xd5, 0x3d, 0x90, 0xf9, 0x3f, 0x3e, 0x52, 0xa9, 0x5b, 0xbe,
  0xf0, 0xfa, 0x07, 0xbe, 0xad, 0x95, 0xe3, 0x3d, 0xc0, 0xf0, 0x92, 0x3e,
  0x3c, 0x07, 0x53, 0xbe, 0xa5, 0xe8, 0x84, 0xbe, 0x50, 0x24, 0xb2, 0xbe,
  0x87, 0x7e, 0xe4, 0xbb, 0x1d, 0x7b, 0x8f, 0x3e, 0xd6, 0x73, 0x82, 0x3d,
  0xa2, 0xf7, 0x74, 0xbd, 0x99, 0x59, 0x40, 0xbe, 0x97, 0x06, 0xa4, 0xbe,
  0x05, 0xdb, 0x23, 0xbe, 0xbc, 0x57, 0x69, 0x3e, 0xe8, 0x7c, 0x94, 0x3d,
  0x4a, 0x29, 0x6a, 0xbe, 0x08, 0xbf, 0x9f, 0x3d, 0x2f, 0x5f, 0x47, 0xbe,
  0xda, 0x4a, 0xa3, 0x3d, 0xd5, 0xda, 0xa9, 0x3c, 0xf8, 0xab, 0x5d, 0x39,
  0xbb, 0x3d, 0xe9, 0x3c, 0x3c, 0x32, 0x50, 0xbe, 0xec, 0x38, 0xd9, 0xbe,
  0x06, 0xad, 0x66, 0xbf, 0x38, 0x99, 0xd3, 0xbc, 0x41, 0xe3, 0xcd, 0xbe,
  0x4f, 0xc6, 0x48, 0xbe, 0xac, 0xc8, 0x50, 0xbe, 0x20, 0xad, 0xc0, 0xbd,
  0xb2, 0xb9, 0x16, 0x3d, 0x93, 0x28, 0xbc, 0xbd, 0x28, 0x69, 0x82, 0xbe,
  0x27, 0xc3, 0x0f, 0x3d, 0x8c, 0x31, 0xda, 0xbe, 0xa4, 0x58, 0xa0, 0xba,
  0x39, 0x93, 0x41, 0xbf, 0xe0, 0x99, 0x1b, 0xbc, 0xe8, 0xe0, 0x30, 0xbe,
  0x69, 0xe6, 0x49, 0xbf, 0xfe, 0xd5, 0x30, 0xbf, 0x36, 0xbc, 0x11, 0xbe,
  0x8e, 0x0c, 0x5a, 0xbe, 0x85, 0x46, 0xec, 0xbd, 0xad, 0x1e, 0x79, 0xbe,
  0x99, 0x7c, 0xed, 0xbe, 0x09, 0xe6, 0x44, 0xbe, 0x6d, 0x4f, 0x37, 0xbe,
  0x64, 0xc1, 0x95, 0xbe, 0xe2, 0x90, 0x48, 0x3c, 0x2a, 0x65, 0xe5, 0xbd,
  0x2a, 0x30, 0xae, 0x3d, 0x6f, 0x24, 0xfe, 0xbe, 0xb3, 0x9a, 0x51, 0xbe,
  0x5a, 0x78, 0x64, 0xbe, 0x89, 0xa7, 0xfa, 0xbe, 0x67, 0xc7, 0x19, 0xbf,
  0x06, 0x37, 0xed, 0xbd, 0xe4, 0x98, 0xdc, 0xbd, 0xd6, 0xdc, 0xf1, 0x3c,
  0xc2, 0x28, 0x45, 0xbd, 0x76, 0x53, 0xe0, 0xbe, 0x2e, 0xc9, 0x08, 0xbc,
  0xaf, 0x7d, 0x06, 0xbd, 0xb3, 0x47, 0xbf, 0xbe, 0xb1, 0x12, 0xd4, 0x3d,
  0x1e, 0x81, 0xe6, 0xbd, 0xd3, 0x7a, 0xa5, 0x3d, 0x24, 0xcb, 0xc3, 0xbe,
  0xcb, 0xe0, 0x66, 0xbc, 0x1a, 0x5a, 0x53, 0xbe, 0x79, 0x91, 0x1e, 0xbf,
  0xe9, 0x60, 0xfc, 0xbe, 0xc4, 0x59, 0xee, 0x3c, 0x20, 0x07, 0x91, 0xbe,
  0x80, 0x04, 0x45, 0xbe, 0x49, 0x87, 0xdf, 0x3c, 0xc2, 0x6d, 0x50, 0xbf,
  0x5a, 0x0d, 0xbe, 0xbe, 0xda, 0xb7, 0x15, 0xbe, 0x4d, 0xf8, 0xb9, 0x3e,
  0x05, 0xbd, 0x82, 0xbe, 0x6e, 0xdb, 0xdf, 0xbe, 0x34, 0x4d, 0xe4, 0x3c,
  0x29, 0xa5, 0x87, 0xbe, 0xd3, 0x3b, 0xd7, 0xbb, 0x70, 0x4a, 0xd2, 0xbd,
  0x60, 0x15, 0x77, 0xbe, 0x88, 0xd6, 0x06, 0xbd, 0x87, 0x51, 0xec, 0xbd,
  0x94, 0xff, 0x2a, 0x3d, 0xa7, 0x7b, 0xa7, 0xbd, 0x5b, 0x67, 0x8f, 0x3e,
  0xc1, 0xcf, 0x88, 0x3d, 0x0c, 0xff, 0xaf, 0xbe, 0xe2, 0x92, 0x89, 0x3d,
  0x20, 0xaa, 0x73, 0x3e, 0xb3, 0xf8, 0xda, 0x3d, 0x5d, 0x1c, 0x51, 0xbd,
  0x93, 0xb2, 0x14, 0xbe, 0x25, 0xc3, 0xeb, 0xbe, 0x3f, 0xbc, 0xef, 0x3e,
  0x21, 0xa3, 0x6d, 0x3d, 0xcc, 0xaa, 0x93, 0xbe, 0x72, 0x30, 0x89, 0xbc,
  0xdc, 0x42, 0x77, 0x3e, 0x76, 0x9e, 0x34, 0x3e, 0xb6, 0xb4, 0x4e, 0x3e,
  0xfe, 0xa4, 0x88, 0x3e, 0x9e, 0x81, 0x97, 0x3d, 0x36, 0x08, 0xa9, 0xbd,
  0x33, 0xbc, 0x96, 0x3d, 0xf2, 0x7c, 0xfa, 0x3e, 0xe4, 0xdf, 0xb3, 0xbc,
  0x32, 0x6d, 0xa8, 0xbd, 0xc5, 0xaa, 0x6b, 0x3d, 0x1e, 0x40, 0xb8, 0xbc,
  0xf4, 0x5d, 0x75, 0x3e, 0xb6, 0x0b, 0x4b, 0x3e, 0xcc, 0xc8, 0x81, 0xbe,
  0x6d, 0x51, 0xa4, 0x3d, 0xa5, 0x58, 0x95, 0xbd, 0xec, 0x40, 0x0f, 0x3e,
  0x01, 0xbb, 0x68, 0xbd, 0x12, 0xff, 0x7d, 0x3e, 0xe7, 0x1a, 0xae, 0x3d,
  0x5b, 0x8b, 0x8f, 0xbd, 0xeb, 0xdb, 0xcb, 0x3d, 0xfa, 0xfa, 0x1b, 0xbb,
  0x26, 0x75, 0x45, 0xbc, 0x14, 0xdd, 0x2f, 0xbe, 0xbd, 0x42, 0x68, 0x3d,
  0x5a, 0xb4, 0x7b, 0xbe, 0x00, 0x8f, 0x78, 0x3d, 0xd1, 0xe1, 0xf4, 0xbc,
  0xdb, 0xab, 0x71, 0xbe, 0xb8, 0x8c, 0x3f, 0x3d, 0x12, 0x96, 0x7b, 0x3d,
  0x9d, 0xb4, 0x18, 0xbc, 0x2a, 0xfe, 0x7e, 0xbd, 0x37, 0x5b, 0xfd, 0x3d,
  0x55, 0x2e, 0xe7, 0xbd, 0xd6, 0x83, 0xb3, 0x3e, 0x5d, 0x5d, 0x78, 0xbe,
  0x23, 0xa4, 0x16, 0xbd, 0xa1, 0x42, 0xad, 0xbc, 0x69, 0x10, 0x0e, 0x3e,
  0x4b, 0xd1, 0x61, 0xbe, 0xdc, 0xc0, 0xfd, 0xbc, 0x06, 0xcf, 0xa0, 0x3e,
  0xa7, 0xa7, 0x46, 0xbe, 0x3d, 0xc0, 0x89, 0xbe, 0x7b, 0x26, 0x97, 0xbc,
  0xeb, 0x0d, 0x55, 0x3c, 0xe6, 0xe3, 0x72, 0xbd, 0x4d, 0xdc, 0xa0, 0x3d,
  0x1a, 0xb9, 0x83, 0x3d, 0x8e, 0x15, 0x6e, 0x3e, 0xb1, 0xf2, 0xbb, 0x3d,
  0x5a, 0xd3, 0xa4, 0xbd, 0x01, 0x73, 0x1c, 0xbe, 0x27, 0x73, 0x21, 0x3d,
  0x5f, 0xff, 0x41, 0x3c, 0xa7, 0xe9, 0x6f, 0xbe, 0x06, 0x61, 0xea, 0xbe,
  0x47, 0x33, 0x27, 0xbd, 0x26, 0xe9, 0x97, 0xbd, 0x3a, 0xc6, 0xb2, 0xbe,
  0xc5, 0x0f, 0x9b, 0x3e, 0x26, 0xad, 0x37, 0x3c, 0x2a, 0x94, 0x04, 0x3e,
  0xda, 0xf9, 0xbc, 0xbc, 0x34, 0xfe, 0x6f, 0xbd, 0x7a, 0x46, 0xdb, 0x3e,
  0x73, 0xa8, 0x3f, 0x3e, 0x5a, 0xb5, 0x75, 0x3c, 0x2c, 0xb1, 0xa1, 0x3d,
  0xa9, 0x81, 0xa2, 0xbd, 0x0b, 0x74, 0x52, 0x3e, 0x4b, 0x83, 0xb8, 0xbd,
  0x9b, 0x49, 0x43, 0xbe, 0xb8, 0x41, 0xd6, 0xbe, 0xff, 0xd1, 0xc1, 0x3b,
  0xb5, 0x2e, 0x57, 0xbe, 0xc3, 0x50, 0x9b, 0x3e, 0xc0, 0x1c, 0xf4, 0x3d,
  0x3d, 0xbd, 0x98, 0x3e, 0x1d, 0x13, 0xa3, 0x3c, 0x47, 0x04, 0x62, 0xbe,
  0xf6, 0x0a, 0x7e, 0x3e, 0x77, 0xf8, 0x3b, 0xbd, 0x5e, 0x7b, 0x87, 0xbe,
  0x8c, 0x9b, 0xc5, 0xbe, 0xe7, 0xfe, 0x6b, 0xbd, 0xca, 0xae, 0x0e, 0x3d,
  0x33, 0x6d, 0x00, 0xbe, 0xee, 0x17, 0x75, 0xbd, 0x87, 0x62, 0x80, 0xbe,
  0x70, 0x56, 0x54, 0xbd, 0xee, 0x20, 0xea, 0x3c, 0xb4, 0x65, 0x86, 0x3e,
  0xcf, 0xb1, 0x18, 0xbd, 0x12, 0x31, 0xa0, 0x3e, 0x8d, 0x37, 0x31, 0xbe,
  0x4b, 0xb1, 0x1b, 0xbe, 0x9e, 0x81, 0xdd, 0x3d, 0x2f, 0x11, 0x8f, 0x3e,
  0xac, 0x0d, 0xda, 0xbe, 0xcf, 0xbe, 0xd0, 0xbd, 0x45, 0x7a, 0x1a, 0x3e,
  0x87, 0x15, 0x8b, 0x3e, 0x2a, 0xaf, 0xb1, 0xbe, 0x58, 0x65, 0x71, 0xbd,
  0x9f, 0x08, 0x62, 0xbe, 0xd0, 0xf1, 0xe0, 0xbd, 0xa1, 0x2e, 0xb3, 0x3d,
  0x3f, 0x56, 0x0b, 0x3d, 0x31, 0x5a, 0xa5, 0x3d, 0x3b, 0x84, 0xe8, 0xbd,
  0xdd, 0x13, 0x45, 0xbe, 0x45, 0x84, 0x6e, 0xbe, 0x6f, 0x2a, 0x6f, 0x3d,
  0xd0, 0x5c, 0xb1, 0x3e, 0x1c, 0x67, 0x3a, 0xbe, 0xe9, 0xa8, 0x44, 0x3c,
  0x51, 0x87, 0x25, 0x3d, 0x11, 0x03, 0x6b, 0x3e, 0xbb, 0x3e, 0x5e, 0xbe,
  0x06, 0x62, 0x04, 0x3d, 0xf2, 0x3b, 0x87, 0xbc, 0xb8, 0xc5, 0x9e, 0xbd,
  0x62, 0xee, 0x0e, 0x3e, 0x5e, 0x43, 0x73, 0x3d, 0x2c, 0x85, 0x03, 0x3d,
  0x82, 0xff, 0x94, 0xbe, 0xd3, 0x9a, 0x5d, 0xbe, 0x63, 0x05, 0x3d, 0xbd,
  0x60, 0x0c, 0xd6, 0x3d, 0xe6, 0x3d, 0x88, 0x3e, 0x7f, 0x28, 0x3a, 0xbd,
  0x9d, 0xf7, 0xaf, 0xbb, 0x4d, 0x43, 0x0f, 0xbd, 0x07, 0x36, 0x3d, 0xbd,
  0x4e, 0x29, 0xe2, 0xbd, 0xc0, 0x4e, 0x9d, 0x3d, 0xa7, 0x9e, 0xab, 0xbd,
  0xce, 0xaf, 0x8a, 0xbe, 0x93, 0x60, 0x8d, 0x3c, 0xd7, 0xd7, 0x4e, 0xbe,
  0xbb, 0xce, 0xb0, 0xbd, 0xbc, 0xa4, 0x2d, 0xbe, 0x8b, 0x06, 0x8b, 0x3d,
  0x28, 0x2e, 0xea, 0xbb, 0x90, 0xc6, 0x2d, 0xbe, 0xdc, 0x10, 0x1f, 0x3c,
  0xc0, 0x0f, 0x5f, 0xbe, 0x37, 0x05, 0xd1, 0xbd, 0x87, 0xbe, 0x94, 0xbb,
  0x76, 0xbf, 0x30, 0xbd, 0xee, 0x02, 0x21, 0x3e, 0x6c, 0x8a, 0x94, 0xbe,
  0x22, 0x77, 0x06, 0xbe, 0x8c, 0x43, 0x1f, 0xbe, 0x1f, 0xba, 0x48, 0xbe,
  0xf4, 0x14, 0x67, 0xbe, 0x8a, 0xa9, 0x45, 0x3e, 0xd0, 0x51, 0xef, 0x3d,
  0xc4, 0x0b, 0x06, 0xbd, 0xed, 0xed, 0x14, 0xbe, 0x58, 0x07, 0x94, 0x3b,
  0xb7, 0x1b, 0x63, 0xbe, 0x50, 0x34, 0x12, 0xbe, 0x06, 0xfc, 0x38, 0xbd,
  0xf0, 0x24, 0x22, 0xbe, 0xc0, 0x5a, 0x11, 0x3e, 0x05, 0xb0, 0x03, 0xbe,
  0xe0, 0x1e, 0xf4, 0xbd, 0x70, 0xb1, 0x2d, 0x3e, 0x14, 0xda, 0x42, 0xbe,
  0xfd, 0x90, 0xf1, 0xbd, 0x47, 0x88, 0x88, 0xbe, 0xe1, 0x8e, 0x5e, 0xbd,
  0x14, 0x05, 0x89, 0x3d, 0x95, 0x07, 0x5b, 0x3e, 0xa0, 0x72, 0xc7, 0x3c,
  0x93, 0xc7, 0xe3, 0xbc, 0x8d, 0x14, 0x12, 0x3e, 0x4e, 0xa4, 0x0e, 0xbd,
  0xb1, 0x4f, 0xe4, 0x3d, 0xb5, 0x44, 0xc3, 0x3d, 0x3b, 0x66, 0x92, 0xbe,
  0x52, 0xde, 0x7a, 0xbe, 0xf8, 0x44, 0xa1, 0x3d, 0x4a, 0xf3, 0xa4, 0xbd,
  0xa0, 0x09, 0x4c, 0xbd, 0x9b, 0xf5, 0x9f, 0xbe, 0x2e, 0xbb, 0x87, 0xbe,
  0x39, 0xc4, 0x5e, 0xbe, 0x7e, 0x5d, 0x80, 0xbe, 0x70, 0x2b, 0xf3, 0x3c,
  0x32, 0x5b, 0x28, 0xbe, 0x20, 0xb2, 0xc8, 0x3c, 0xf1, 0xcc, 0xb4, 0x3c,
  0x8e, 0x9e, 0xa5, 0xbd, 0x33, 0x46, 0x89, 0x3c, 0xf9, 0x46, 0x36, 0xbe,
  0x6b, 0xb5, 0xaa, 0xbe, 0xa4, 0x9a, 0x13, 0xbd, 0xaa, 0xc2, 0x58, 0x3e,
  0x5a, 0xe5, 0x2f, 0x3d, 0x0b, 0x6d, 0x2c, 0xbe, 0xe3, 0x9a, 0x29, 0xbe,
  0x25, 0xaa, 0xab, 0xbd, 0x2b, 0xda, 0xca, 0x3d, 0xbe, 0xaa, 0x19, 0x3d,
  0xd5, 0x01, 0xf6, 0x3d, 0x3c, 0x8e, 0x86, 0xbd, 0x38, 0x2e, 0xb4, 0xbd,
  0xc7, 0x3f, 0x1b, 0xbe, 0x68, 0xe2, 0x64, 0xbe, 0x71, 0xd8, 0x54, 0xbe,
  0x10, 0x3d, 0x53, 0xbd, 0x72, 0x34, 0x27, 0xbe, 0x5b, 0x0c, 0x3d, 0x3d,
  0xed, 0x48, 0xe5, 0x3d, 0x05, 0x71, 0x32, 0x3e, 0x56, 0x8b, 0x39, 0xbe,
  0x31, 0x94, 0xe4, 0xbd, 0x66, 0xa3, 0xd6, 0xbb, 0xc5, 0x90, 0x04, 0xbd,
  0xb3, 0x44, 0x30, 0x3e, 0xe5, 0x9e, 0x1a, 0xbe, 0xa5, 0xd0, 0xad, 0x3d,
  0xd0, 0x81, 0x2d, 0xbe, 0xaf, 0xc3, 0x00, 0x3d, 0xd6, 0xca, 0xf8, 0xbd,
  0x1f, 0x78, 0x43, 0x3e, 0x80, 0x0b, 0xbe, 0xbd, 0x61, 0x46, 0xe4, 0xbc,
  0xae, 0x01, 0x0e, 0x3d, 0x28, 0xaf, 0x96, 0xbd, 0xd4, 0x42, 0x73, 0x3e,
  0x37, 0x5c, 0xc4, 0xbc, 0x8b, 0x6d, 0xbb, 0x3d, 0x85, 0xed, 0x89, 0xbd,
  0x16, 0x5c, 0xfd, 0xbd, 0x66, 0x2e, 0x91, 0xbd, 0x73, 0x50, 0x29, 0xbe,
  0x07, 0x73, 0x51, 0x3e, 0xa6, 0x86, 0x51, 0x3e, 0x45, 0xb3, 0xb3, 0xbd,
  0x31, 0x24, 0x8d, 0x3d, 0x79, 0xb4, 0x80, 0x3e, 0x0e, 0xb0, 0xae, 0x3d,
  0x9f, 0xc3, 0xba, 0x3c, 0x82, 0xb9, 0xc7, 0xbd, 0x47, 0x3f, 0x11, 0x3d,
  0x3c, 0xf9, 0x0d, 0xbe, 0x62, 0xfd, 0xff, 0xff, 0x10, 0x00, 0x00, 0x00,
  0x07, 0x00, 0x00, 0x00, 0x14, 0x00, 0x00, 0x00, 0x2c, 0x00, 0x00, 0x00,
  0x02, 0x00, 0x00, 0x00, 0x10, 0x00, 0x00, 0x00, 0x70, 0x00, 0x00, 0x00,
  0x17, 0x00, 0x00, 0x00, 0x73, 0x65, 0x71, 0x75, 0x65, 0x6e, 0x74, 0x69,
  0x61, 0x6c, 0x2f, 0x64, 0x65, 0x6e, 0x73, 0x65, 0x2f, 0x4d, 0x61, 0x74,
  0x4d, 0x75, 0x6c, 0x00, 0xcc, 0xfc, 0xff, 0xff, 0xd6, 0xfd, 0xff, 0xff,
  0x04, 0x00, 0x00, 0x00, 0x08, 0x00, 0x00, 0x00, 0xff, 0xff, 0xff, 0xff,
  0x70, 0x00, 0x00, 0x00, 0x00, 0x00, 0x0e, 0x00, 0x18, 0x00, 0x08, 0x00,
  0x07, 0x00, 0x0c, 0x00, 0x10, 0x00, 0x14, 0x00, 0x0e, 0x00, 0x00, 0x00,
  0x00, 0x00, 0x00, 0x02, 0x10, 0x00, 0x00, 0x00, 0x06, 0x00, 0x00, 0x00,
  0x10, 0x00, 0x00, 0x00, 0x2c, 0x00, 0x00, 0x00, 0x01, 0x00, 0x00, 0x00,
  0x02, 0x00, 0x00, 0x00, 0x18, 0x00, 0x00, 0x00, 0x73, 0x65, 0x71, 0x75,
  0x65, 0x6e, 0x74, 0x69, 0x61, 0x6c, 0x2f, 0x66, 0x6c, 0x61, 0x74, 0x74,
  0x65, 0x6e, 0x2f, 0x43, 0x6f, 0x6e, 0x73, 0x74, 0x00, 0x00, 0x00, 0x00,
  0x34, 0xfd, 0xff, 0xff, 0x3e, 0xfe, 0xff, 0xff, 0x04, 0x00, 0x00, 0x00,
  0x10, 0x00, 0x00, 0x00, 0xb4, 0x9a, 0xf5, 0x3f, 0x32, 0xf3, 0x58, 0xc0,
  0xe6, 0xa8, 0x25, 0xc1, 0x48, 0xb1, 0xc2, 0x3e, 0x26, 0xfe, 0xff, 0xff,
  0x10, 0x00, 0x00, 0x00, 0x05, 0x00, 0x00, 0x00, 0x10, 0x00, 0x00, 0x00,
  0x44, 0x00, 0x00, 0x00, 0x01, 0x00, 0x00, 0x00, 0x04, 0x00, 0x00, 0x00,
  0x32, 0x00, 0x00, 0x00, 0x73, 0x65, 0x71, 0x75, 0x65, 0x6e, 0x74, 0x69,
  0x61, 0x6c, 0x2f, 0x64, 0x65, 0x6e, 0x73, 0x65, 0x5f, 0x31, 0x2f, 0x42,
  0x69, 0x61, 0x73, 0x41, 0x64, 0x64, 0x2f, 0x52, 0x65, 0x61, 0x64, 0x56,
  0x61, 0x72, 0x69, 0x61, 0x62, 0x6c, 0x65, 0x4f, 0x70, 0x2f, 0x72, 0x65,
  0x73, 0x6f, 0x75, 0x72, 0x63, 0x65, 0x00, 0x00, 0xa8, 0xfd, 0xff, 0xff,
  0xb2, 0xfe, 0xff, 0xff, 0x04, 0x00, 0x00, 0x00, 0x40, 0x00, 0x00, 0x00,
  0x03, 0x25, 0x9b, 0xbb, 0xaa, 0x8f, 0xf2, 0xbf, 0x8a, 0xc5, 0x74, 0xbe,
  0xc4, 0x47, 0x9b, 0xbf, 0xfc, 0xd4, 0x34, 0xbf, 0xa3, 0x85, 0x8b, 0xbb,
  0x93, 0x0a, 0x97, 0xbe, 0x7e, 0xcd, 0xb9, 0xbd, 0xc9, 0xf7, 0xfb, 0xbb,
  0xb7, 0x8a, 0x38, 0xbd, 0x70, 0xaf, 0xa2, 0xbb, 0xff, 0xc1, 0x81, 0xbe,
  0x62, 0x2d, 0x88, 0xbf, 0x96, 0x4c, 0x78, 0xbf, 0xd6, 0x5e, 0x6c, 0xbf,
  0x60, 0xfe, 0x28, 0xbe, 0xca, 0xfe, 0xff, 0xff, 0x10, 0x00, 0x00, 0x00,
  0x04, 0x00, 0x00, 0x00, 0x10, 0x00, 0x00, 0x00, 0x44, 0x00, 0x00, 0x00,
  0x01, 0x00, 0x00, 0x00, 0x10, 0x00, 0x00, 0x00, 0x30, 0x00, 0x00, 0x00,
  0x73, 0x65, 0x71, 0x75, 0x65, 0x6e, 0x74, 0x69, 0x61, 0x6c, 0x2f, 0x64,
  0x65, 0x6e, 0x73, 0x65, 0x2f, 0x42, 0x69, 0x61, 0x73, 0x41, 0x64, 0x64,
  0x2f, 0x52, 0x65, 0x61, 0x64, 0x56, 0x61, 0x72, 0x69, 0x61, 0x62, 0x6c,
  0x65, 0x4f, 0x70, 0x2f, 0x72, 0x65, 0x73, 0x6f, 0x75, 0x72, 0x63, 0x65,
  0x00, 0x00, 0x00, 0x00, 0x4c, 0xfe, 0xff, 0xff, 0x56, 0xff, 0xff, 0xff,
  0x04, 0x00, 0x00, 0x00, 0x40, 0x00, 0x00, 0x00, 0x09, 0x7d, 0x63, 0xbc,
  0x3b, 0x7a, 0x94, 0x3c, 0xd1, 0x4d, 0x0c, 0xc0, 0x98, 0xa0, 0xc0, 0xbd,
  0x3c, 0x0f, 0x8c, 0xbf, 0xbd, 0x05, 0xae, 0xbf, 0x2a, 0x5b, 0x94, 0xbf,
  0xa9, 0x7f, 0x0c, 0xc0, 0x18, 0x9c, 0xaf, 0xbf, 0x52, 0x34, 0xe7, 0xbe,
  0x3f, 0x08, 0x14, 0xbf, 0x31, 0xfe, 0x28, 0xbc, 0xe0, 0xac, 0x07, 0xc0,
  0xd7, 0x7f, 0xe5, 0xbd, 0xa4, 0xb8, 0x8c, 0x38, 0x90, 0x25, 0x4a, 0xbc,
  0x6e, 0xff, 0xff, 0xff, 0x10, 0x00, 0x00, 0x00, 0x03, 0x00, 0x00, 0x00,
  0x10, 0x00, 0x00, 0x00, 0x48, 0x00, 0x00, 0x00, 0x01, 0x00, 0x00, 0x00,
  0x10, 0x00, 0x00, 0x00, 0x33, 0x00, 0x00, 0x00, 0x73, 0x65, 0x71, 0x75,
  0x65, 0x6e, 0x74, 0x69, 0x61, 0x6c, 0x2f, 0x63, 0x6f, 0x6e, 0x76, 0x32,
  0x64, 0x5f, 0x31, 0x2f, 0x42, 0x69, 0x61, 0x73, 0x41, 0x64, 0x64, 0x2f,
  0x52, 0x65, 0x61, 0x64, 0x56, 0x61, 0x72, 0x69, 0x61, 0x62, 0x6c, 0x65,
  0x4f, 0x70, 0x2f, 0x72, 0x65, 0x73, 0x6f, 0x75, 0x72, 0x63, 0x65, 0x00,
  0x04, 0x00, 0x06, 0x00, 0x04, 0x00, 0x00, 0x00, 0x00, 0x00, 0x06, 0x00,
  0x08, 0x00, 0x04, 0x00, 0x06, 0x00, 0x00, 0x00, 0x04, 0x00, 0x00, 0x00,
  0x20, 0x00, 0x00, 0x00, 0xf9, 0x1e, 0xfd, 0xbf, 0xb2, 0x15, 0x1b, 0xc0,
  0x3f, 0xbc, 0xad, 0xbf, 0xd4, 0xe1, 0x40, 0xbf, 0x16, 0xec, 0x0b, 0xbf,
  0x92, 0x3e, 0x56, 0xc0, 0x16, 0x88, 0xb7, 0xbc, 0x2f, 0xf7, 0x0a, 0x3d,
  0x00, 0x00, 0x0e, 0x00, 0x14, 0x00, 0x04, 0x00, 0x00, 0x00, 0x08, 0x00,
  0x0c, 0x00, 0x10, 0x00, 0x0e, 0x00, 0x00, 0x00, 0x10, 0x00, 0x00, 0x00,
  0x02, 0x00, 0x00, 0x00, 0x10, 0x00, 0x00, 0x00, 0x44, 0x00, 0x00, 0x00,
  0x01, 0x00, 0x00, 0x00, 0x08, 0x00, 0x00, 0x00, 0x31, 0x00, 0x00, 0x00,
  0x73, 0x65, 0x71, 0x75, 0x65, 0x6e, 0x74, 0x69, 0x61, 0x6c, 0x2f, 0x63,
  0x6f, 0x6e, 0x76, 0x32, 0x64, 0x2f, 0x42, 0x69, 0x61, 0x73, 0x41, 0x64,
  0x64, 0x2f, 0x52, 0x65, 0x61, 0x64, 0x56, 0x61, 0x72, 0x69, 0x61, 0x62,
  0x6c, 0x65, 0x4f, 0x70, 0x2f, 0x72, 0x65, 0x73, 0x6f, 0x75, 0x72, 0x63,
  0x65, 0x00, 0x00, 0x00, 0x90, 0xff, 0xff, 0xff, 0x14, 0x00, 0x18, 0x00,
  0x04, 0x00, 0x00, 0x00, 0x08, 0x00, 0x0c, 0x00, 0x10, 0x00, 0x00, 0x00,
  0x00, 0x00, 0x14, 0x00, 0x14, 0x00, 0x00, 0x00, 0x14, 0x00, 0x00, 0x00,
  0x01, 0x00, 0x00, 0x00, 0x20, 0x00, 0x00, 0x00, 0x44, 0x00, 0x00, 0x00,
  0x2c, 0x00, 0x00, 0x00, 0x04, 0x00, 0x00, 0x00, 0x01, 0x00, 0x00, 0x00,
  0x40, 0x00, 0x00, 0x00, 0x03, 0x00, 0x00, 0x00, 0x01, 0x00, 0x00, 0x00,
  0x0c, 0x00, 0x00, 0x00, 0x63, 0x6f, 0x6e, 0x76, 0x32, 0x64, 0x5f, 0x69,
  0x6e, 0x70, 0x75, 0x74, 0x00, 0x00, 0x00, 0x00, 0x04, 0x00, 0x00, 0x00,
  0xff, 0xff, 0xff, 0xff, 0x40, 0x00, 0x00, 0x00, 0x03, 0x00, 0x00, 0x00,
  0x01, 0x00, 0x00, 0x00, 0xfc, 0xff, 0xff, 0xff, 0x04, 0x00, 0x04, 0x00,
  0x04, 0x00, 0x00, 0x00
};

unsigned int model_tflite_len = 13120;// Fill the int in `src/model.cc` here