#include "magic_wand_model_data.h"

// We need to keep the data array aligned on some architectures.
#ifdef __has_attribute
#define HAVE_ATTRIBUTE(x) __has_attribute(x)
#else
#define HAVE_ATTRIBUTE(x) 0
#endif
#if HAVE_ATTRIBUTE(aligned) || (defined(__GNUC__) && !defined(__clang__))
#define DATA_ALIGN_ATTRIBUTE __attribute__((aligned(4)))
#else
#define DATA_ALIGN_ATTRIBUTE
#endif

const unsigned char g_magic_wand_model_data[] DATA_ALIGN_ATTRIBUTE = {
  // Paste the data of the char array in `src/model.cc` here
  0x1c, 0x00, 0x00, 0x00, 0x54, 0x46, 0x4c, 0x33, 0x14, 0x00, 0x20, 0x00,
  0x04, 0x00, 0x08, 0x00, 0x0c, 0x00, 0x10, 0x00, 0x14, 0x00, 0x00, 0x00,
  0x18, 0x00, 0x1c, 0x00, 0x14, 0x00, 0x00, 0x00, 0x03, 0x00, 0x00, 0x00,
  0x18, 0x00, 0x00, 0x00, 0x2c, 0x00, 0x00, 0x00, 0xd8, 0x00, 0x00, 0x00,
  0x2c, 0x00, 0x00, 0x00, 0x80, 0x00, 0x00, 0x00, 0x78, 0x00, 0x00, 0x00,
  0x05, 0x00, 0x00, 0x00, 0x28, 0x07, 0x00, 0x00, 0x44, 0x06, 0x00, 0x00,
  0xbc, 0x03, 0x00, 0x00, 0xf8, 0x02, 0x00, 0x00, 0xac, 0x01, 0x00, 0x00,
  0x01, 0x00, 0x00, 0x00, 0xd0, 0x00, 0x00, 0x00, 0x14, 0x00, 0x00, 0x00,
  0x98, 0x32, 0x00, 0x00, 0x94, 0x32, 0x00, 0x00, 0x8c, 0x31, 0x00, 0x00,
  0xd8, 0x30, 0x00, 0x00, 0x30, 0x30, 0x00, 0x00, 0xbc, 0x2f, 0x00, 0x00,
  0x50, 0x2f, 0x00, 0x00, 0x00, 0x13, 0x00, 0x00, 0xec, 0x11, 0x00, 0x00,
  0x10, 0x10, 0x00, 0x00, 0xb4, 0x07, 0x00, 0x00, 0x6c, 0x32, 0x00, 0x00,
  0x68, 0x32, 0x00, 0x00, 0x64, 0x32, 0x00, 0x00, 0x60, 0x32, 0x00, 0x00,
  0x5c, 0x32, 0x00, 0x00, 0x58, 0x32, 0x00, 0x00, 0x54, 0x32, 0x00, 0x00,
  0x50, 0x32, 0x00, 0x00, 0x3c, 0x00, 0x00, 0x00, 0x00, 0x00, 0x00, 0x00,
  0x01, 0x00, 0x00, 0x00, 0x0c, 0x00, 0x00, 0x00, 0x08, 0x00, 0x0c, 0x00,
  0x04, 0x00, 0x08, 0x00, 0x08, 0x00, 0x00, 0x00, 0x08, 0x00, 0x00, 0x00,
  0x13, 0x00, 0x00, 0x00, 0x13, 0x00, 0x00, 0x00, 0x6d, 0x69, 0x6e, 0x5f,
  0x72, 0x75, 0x6e, 0x74, 0x69, 0x6d, 0x65, 0x5f, 0x76, 0x65, 0x72, 0x73,
  0x69, 0x6f, 0x6e, 0x00, 0xfa, 0xce, 0xff, 0xff, 0x04, 0x00, 0x00, 0x00,
  0x10, 0x00, 0x00, 0x00, 0x31, 0x2e, 0x35, 0x2e, 0x30, 0x00, 0x00, 0x00,
  0x00, 0x00, 0x00, 0x00, 0x00, 0x00, 0x00, 0x00, 0x0f, 0x00, 0x00, 0x00,
  0x4d, 0x4c, 0x49, 0x52, 0x20, 0x43, 0x6f, 0x6e, 0x76, 0x65, 0x72, 0x74,
  0x65, 0x64, 0x2e, 0x00, 0x00, 0x00, 0x0e, 0x00, 0x18, 0x00, 0x04, 0x00,
  0x08, 0x00, 0x0c, 0x00, 0x10, 0x00, 0x14, 0x00, 0x0e, 0x00, 0x00, 0x00,
  0x14, 0x00, 0x00, 0x00, 0x5c, 0x00, 0x00, 0x00, 0x60, 0x00, 0x00, 0x00,
  0x64, 0x00, 0x00, 0x00, 0x84, 0x00, 0x00, 0x00, 0x12, 0x00, 0x00, 0x00,
  0x58, 0x31, 0x00, 0x00, 0xe8, 0x30, 0x00, 0x00, 0x44, 0x30, 0x00, 0x00,
  0x9c, 0x2f, 0x00, 0x00, 0xf4, 0x2e, 0x00, 0x00, 0x94, 0x2e, 0x00, 0x00,
  0x2c, 0x2e, 0x00, 0x00, 0xd8, 0x11, 0x00, 0x00, 0xbc, 0x10, 0x00, 0x00,
  0xe0, 0x0e, 0x00, 0x00, 0x0c, 0x06, 0x00, 0x00, 0x28, 0x05, 0x00, 0x00,
  0xe8, 0x03, 0x00, 0x00, 0x3c, 0x03, 0x00, 0x00, 0x98, 0x02, 0x00, 0x00,
  0xd4, 0x01, 0x00, 0x00, 0x10, 0x01, 0x00, 0x00, 0x84, 0x00, 0x00, 0x00,
  0x01, 0x00, 0x00, 0x00, 0x00, 0x00, 0x00, 0x00, 0x01, 0x00, 0x00, 0x00,
  0x11, 0x00, 0x00, 0x00, 0x08, 0x00, 0x00, 0x00, 0x74, 0x05, 0x00, 0x00,
  0x94, 0x04, 0x00, 0x00, 0x78, 0x03, 0x00, 0x00, 0xbc, 0x02, 0x00, 0x00,
  0x30, 0x02, 0x00, 0x00, 0x50, 0x01, 0x00, 0x00, 0xa8, 0x00, 0x00, 0x00,
  0x10, 0x00, 0x00, 0x00, 0x04, 0x00, 0x00, 0x00, 0x6d, 0x61, 0x69, 0x6e,
  0x00, 0x00, 0x00, 0x00, 0x7a, 0xff, 0xff, 0xff, 0x00, 0x00, 0x00, 0x09,
  0x04, 0x00, 0x00, 0x00, 0x1c, 0x00, 0x00, 0x00, 0x10, 0x00, 0x00, 0x00,
  0x04, 0x00, 0x00, 0x00, 0xf6, 0xcf, 0xff, 0xff, 0x00, 0x00, 0x80, 0x3f,
  0x01, 0x00, 0x00, 0x00, 0x11, 0x00, 0x00, 0x00, 0x01, 0x00, 0x00, 0x00,
  0x10, 0x00, 0x00, 0x00, 0xa0, 0xfa, 0xff, 0xff, 0x19, 0x00, 0x00, 0x00,
  0x00, 0x00, 0x00, 0x19, 0x01, 0x00, 0x00, 0x00, 0x84, 0xcf, 0xff, 0xff,
  0x14, 0x00, 0x00, 0x00, 0x12, 0x00, 0x00, 0x00, 0x18, 0x00, 0x00, 0x00,
  0x30, 0x00, 0x00, 0x00, 0x20, 0x00, 0x00, 0x00, 0x02, 0x00, 0x00, 0x00,
  0x01, 0x00, 0x00, 0x00, 0x03, 0x00, 0x00, 0x00, 0x08, 0x00, 0x00, 0x00,
  0x49, 0x64, 0x65, 0x6e, 0x74, 0x69, 0x74, 0x79, 0x00, 0x00, 0x00, 0x00,
  0x02, 0x00, 0x00, 0x00, 0xff, 0xff, 0xff, 0xff, 0x03, 0x00, 0x00, 0x00,
  0x68, 0xd0, 0xff, 0xff, 0x00, 0x00, 0x0e, 0x00, 0x18, 0x00, 0x08, 0x00,
  0x0c, 0x00, 0x10, 0x00, 0x07, 0x00, 0x14, 0x00, 0x0e, 0x00, 0x00, 0x00,
  0x00, 0x00, 0x00, 0x08, 0x03, 0x00, 0x00, 0x00, 0x18, 0x00, 0x00, 0x00,
  0x0c, 0x00, 0x00, 0x00, 0x04, 0x00, 0x00, 0x00, 0x84, 0xcf, 0xff, 0xff,
  0x01, 0x00, 0x00, 0x00, 0x10, 0x00, 0x00, 0x00, 0x03, 0x00, 0x00, 0x00,
  0x0f, 0x00, 0x00, 0x00, 0x07, 0x00, 0x00, 0x00, 0x04, 0x00, 0x00, 0x00,
  0x0c, 0xd0, 0xff, 0xff, 0x14, 0x00, 0x00, 0x00, 0x11, 0x00, 0x00, 0x00,
  0x18, 0x00, 0x00, 0x00, 0x5c, 0x00, 0x00, 0x00, 0x4c, 0x00, 0x00, 0x00,
  0x02, 0x00, 0x00, 0x00, 0x01, 0x00, 0x00, 0x00, 0x03, 0x00, 0x00, 0x00,
  0x34, 0x00, 0x00, 0x00, 0x73, 0x65, 0x71, 0x75, 0x65, 0x6e, 0x74, 0x69,
  0x61, 0x6c, 0x2f, 0x64, 0x65, 0x6e, 0x73, 0x65, 0x5f, 0x31, 0x2f, 0x4d,
  0x61, 0x74, 0x4d, 0x75, 0x6c, 0x3b, 0x73, 0x65, 0x71, 0x75, 0x65, 0x6e,
  0x74, 0x69, 0x61, 0x6c, 0x2f, 0x64, 0x65, 0x6e, 0x73, 0x65, 0x5f, 0x31,
  0x2f, 0x42, 0x69, 0x61, 0x73, 0x41, 0x64, 0x64, 0x00, 0x00, 0x00, 0x00,
  0x02, 0x00, 0x00, 0x00, 0xff, 0xff, 0xff, 0xff, 0x03, 0x00, 0x00, 0x00,
  0x0c, 0xd0, 0xff, 0xff, 0xda, 0xfc, 0xff, 0xff, 0x00, 0x00, 0x00, 0x08,
  0x03, 0x00, 0x00, 0x00, 0x24, 0x00, 0x00, 0x00, 0x18, 0x00, 0x00, 0x00,
  0x0c, 0x00, 0x00, 0x00, 0x00, 0x00, 0x06, 0x00, 0x08, 0x00, 0x07, 0x00,
  0x06, 0x00, 0x00, 0x00, 0x00, 0x00, 0x00, 0x01, 0x01, 0x00, 0x00, 0x00,
  0x0f, 0x00, 0x00, 0x00, 0x03, 0x00, 0x00, 0x00, 0x0e, 0x00, 0x00, 0x00,
  0x06, 0x00, 0x00, 0x00, 0x03, 0x00, 0x00, 0x00, 0xe8, 0xfb, 0xff, 0xff,
  0x09, 0x00, 0x00, 0x00, 0x00, 0x00, 0x00, 0x09, 0x01, 0x00, 0x00, 0x00,
  0xcc, 0xd0, 0xff, 0xff, 0x14, 0x00, 0x00, 0x00, 0x10, 0x00, 0x00, 0x00,
  0x18, 0x00, 0x00, 0x00, 0x6c, 0x00, 0x00, 0x00, 0x5c, 0x00, 0x00, 0x00,
  0x02, 0x00, 0x00, 0x00, 0x01, 0x00, 0x00, 0x00, 0x10, 0x00, 0x00, 0x00,
  0x46, 0x00, 0x00, 0x00, 0x73, 0x65, 0x71, 0x75, 0x65, 0x6e, 0x74, 0x69,
  0x61, 0x6c, 0x2f, 0x64, 0x65, 0x6e, 0x73, 0x65, 0x2f, 0x4d, 0x61, 0x74,
  0x4d, 0x75, 0x6c, 0x3b, 0x73, 0x65, 0x71, 0x75, 0x65, 0x6e, 0x74, 0x69,
  0x61, 0x6c, 0x2f, 0x64, 0x65, 0x6e, 0x73, 0x65, 0x2f, 0x52, 0x65, 0x6c,
  0x75, 0x3b, 0x73, 0x65, 0x71, 0x75, 0x65, 0x6e, 0x74, 0x69, 0x61, 0x6c,
  0x2f, 0x64, 0x65, 0x6e, 0x73, 0x65, 0x2f, 0x42, 0x69, 0x61, 0x73, 0x41,
  0x64, 0x64, 0x00, 0x00, 0x02, 0x00, 0x00, 0x00, 0xff, 0xff, 0xff, 0xff,
  0x10, 0x00, 0x00, 0x00, 0xec, 0xd1, 0xff, 0xff, 0x00, 0x00, 0x0a, 0x00,
  0x10, 0x00, 0x04, 0x00, 0x08, 0x00, 0x0c, 0x00, 0x0a, 0x00, 0x00, 0x00,
  0x02, 0x00, 0x00, 0x00, 0x10, 0x00, 0x00, 0x00, 0x04, 0x00, 0x00, 0x00,
  0x01, 0x00, 0x00, 0x00, 0x0e, 0x00, 0x00, 0x00, 0x02, 0x00, 0x00, 0x00,
  0x0d, 0x00, 0x00, 0x00, 0x05, 0x00, 0x00, 0x00, 0xa8, 0xfc, 0xff, 0xff,
  0x16, 0x00, 0x00, 0x00, 0x00, 0x00, 0x00, 0x16, 0x01, 0x00, 0x00, 0x00,
  0x8c, 0xd1, 0xff, 0xff, 0x14, 0x00, 0x00, 0x00, 0x0f, 0x00, 0x00, 0x00,
  0x18, 0x00, 0x00, 0x00, 0x40, 0x00, 0x00, 0x00, 0x30, 0x00, 0x00, 0x00,
  0x02, 0x00, 0x00, 0x00, 0x01, 0x00, 0x00, 0x00, 0x70, 0x00, 0x00, 0x00,
  0x1a, 0x00, 0x00, 0x00, 0x73, 0x65, 0x71, 0x75, 0x65, 0x6e, 0x74, 0x69,
  0x61, 0x6c, 0x2f, 0x66, 0x6c, 0x61, 0x74, 0x74, 0x65, 0x6e, 0x2f, 0x52,
  0x65, 0x73, 0x68, 0x61, 0x70, 0x65, 0x00, 0x00, 0x02, 0x00, 0x00, 0x00,
  0xff, 0xff, 0xff, 0xff, 0x70, 0x00, 0x00, 0x00, 0x70, 0xd1, 0xff, 0xff,
  0x3e, 0xfe, 0xff, 0xff, 0x00, 0x00, 0x00, 0x05, 0x01, 0x00, 0x00, 0x00,
  0x38, 0x00, 0x00, 0x00, 0x2c, 0x00, 0x00, 0x00, 0x14, 0x00, 0x00, 0x00,
  0x00, 0x00, 0x0e, 0x00, 0x14, 0x00, 0x00, 0x00, 0x10, 0x00, 0x0c, 0x00,
  0x08, 0x00, 0x04, 0x00, 0x0e, 0x00, 0x00, 0x00, 0x03, 0x00, 0x00, 0x00,
  0x01, 0x00, 0x00, 0x00, 0x03, 0x00, 0x00, 0x00, 0x01, 0x00, 0x00, 0x00,
  0x01, 0x00, 0x00, 0x00, 0x0d, 0x00, 0x00, 0x00, 0x01, 0x00, 0x00, 0x00,
  0x0c, 0x00, 0x00, 0x00, 0x2c, 0xd2, 0xff, 0xff, 0x14, 0x00, 0x00, 0x00,
  0x0e, 0x00, 0x00, 0x00, 0x20, 0x00, 0x00, 0x00, 0x58, 0x00, 0x00, 0x00,
  0x40, 0x00, 0x00, 0x00, 0x04, 0x00, 0x00, 0x00, 0x01, 0x00, 0x00, 0x00,
  0x07, 0x00, 0x00, 0x00, 0x01, 0x00, 0x00, 0x00, 0x10, 0x00, 0x00, 0x00,
  0x22, 0x00, 0x00, 0x00, 0x73, 0x65, 0x71, 0x75, 0x65, 0x6e, 0x74, 0x69,
  0x61, 0x6c, 0x2f, 0x6d, 0x61, 0x78, 0x5f, 0x70, 0x6f, 0x6f, 0x6c, 0x69,
  0x6e, 0x67, 0x32, 0x64, 0x5f, 0x31, 0x2f, 0x4d, 0x61, 0x78, 0x50, 0x6f,
  0x6f, 0x6c, 0x00, 0x00, 0x04, 0x00, 0x00, 0x00, 0xff, 0xff, 0xff, 0xff,
  0x07, 0x00, 0x00, 0x00, 0x01, 0x00, 0x00, 0x00, 0x10, 0x00, 0x00, 0x00,
  0x28, 0xd2, 0xff, 0xff, 0x1a, 0xfe, 0xff, 0xff, 0x00, 0x00, 0x00, 0x01,
  0x24, 0x00, 0x00, 0x00, 0x18, 0x00, 0x00, 0x00, 0x04, 0x00, 0x00, 0x00,
  0x0c, 0xfe, 0xff, 0xff, 0x01, 0x00, 0x00, 0x00, 0x01, 0x00, 0x00, 0x00,
  0x00, 0x00, 0x00, 0x01, 0x01, 0x00, 0x00, 0x00, 0x0c, 0x00, 0x00, 0x00,
  0x03, 0x00, 0x00, 0x00, 0x0b, 0x00, 0x00, 0x00, 0x09, 0x00, 0x00, 0x00,
  0x02, 0x00, 0x00, 0x00, 0xd4, 0xd2, 0xff, 0xff, 0x14, 0x00, 0x00, 0x00,
  0x0d, 0x00, 0x00, 0x00, 0x20, 0x00, 0x00, 0x00, 0xb8, 0x00, 0x00, 0x00,
  0xa0, 0x00, 0x00, 0x00, 0x04, 0x00, 0x00, 0x00, 0x01, 0x00, 0x00, 0x00,
  0x15, 0x00, 0x00, 0x00, 0x01, 0x00, 0x00, 0x00, 0x10, 0x00, 0x00, 0x00,
  0x83, 0x00, 0x00, 0x00, 0x73, 0x65, 0x71, 0x75, 0x65, 0x6e, 0x74, 0x69,
  0x61, 0x6c, 0x2f, 0x63, 0x6f, 0x6e, 0x76, 0x32, 0x64, 0x5f, 0x31, 0x2f,
  0x52, 0x65, 0x6c, 0x75, 0x3b, 0x73, 0x65, 0x71, 0x75, 0x65, 0x6e, 0x74,
  0x69, 0x61, 0x6c, 0x2f, 0x63, 0x6f, 0x6e, 0x76, 0x32, 0x64, 0x5f, 0x31,
  0x2f, 0x42, 0x69, 0x61, 0x73, 0x41, 0x64, 0x64, 0x3b, 0x73, 0x65, 0x71,
  0x75, 0x65, 0x6e, 0x74, 0x69, 0x61, 0x6c, 0x2f, 0x63, 0x6f, 0x6e, 0x76,
  0x32, 0x64, 0x5f, 0x31, 0x2f, 0x43, 0x6f, 0x6e, 0x76, 0x32, 0x44, 0x3b,
  0x73, 0x65, 0x71, 0x75, 0x65, 0x6e, 0x74, 0x69, 0x61, 0x6c, 0x2f, 0x63,
  0x6f, 0x6e, 0x76, 0x32, 0x64, 0x5f, 0x31, 0x2f, 0x42, 0x69, 0x61, 0x73,
  0x41, 0x64, 0x64, 0x2f, 0x52, 0x65, 0x61, 0x64, 0x56, 0x61, 0x72, 0x69,
  0x61, 0x62, 0x6c, 0x65, 0x4f, 0x70, 0x2f, 0x72, 0x65, 0x73, 0x6f, 0x75,
  0x72, 0x63, 0x65, 0x00, 0x04, 0x00, 0x00, 0x00, 0xff, 0xff, 0xff, 0xff,
  0x15, 0x00, 0x00, 0x00, 0x01, 0x00, 0x00, 0x00, 0x10, 0x00, 0x00, 0x00,
  0x40, 0xd4, 0xff, 0xff, 0x00, 0x00, 0x0e, 0x00, 0x1a, 0x00, 0x08, 0x00,
  0x0c, 0x00, 0x10, 0x00, 0x07, 0x00, 0x14, 0x00, 0x0e, 0x00, 0x00, 0x00,
  0x00, 0x00, 0x00, 0x05, 0x01, 0x00, 0x00, 0x00, 0x3c, 0x00, 0x00, 0x00,
  0x30, 0x00, 0x00, 0x00, 0x14, 0x00, 0x00, 0x00, 0x00, 0x00, 0x0e, 0x00,
  0x18, 0x00, 0x17, 0x00, 0x10, 0x00, 0x0c, 0x00, 0x08, 0x00, 0x04, 0x00,
  0x0e, 0x00, 0x00, 0x00, 0x03, 0x00, 0x00, 0x00, 0x03, 0x00, 0x00, 0x00,
  0x03, 0x00, 0x00, 0x00, 0x03, 0x00, 0x00, 0x00, 0x00, 0x00, 0x00, 0x01,
  0x01, 0x00, 0x00, 0x00, 0x0b, 0x00, 0x00, 0x00, 0x01, 0x00, 0x00, 0x00,
  0x0a, 0x00, 0x00, 0x00, 0x2c, 0xff, 0xff, 0xff, 0x11, 0x00, 0x00, 0x00,
  0x00, 0x00, 0x00, 0x11, 0x01, 0x00, 0x00, 0x00, 0x10, 0xd4, 0xff, 0xff,
  0x14, 0x00, 0x00, 0x00, 0x0c, 0x00, 0x00, 0x00, 0x20, 0x00, 0x00, 0x00,
  0x58, 0x00, 0x00, 0x00, 0x40, 0x00, 0x00, 0x00, 0x04, 0x00, 0x00, 0x00,
  0x01, 0x00, 0x00, 0x00, 0x15, 0x00, 0x00, 0x00, 0x01, 0x00, 0x00, 0x00,
  0x08, 0x00, 0x00, 0x00, 0x20, 0x00, 0x00, 0x00, 0x73, 0x65, 0x71, 0x75,
  0x65, 0x6e, 0x74, 0x69, 0x61, 0x6c, 0x2f, 0x6d, 0x61, 0x78, 0x5f, 0x70,
  0x6f, 0x6f, 0x6c, 0x69, 0x6e, 0x67, 0x32, 0x64, 0x2f, 0x4d, 0x61, 0x78,
  0x50, 0x6f, 0x6f, 0x6c, 0x00, 0x00, 0x00, 0x00, 0x04, 0x00, 0x00, 0x00,
  0xff, 0xff, 0xff, 0xff, 0x15, 0x00, 0x00, 0x00, 0x01, 0x00, 0x00, 0x00,
  0x08, 0x00, 0x00, 0x00, 0x1c, 0xd5, 0xff, 0xff, 0x00, 0x00, 0x0e, 0x00,
  0x14, 0x00, 0x00, 0x00, 0x08, 0x00, 0x0c, 0x00, 0x07, 0x00, 0x10, 0x00,
  0x0e, 0x00, 0x00, 0x00, 0x00, 0x00, 0x00, 0x01, 0x30, 0x00, 0x00, 0x00,
  0x24, 0x00, 0x00, 0x00, 0x10, 0x00, 0x00, 0x00, 0x0c, 0x00, 0x10, 0x00,
  0x00, 0x00, 0x04, 0x00, 0x08, 0x00, 0x0f, 0x00, 0x0c, 0x00, 0x00, 0x00,
  0x01, 0x00, 0x00, 0x00, 0x01, 0x00, 0x00, 0x00, 0x00, 0x00, 0x00, 0x01,
  0x01, 0x00, 0x00, 0x00, 0x0a, 0x00, 0x00, 0x00, 0x03, 0x00, 0x00, 0x00,
  0x00, 0x00, 0x00, 0x00, 0x08, 0x00, 0x00, 0x00, 0x01, 0x00, 0x00, 0x00,
  0x0c, 0x00, 0x10, 0x00, 0x0b, 0x00, 0x00, 0x00, 0x0c, 0x00, 0x04, 0x00,
  0x0c, 0x00, 0x00, 0x00, 0x03, 0x00, 0x00, 0x00, 0x00, 0x00, 0x00, 0x03,
  0x01, 0x00, 0x00, 0x00, 0xf0, 0xd4, 0xff, 0xff, 0x14, 0x00, 0x00, 0x00,
  0x0b, 0x00, 0x00, 0x00, 0x20, 0x00, 0x00, 0x00, 0xb0, 0x00, 0x00, 0x00,
  0x98, 0x00, 0x00, 0x00, 0x04, 0x00, 0x00, 0x00, 0x01, 0x00, 0x00, 0x00,
  0x40, 0x00, 0x00, 0x00, 0x03, 0x00, 0x00, 0x00, 0x08, 0x00, 0x00, 0x00,
  0x7b, 0x00, 0x00, 0x00, 0x73, 0x65, 0x71, 0x75, 0x65, 0x6e, 0x74, 0x69,
  0x61, 0x6c, 0x2f, 0x63, 0x6f, 0x6e, 0x76, 0x32, 0x64, 0x2f, 0x52, 0x65,
  0x6c, 0x75, 0x3b, 0x73, 0x65, 0x71, 0x75, 0x65, 0x6e, 0x74, 0x69, 0x61,
  0x6c, 0x2f, 0x63, 0x6f, 0x6e, 0x76, 0x32, 0x64, 0x2f, 0x42, 0x69, 0x61,
  0x73, 0x41, 0x64, 0x64, 0x3b, 0x73, 0x65, 0x71, 0x75, 0x65, 0x6e, 0x74,
  0x69, 0x61, 0x6c, 0x2f, 0x63, 0x6f, 0x6e, 0x76, 0x32, 0x64, 0x2f, 0x43,
  0x6f, 0x6e, 0x76, 0x32, 0x44, 0x3b, 0x73, 0x65, 0x71, 0x75, 0x65, 0x6e,
  0x74, 0x69, 0x61, 0x6c, 0x2f, 0x63, 0x6f, 0x6e, 0x76, 0x32, 0x64, 0x2f,
  0x42, 0x69, 0x61, 0x73, 0x41, 0x64, 0x64, 0x2f, 0x52, 0x65, 0x61, 0x64,
  0x56, 0x61, 0x72, 0x69, 0x61, 0x62, 0x6c, 0x65, 0x4f, 0x70, 0x2f, 0x72,
  0x65, 0x73, 0x6f, 0x75, 0x72, 0x63, 0x65, 0x00, 0x04, 0x00, 0x00, 0x00,
  0xff, 0xff, 0xff, 0xff, 0x40, 0x00, 0x00, 0x00, 0x03, 0x00, 0x00, 0x00,
  0x08, 0x00, 0x00, 0x00, 0x44, 0xd5, 0xff, 0xff, 0x4e, 0xd6, 0xff, 0xff,
  0x04, 0x00, 0x00, 0x00, 0x00, 0x08, 0x00, 0x00, 0x1e, 0xad, 0x88, 0xbd,
  0x9b, 0x5e, 0x2d, 0xbe, 0x04, 0x79, 0xea, 0xbd, 0xb5, 0x6a, 0xb5, 0xbd,
  0x8f, 0x45, 0xce, 0xbd, 0xb5, 0xfc, 0x8d, 0xbe, 0x8a, 0x8b, 0x06, 0xbe,
  0xda, 0xc1, 0xbb, 0xbe, 0x22, 0xc3, 0xb9, 0x3e, 0x0a, 0x97, 0x1e, 0xbe,
  0x5e, 0xc9, 0xb9, 0x3d, 0x2b, 0xc5, 0x05, 0xbd, 0xb7, 0xb4, 0xb1, 0xbd,
  0x03, 0xe3, 0x9a, 0x3e, 0xd0, 0xb9, 0x7d, 0x3c, 0x3c, 0x1b, 0x01, 0xbe,
  0x31, 0x84, 0x08, 0xbe, 0xf6, 0xc4, 0x0e, 0xbe, 0xa7, 0x29, 0x02, 0x3d,
  0xc1, 0xe6, 0xad, 0xbe, 0x6b, 0x26, 0xb0, 0xbd, 0x71, 0xd2, 0xe7, 0xbd,
  0x31, 0x53, 0xab, 0xbd, 0x98, 0x30, 0xe5, 0xbd, 0xdd, 0xfc, 0x18, 0x3b,
  0x21, 0xbc, 0x6c, 0xbe, 0x9b, 0xec, 0x20, 0x3e, 0x1c, 0x59, 0x92, 0xbd,
  0x88, 0x68, 0x10, 0x3d, 0x2f, 0x05, 0x04, 0x3e, 0xa4, 0x38, 0xaf, 0x3d,
  0x62, 0xbf, 0x85, 0xbd, 0xd1, 0xe3, 0xfd, 0xbd, 0x6b, 0xca, 0x70, 0xbe,
  0xdf, 0xec, 0x51, 0x3b, 0x0e, 0xbf, 0xeb, 0x3e, 0x4f, 0xc5, 0xb2, 0x3c,
  0xd7, 0x75, 0xd9, 0xbe, 0x43, 0x92, 0xae, 0x3d, 0x20, 0x28, 0x15, 0xbe,
  0x3c, 0xa7, 0xb7, 0x3c, 0x60, 0xd8, 0xf8, 0xbe, 0x41, 0x1e, 0xf9, 0x3e,
  0x92, 0xc7, 0xa1, 0x3e, 0xc5, 0x9e, 0x6d, 0x3e, 0xd2, 0x44, 0xc9, 0xbe,
  0x4e, 0x1a, 0xcd, 0x3e, 0x74, 0x7a, 0x20, 0xbe, 0xfc, 0x5d, 0x54, 0x3d,
  0xec, 0x2d, 0x25, 0xbe, 0xdb, 0x08, 0x16, 0xbd, 0x4e, 0x36, 0x0b, 0x3e,
  0x84, 0xcb, 0x06, 0x3e, 0xeb, 0x60, 0x95, 0xbe, 0x30, 0xd9, 0x37, 0xbd,
  0x94, 0x20, 0x69, 0xbe, 0xe8, 0x2d, 0x8c, 0xbd, 0xe7, 0xa4, 0x03, 0x3d,
  0xfc, 0xd2, 0x12, 0xbe, 0xe8, 0xa5, 0x5f, 0x3e, 0xf6, 0x1c, 0x7f, 0x3e,
  0x38, 0xdd, 0x68, 0xbe, 0x29, 0x12, 0xda, 0x3e, 0x61, 0x08, 0x7a, 0xbe,
  0xc7, 0x79, 0x99, 0x3d, 0x1d, 0x8e, 0xa9, 0xbd, 0x7d, 0x9b, 0xdc, 0x3d,
  0xb7, 0xc7, 0x96, 0x3d, 0x7c, 0x52, 0x4a, 0xbe, 0xe5, 0x5e, 0xbf, 0xbe,
  0xba, 0x58, 0x5b, 0xbe, 0x07, 0x84, 0x93, 0xbe, 0xb8, 0x96, 0xab, 0x3d,
  0x16, 0xe6, 0x25, 0x3e, 0x9a, 0xcc, 0x84, 0x3d, 0x1f, 0xee, 0xac, 0xbd,
  0x70, 0x98, 0xbd, 0xbd, 0x53, 0xca, 0xa3, 0x3c, 0x09, 0x09, 0x46, 0xbe,
  0xf5, 0xa2, 0xec, 0xbe, 0x3f, 0xab, 0x82, 0xbd, 0x9a, 0xcb, 0xc5, 0x3a,
  0x59, 0x26, 0x2d, 0x3e, 0x32, 0x1a, 0x9b, 0xbd, 0xec, 0xf4, 0x4e, 0xbc,
  0xc9, 0xe6, 0x85, 0x3d, 0xe4, 0x7d, 0x8d, 0xbe, 0x6d, 0xd6, 0xd4, 0xbe,
  0x87, 0x36, 0x27, 0x3c, 0x37, 0xc1, 0x81, 0x3e, 0x12, 0x7b, 0x3c, 0xbd,
  0xa7, 0x4b, 0x9d, 0x3e, 0x8b, 0xb9, 0x46, 0x3d, 0xe4, 0x0a, 0xad, 0x3c,
  0xad, 0x69, 0x2d, 0xbe, 0x39, 0xab, 0xa3, 0xbe, 0xb8, 0xba, 0xbd, 0x3d,
  0x0c, 0xa2, 0x9f, 0xbd, 0xd5, 0x86, 0x9c, 0xbd, 0x53, 0x6f, 0xae, 0x3c,
  0x4b, 0xf5, 0x90, 0xbc, 0xb2, 0xb1, 0xaf, 0xbc, 0x38, 0x41, 0xf7, 0xbd,
  0x17, 0x28, 0xed, 0xbb, 0x7e, 0x4b, 0x5b, 0x3d, 0xa7, 0x0a, 0xb2, 0xbc,
  0x0e, 0x05, 0x5a, 0xbc, 0x80, 0x55, 0xa1, 0x3d, 0xc3, 0xcc, 0xc3, 0x3c,
  0x2a, 0xca, 0x8e, 0x3d, 0x13, 0x81, 0x54, 0x3b, 0x59, 0x7f, 0xf4, 0xbb,
  0x86, 0x77, 0x2a, 0x3d, 0xdc, 0x73, 0xc5, 0x3c, 0x64, 0x45, 0x94, 0x3e,
  0xe9, 0x38, 0xad, 0x3b, 0xca, 0xb2, 0x28, 0xbd, 0x2a, 0x39, 0x10, 0x3e,
  0xbe, 0x42, 0xa9, 0x3c, 0xf0, 0xc1, 0x02, 0x3d, 0x77, 0x90, 0x2c, 0x3c,
  0x13, 0x06, 0x93, 0x3e, 0x50, 0x0a, 0xa3, 0xbc, 0xe8, 0x7f, 0x7c, 0xbd,
  0x0f, 0x34, 0x3e, 0x3e, 0x7a, 0x9e, 0xa3, 0xbb, 0x28, 0x79, 0x34, 0x3d,
  0x71, 0xf7, 0x4b, 0x3d, 0x2f, 0xcb, 0xab, 0x3d, 0x03, 0x2d, 0x68, 0x3e,
  0x7f, 0xe4, 0x5a, 0xbe, 0x66, 0xad, 0x35, 0x3f, 0x62, 0x7d, 0xbe, 0xbd,
  0x3b, 0xee, 0x81, 0x3e, 0x8b, 0xcd, 0x9e, 0x3e, 0x71, 0x6f, 0x35, 0xbe,
  0x89, 0xe1, 0x59, 0xbd, 0xa8, 0x02, 0x3e, 0xbd, 0x4e, 0xe8, 0x63, 0xbe,
  0x54, 0xa7, 0x08, 0xbe, 0x13, 0x56, 0x86, 0xbe, 0xe9, 0x51, 0x30, 0x3c,
  0x1c, 0x0d, 0xcf, 0x3d, 0xb1, 0xfe, 0x58, 0xbe, 0x77, 0x57, 0x8f, 0xbe,
  0x96, 0x8a, 0x31, 0xbe, 0x74, 0xf1, 0x3e, 0xbd, 0x0c, 0xd1, 0x46, 0xbe,
  0xa2, 0xa5, 0xdc, 0xbd, 0x1c, 0x76, 0xe1, 0xbc, 0xdf, 0x07, 0x67, 0x3e,
  0xcf, 0x77, 0xb6, 0xbd, 0xbc, 0xc4, 0xc2, 0xbe, 0x4a, 0x6e, 0x52, 0xbe,
  0xa6, 0x43, 0x3b, 0xbc, 0x0b, 0xa8, 0xba, 0xbe, 0x4d, 0xf4, 0x19, 0xbe,
  0xbb, 0x62, 0x00, 0xbe, 0xe4, 0x04, 0x53, 0x3e, 0x3d, 0xc1, 0x16, 0x3d,
  0x9a, 0xe6, 0x9a, 0xbd, 0xae, 0x8e, 0xa4, 0xbd, 0xd8, 0x35, 0x68, 0x3d,
  0xb2, 0xdb, 0x11, 0x3d, 0x9f, 0x4d, 0x95, 0xbc, 0xf9, 0xb7, 0x6d, 0xbd,
  0x72, 0x8c, 0x4f, 0xbd, 0x9b, 0xb4, 0x8a, 0xbb, 0xe8, 0xa5, 0xa9, 0xbd,
  0xd9, 0x48, 0x82, 0x3d, 0xe5, 0x6c, 0xa0, 0xbc, 0x38, 0x10, 0x02, 0x3e,
  0x60, 0x7b, 0x2b, 0xbd, 0x70, 0xc0, 0x59, 0xbd, 0x89, 0x13, 0x16, 0x3e,
  0xd8, 0x0e, 0x35, 0xbd, 0x82, 0x04, 0x1d, 0x3f, 0x94, 0xb6, 0xda, 0x3b,
  0x05, 0xb2, 0x6a, 0xbb, 0xac, 0xc7, 0x40, 0x3e, 0x2e, 0xf2, 0xc5, 0xbd,
  0xbc, 0x39, 0xe4, 0xbd, 0xa8, 0x43, 0xd3, 0x3e, 0xce, 0x04, 0xd8, 0xbd,
  0x44, 0x60, 0x93, 0xbe, 0x5d, 0x6e, 0x8b, 0xbd, 0x98, 0xa6, 0x11, 0xbe,
  0x9c, 0xba, 0x7b, 0xbe, 0x3c, 0x20, 0xae, 0xbe, 0xf4, 0x30, 0x1f, 0xbd,
  0x8d, 0xc6, 0x34, 0xbd, 0x9f, 0xae, 0x16, 0xbe, 0xdb, 0x19, 0xc8, 0x3b,
  0xf7, 0x7a, 0x9b, 0xbd, 0x15, 0x7a, 0xb9, 0xbe, 0xff, 0x17, 0x16, 0x3d,
  0x89, 0xae, 0x48, 0xbe, 0x3f, 0x8a, 0xe0, 0xbd, 0x3a, 0xe9, 0xae, 0xbd,
  0x9a, 0xa7, 0xd7, 0xbd, 0xda, 0xbc, 0x00, 0x3d, 0x1e, 0x52, 0x44, 0x3e,
  0xbc, 0xc5, 0xf6, 0xbe, 0x90, 0xf5, 0xb3, 0xbb, 0xd2, 0xa8, 0xba, 0xbd,
  0x40, 0x02, 0x19, 0xbe, 0x1d, 0x80, 0x4d, 0xbe, 0xc3, 0x5f, 0xba, 0xbd,
  0xe8, 0x5f, 0x1c, 0xbd, 0x75, 0x78, 0x1e, 0x3e, 0x66, 0x7a, 0x31, 0x3e,
  0x30, 0xb7, 0x65, 0xbd, 0xc2, 0xac, 0x5e, 0xbe, 0xfc, 0xa3, 0x9e, 0xbd,
  0xc0, 0x00, 0xf5, 0xbd, 0xd8, 0xd3, 0xc5, 0x3d, 0xa7, 0x5d, 0xbb, 0xbe,
  0x8e, 0xcb, 0x9a, 0xbe, 0x59, 0x77, 0x7b, 0x3d, 0xfb, 0xe3, 0xb2, 0x3c,
  0x8b, 0xe3, 0x07, 0xbe, 0x2e, 0xee, 0x24, 0xbe, 0xb0, 0xbd, 0x98, 0x3e,
  0x18, 0x67, 0x52, 0xbe, 0x00, 0x0e, 0x07, 0xbf, 0xa9, 0xac, 0xb5, 0xbe,
  0x10, 0xc8, 0x94, 0xbe, 0x97, 0xcd, 0x19, 0xbf, 0xbe, 0x0d, 0x4d, 0xbf,
  0x98, 0x94, 0xc9, 0xbe, 0x5c, 0xb5, 0x18, 0xbe, 0x66, 0xc7, 0x90, 0xbe,
  0x8f, 0xd2, 0x55, 0xbe, 0xf0, 0x04, 0x20, 0x3e, 0x50, 0x54, 0x83, 0xbd,
  0xeb, 0x42, 0x9f, 0xbd, 0x87, 0x5e, 0x04, 0x3e, 0xa4, 0x8e, 0x86, 0xbe,
  0xa1, 0x74, 0xbc, 0xbd, 0xcb, 0x20, 0xcf, 0xbd, 0xc8, 0xa8, 0xf2, 0xbd,
  0xa2, 0x83, 0xe4, 0xbc, 0xd8, 0x6b, 0x73, 0x3d, 0x21, 0xcc, 0xcd, 0xbd,
  0x63, 0x01, 0x0e, 0xbe, 0x6b, 0xd8, 0x90, 0xbd, 0x29, 0x13, 0x9d, 0xbd,
  0x2b, 0xb0, 0x90, 0x3d, 0xab, 0x97, 0x7d, 0xbd, 0xdc, 0x89, 0xed, 0xbc,
  0x32, 0x96, 0x6e, 0xbd, 0xea, 0x64, 0x75, 0x3d, 0xd0, 0x9f, 0x40, 0x3d,
  0xc9, 0x8b, 0x9b, 0xbd, 0x2f, 0x1d, 0x88, 0xbd, 0xc1, 0x8c, 0x09, 0x3d,
  0xbb, 0x81, 0x74, 0xbe, 0x43, 0x15, 0xb0, 0xbd, 0xf0, 0x92, 0xc7, 0xbd,
  0x71, 0xfc, 0x70, 0xbe, 0x46, 0xd6, 0xa1, 0xbe, 0x38, 0x79, 0xdd, 0xbd,
  0x92, 0xb4, 0xfc, 0x3d, 0x2a, 0x20, 0xbc, 0xbd, 0x1a, 0xb7, 0x23, 0xbe,
  0xea, 0xfb, 0xb7, 0xbd, 0xb8, 0x58, 0x2d, 0xbd, 0x5c, 0x69, 0x52, 0xbe,
  0xc6, 0x5e, 0x1e, 0xbd, 0xec, 0x9a, 0x01, 0xbe, 0x12, 0x9c, 0xab, 0xbb,
  0x08, 0x75, 0x9e, 0xbd, 0x2f, 0x9e, 0xa0, 0xbd, 0xb8, 0x63, 0x51, 0xbd,
  0xe4, 0x04, 0x08, 0xbe, 0x68, 0x64, 0xf3, 0xbc, 0xde, 0x4b, 0x87, 0x3e,
  0xee, 0x16, 0x21, 0xbd, 0x4a, 0x46, 0x74, 0xbe, 0xe6, 0x51, 0x4d, 0x3c,
  0x9b, 0x9c, 0x32, 0x3f, 0x40, 0x29, 0xd8, 0x3d, 0xad, 0xd6, 0x91, 0xbe,
  0x8d, 0x78, 0x90, 0x3e, 0xae, 0x4f, 0x7f, 0x3e, 0x2e, 0x5b, 0x96, 0x3d,
  0x52, 0x6c, 0xbb, 0xbd, 0x0f, 0x38, 0x80, 0x3a, 0x41, 0x4f, 0xe0, 0xbd,
  0xb8, 0x06, 0x90, 0xbe, 0xc2, 0x09, 0x45, 0xbe, 0x69, 0x41, 0x18, 0xbf,
  0x1f, 0x3f, 0xd8, 0x3e, 0xf7, 0x37, 0x40, 0x3d, 0xa4, 0xec, 0x08, 0xbf,
  0xd1, 0xb4, 0x9b, 0xbe, 0x55, 0x83, 0x57, 0x3d, 0x19, 0xd3, 0x86, 0xbd,
  0x81, 0x3a, 0x46, 0x3c, 0xff, 0xd4, 0x45, 0xbd, 0x9a, 0x61, 0x3a, 0xbc,
  0x61, 0xf8, 0x22, 0x3e, 0x92, 0x0f, 0x02, 0xbe, 0xd2, 0xc8, 0xea, 0xbd,
  0x74, 0x5c, 0x42, 0xbd, 0x3e, 0x77, 0x00, 0xbe, 0x37, 0x7e, 0x67, 0x3d,
  0x93, 0x5d, 0x43, 0xbe, 0xbf, 0x09, 0x5c, 0xbe, 0x1b, 0xd8, 0x08, 0x3e,
  0x46, 0x3a, 0x05, 0xbe, 0x00, 0x4a, 0x24, 0xbe, 0x7c, 0x23, 0xb9, 0x3a,
  0x05, 0x24, 0x88, 0xbd, 0x77, 0xce, 0x7b, 0xbc, 0xa4, 0xe3, 0x05, 0xbd,
  0x39, 0x4d, 0x82, 0xbd, 0xa7, 0xfd, 0x06, 0x3e, 0x7d, 0x2b, 0xfb, 0x3c,
  0xc3, 0x3e, 0xea, 0x3c, 0x8f, 0xee, 0x35, 0xbd, 0xb7, 0x69, 0x95, 0x3c,
  0x72, 0x58, 0xa0, 0xbe, 0x71, 0x55, 0xc4, 0xbd, 0x34, 0x06, 0x89, 0xbe,
  0xb2, 0xc4, 0xd1, 0x3e, 0x01, 0xdf, 0x89, 0x3e, 0xf3, 0x65, 0x3f, 0xbe,
  0xc4, 0xdc, 0x89, 0xbe, 0x10, 0x39, 0x45, 0xbe, 0xe0, 0xc1, 0x95, 0xbe,
  0xa9, 0x94, 0xc3, 0xbe, 0xa0, 0x19, 0x1e, 0xbe, 0xb3, 0x93, 0xe3, 0xbd,
  0xee, 0x2f, 0x84, 0x3c, 0x73, 0x77, 0x2f, 0xbe, 0x8e, 0x68, 0xa4, 0xbe,
  0xf1, 0x1f, 0x93, 0xbe, 0x97, 0x96, 0x25, 0x3d, 0x1c, 0x29, 0x96, 0xbd,
  0x35, 0xbe, 0x8e, 0xbd, 0x8f, 0x28, 0x0e, 0xbe, 0xb4, 0xe3, 0x72, 0x3e,
  0x4d, 0x52, 0xbd, 0xbd, 0x41, 0x23, 0xe3, 0xbd, 0x56, 0xaf, 0x8d, 0xbe,
  0x17, 0x17, 0xd7, 0x3e, 0xa4, 0x64, 0x6d, 0x3e, 0xf8, 0x1e, 0x4c, 0x3e,
  0xc5, 0x8a, 0x33, 0xbe, 0xed, 0xea, 0x97, 0x3e, 0x44, 0x5c, 0x08, 0x3d,
  0x91, 0x8d, 0x4d, 0xbd, 0x62, 0xbb, 0x16, 0xbf, 0x7b, 0xc1, 0x64, 0x3f,
  0x79, 0x64, 0x38, 0x3e, 0x3f, 0xcb, 0xde, 0x3e, 0xe5, 0x6b, 0x39, 0xbe,
  0x65, 0xbb, 0x7c, 0x3c, 0x22, 0xc2, 0x6f, 0xbd, 0x0c, 0xd3, 0x20, 0x3c,
  0x02, 0xa3, 0x38, 0xbe, 0x62, 0x2d, 0xcd, 0xbd, 0xdc, 0x74, 0x91, 0xbd,
  0x38, 0xfa, 0x2d, 0x3d, 0xea, 0x94, 0x47, 0xbe, 0x5d, 0x02, 0x91, 0xbe,
  0x33, 0xf4, 0x58, 0xbd, 0x99, 0xfe, 0xea, 0xbd, 0x72, 0xc0, 0xc6, 0x3d,
  0x63, 0x14, 0x29, 0xbd, 0x18, 0x29, 0x84, 0x3d, 0x3f, 0xaa, 0x6c, 0x3d,
  0xd5, 0x36, 0xd4, 0x3c, 0x55, 0xaa, 0xb8, 0xbd, 0x79, 0x1c, 0x27, 0xbd,
  0xcd, 0x3a, 0x5b, 0xbe, 0x40, 0xaa, 0x5f, 0x3e, 0xb3, 0x4a, 0xa8, 0xbd,
  0x98, 0x36, 0xa1, 0x3d, 0x74, 0xa6, 0x05, 0xbf, 0x42, 0x4d, 0x64, 0xbd,
  0xd8, 0x21, 0xef, 0x3d, 0x4a, 0x5d, 0x3e, 0xbd, 0xda, 0x19, 0x0d, 0x3e,
  0xb3, 0x0c, 0x88, 0xbb, 0x15, 0x19, 0xca, 0x3e, 0xa9, 0x5f, 0x3e, 0x3e,
  0xb1, 0x17, 0xd6, 0xbe, 0x54, 0xe5, 0xa4, 0xbd, 0x78, 0x9e, 0x88, 0x3e,
  0xe9, 0xdd, 0x4c, 0xbe, 0xcd, 0x85, 0x37, 0xbe, 0xa1, 0xcd, 0x8c, 0xbe,
  0x57, 0x60, 0x59, 0x3e, 0xf4, 0x32, 0x00, 0x3e, 0xbb, 0x2e, 0x5f, 0xbe,
  0x9e, 0x5b, 0xc9, 0xbd, 0x7a, 0x56, 0x93, 0x3c, 0x82, 0x9b, 0x95, 0xbd,
  0xd9, 0x26, 0x67, 0x3e, 0xd3, 0x9b, 0x74, 0xbf, 0xa3, 0xa2, 0xe7, 0x3d,
  0xfa, 0xad, 0x45, 0x3c, 0xff, 0x05, 0x27, 0xbe, 0x12, 0x8e, 0xb3, 0xbe,
  0xed, 0xc3, 0x96, 0xbe, 0xf8, 0x48, 0xdb, 0xbd, 0x64, 0xf0, 0xfb, 0xbc,
  0xc6, 0x72, 0x5d, 0x3e, 0x4d, 0x81, 0x8c, 0xbd, 0xdb, 0x9d, 0x12, 0xbe,
  0x46, 0xee, 0xa6, 0x3e, 0x01, 0xf2, 0xea, 0xbd, 0x68, 0xf4, 0xa5, 0xbe,
  0x94, 0x19, 0x87, 0xbe, 0x63, 0x85, 0x1a, 0xbf, 0xd0, 0xf9, 0x72, 0xbe,
  0x29, 0x49, 0x54, 0xbd, 0xb3, 0xb7, 0xce, 0xbd, 0x41, 0x52, 0x2a, 0xbf,
  0x4e, 0xad, 0xa9, 0xbe, 0xc2, 0x76, 0xa7, 0xbc, 0x9e, 0xf0, 0x12, 0xbd,
  0xc4, 0x37, 0x73, 0xbe, 0x1b, 0x57, 0x39, 0xbf, 0x61, 0x2a, 0x82, 0x3e,
  0x58, 0x3b, 0x2c, 0x3f, 0x32, 0xb3, 0xb8, 0x3d, 0x9f, 0xb9, 0x94, 0xbe,
  0x8d, 0xfd, 0x83, 0x3e, 0xaf, 0xdb, 0x1d, 0xbe, 0x35, 0x06, 0xb8, 0x3d,
  0xb1, 0xd7, 0xbb, 0xbe, 0x71, 0x45, 0x01, 0xbd, 0x65, 0xaa, 0x17, 0x3d,
  0x90, 0x97, 0x34, 0x3e, 0xaf, 0x73, 0xe9, 0xbd, 0x52, 0xfe, 0x0a, 0x3e,
  0xb9, 0xd7, 0x9c, 0xbd, 0xe8, 0x78, 0x1b, 0x3e, 0x67, 0xc2, 0xa6, 0x3e,
  0x86, 0x6b, 0x68, 0xbe, 0x66, 0xf8, 0x85, 0xbe, 0x9c, 0x9a, 0x30, 0xbd,
  0x21, 0xb0, 0x60, 0xbd, 0x73, 0xe9, 0xc7, 0xbe, 0xa7, 0xe3, 0x88, 0xbd,
  0x84, 0xf3, 0x0f, 0xbd, 0x45, 0x46, 0xc7, 0xbd, 0xb2, 0xce, 0xbc, 0xbe,
  0x6e, 0xc3, 0x36, 0xbe, 0xe3, 0xd3, 0x24, 0x3f, 0xbe, 0x79, 0xae, 0xbd,
  0xae, 0xb3, 0x97, 0x3a, 0x92, 0x41, 0xc9, 0x3d, 0x49, 0x0b, 0x84, 0x3d,
  0x05, 0xad, 0xd2, 0xbc, 0x02, 0xbb, 0x23, 0xbf, 0x6f, 0x36, 0xde, 0xbd,
  0x89, 0x48, 0xfe, 0x3d, 0x6e, 0xaf, 0xd6, 0xbc, 0x11, 0x20, 0x62, 0x3e,
  0x87, 0xc9, 0xa3, 0xbd, 0x1a, 0x19, 0x32, 0x3c, 0xf8, 0xfb, 0x0d, 0xbd,
  0x51, 0x09, 0x93, 0xbe, 0xdd, 0xa4, 0x82, 0x3e, 0x69, 0x3e, 0xd3, 0xbe,
  0x71, 0xd6, 0x5a, 0x3d, 0x52, 0xf0, 0xae, 0x3c, 0x47, 0xfa, 0x05, 0xbe,
  0x27, 0xc6, 0x19, 0xbe, 0x13, 0x5d, 0x76, 0xbd, 0x42, 0x9c, 0xbf, 0xbd,
  0xd7, 0x2a, 0x85, 0x3d, 0x19, 0xdb, 0xdb, 0xbe, 0xea, 0x3c, 0x8d, 0x3c,
  0xeb, 0xd5, 0xf2, 0x3d, 0xbf, 0x3e, 0xdd, 0xbd, 0x31, 0x72, 0x86, 0xbe,
  0x9c, 0xce, 0xc3, 0x3d, 0xfe, 0xe8, 0x48, 0xbe, 0x27, 0x16, 0x54, 0xbe,
  0xe6, 0x64, 0x87, 0xbe, 0x8a, 0x04, 0x8e, 0xbe, 0x63, 0x1c, 0x95, 0xbe,
  0xa2, 0x3d, 0x04, 0xbe, 0x2c, 0xe6, 0x03, 0xbe, 0xf5, 0x0f, 0x69, 0x3c,
  0x00, 0xad, 0xda, 0x3c, 0xee, 0x6f, 0x86, 0x3e, 0x4e, 0x96, 0xc1, 0xbe,
  0x53, 0xfc, 0x44, 0xbe, 0xbe, 0x3b, 0xb1, 0x3e, 0x0a, 0x03, 0x04, 0x3f,
  0x8d, 0x76, 0xca, 0xbd, 0x86, 0xfb, 0x3f, 0xbe, 0x13, 0xa8, 0x90, 0x3d,
  0x83, 0xf7, 0x0d, 0xbe, 0xe8, 0x99, 0x2f, 0xbe, 0xbd, 0x00, 0x82, 0xbe,
  0x93, 0xe2, 0x50, 0xbe, 0x65, 0x2f, 0x47, 0x3c, 0x8a, 0xf1, 0xa3, 0xbc,
  0x6c, 0xfc, 0x15, 0x3e, 0x8d, 0x7a, 0xc5, 0x3d, 0x17, 0xd6, 0x8b, 0x3e,
  0xb4, 0x12, 0xb4, 0xbb, 0x71, 0x0c, 0x0b, 0xbe, 0xcb, 0xeb, 0x09, 0x3e,
  0xc8, 0x14, 0xc2, 0x3c, 0x26, 0xde, 0xff, 0xff, 0x10, 0x00, 0x00, 0x00,
  0x0a, 0x00, 0x00, 0x00, 0x1c, 0x00, 0x00, 0x00, 0x38, 0x00, 0x00, 0x00,
  0x04, 0x00, 0x00, 0x00, 0x10, 0x00, 0x00, 0x00, 0x04, 0x00, 0x00, 0x00,
  0x01, 0x00, 0x00, 0x00, 0x08, 0x00, 0x00, 0x00, 0x1a, 0x00, 0x00, 0x00,
  0x73, 0x65, 0x71, 0x75, 0x65, 0x6e, 0x74, 0x69, 0x61, 0x6c, 0x2f, 0x63,
  0x6f, 0x6e, 0x76, 0x32, 0x64, 0x5f, 0x31, 0x2f, 0x43, 0x6f, 0x6e, 0x76,
  0x32, 0x44, 0x00, 0x00, 0x9c, 0xdd, 0xff, 0xff, 0xa6, 0xde, 0xff, 0xff,
  0x04, 0x00, 0x00, 0x00, 0x80, 0x01, 0x00, 0x00, 0xaa, 0x2c, 0xe8, 0x3e,
  0x2d, 0x63, 0xde, 0xbd, 0x1e, 0x4d, 0x3d, 0xbe, 0x06, 0xe8, 0xae, 0xbd,
  0xd6, 0xed, 0xcd, 0xbd, 0xb2, 0x6a, 0x7a, 0x3e, 0x7a, 0x87, 0xa1, 0xbe,
  0xfe, 0x39, 0xb5, 0x3c, 0xdd, 0xd4, 0x11, 0x3c, 0x14, 0x9d, 0xfe, 0xbd,
  0xed, 0x5e, 0xee, 0x3b, 0x89, 0x69, 0x15, 0x3e, 0x93, 0xa2, 0x35, 0xbe,
  0xc2, 0xf0, 0x31, 0x39, 0xc7, 0xb1, 0x1d, 0xbe, 0x8c, 0xb8, 0xac, 0x3d,
  0xf5, 0x02, 0xb4, 0x3c, 0xce, 0xf4, 0xb7, 0xbd, 0x45, 0xa4, 0x48, 0x3d,
  0xb6, 0xb2, 0x39, 0xbe, 0xd2, 0xc3, 0x34, 0x3e, 0xb4, 0x0b, 0xac, 0xbd,
  0x5f, 0x88, 0x65, 0xbd, 0x73, 0xa7, 0xd4, 0x3b, 0x81, 0x26, 0xc4, 0x3d,
  0x98, 0xdb, 0x9c, 0xbd, 0xb2, 0x78, 0x99, 0xbc, 0xc6, 0x66, 0xc4, 0xbc,
  0x10, 0xe7, 0x82, 0xbe, 0xd7, 0x18, 0xcd, 0xbe, 0xcf, 0x11, 0x85, 0xbc,
  0x90, 0xab, 0xee, 0x3e, 0xfe, 0x02, 0x63, 0x3e, 0xa7, 0x03, 0x4f, 0x3e,
  0xbf, 0xbc, 0xdb, 0xbc, 0x72, 0x95, 0x69, 0x3e, 0xae, 0xd4, 0x39, 0x3d,
  0x1d, 0x30, 0xef, 0xbb, 0xfe, 0xd4, 0x31, 0xbe, 0x4b, 0xec, 0x6b, 0x3b,
  0x75, 0x50, 0xb0, 0xbd, 0x12, 0x43, 0x15, 0xbf, 0xab, 0xab, 0x60, 0x3d,
  0x7b, 0x46, 0x8e, 0x3d, 0x77, 0x69, 0xee, 0x3e, 0xcb, 0xcd, 0x8b, 0xbd,
  0xe0, 0x4b, 0xd1, 0x3c, 0x43, 0xfc, 0x57, 0x3e, 0x55, 0x51, 0x93, 0x3d,
  0xa4, 0xfa, 0x29, 0x3d, 0xc6, 0xea, 0xc8, 0xbb, 0x11, 0xba, 0xae, 0x3e,
  0x1e, 0x20, 0xa1, 0x3e, 0x81, 0x4d, 0xfc, 0x3d, 0x61, 0xe4, 0xf3, 0xbd,
  0x9a, 0x79, 0x78, 0x3c, 0xad, 0x9f, 0x03, 0x3e, 0x0d, 0x26, 0xb9, 0xbe,
  0x2e, 0x23, 0xcc, 0xbe, 0xd4, 0x40, 0x07, 0xbe, 0x58, 0x2b, 0x71, 0xbd,
  0x90, 0xee, 0x0a, 0xbe, 0x00, 0x68, 0x66, 0x3e, 0x5b, 0x3c, 0x94, 0xbd,
  0x2e, 0xff, 0x07, 0xbd, 0xbd, 0xa0, 0xc3, 0x3d, 0x5e, 0xfd, 0x52, 0xbd,
  0xe4, 0xa9, 0xf1, 0x3c, 0x17, 0x21, 0xd4, 0x3b, 0x97, 0x40, 0x84, 0xbd,
  0x04, 0x75, 0xae, 0x3d, 0x0c, 0xe8, 0x4d, 0x3d, 0x09, 0xb1, 0x9c, 0xbe,
  0xa6, 0xa1, 0x05, 0x3d, 0x26, 0x5d, 0x18, 0x3a, 0xe3, 0xba, 0xdb, 0xbe,
  0xb5, 0x4d, 0xff, 0x3d, 0x29, 0x4f, 0x4e, 0xbe, 0x87, 0x80, 0xca, 0x3e,
  0x9e, 0xb8, 0x6b, 0xbe, 0x8b, 0x05, 0xf1, 0xbc, 0x25, 0xc4, 0xa0, 0x3e,
  0x88, 0x88, 0x07, 0x3e, 0xf5, 0xd7, 0x97, 0x3e, 0xe5, 0x3c, 0x84, 0x3e,
  0x86, 0x76, 0xf4, 0xbd, 0x9f, 0xdd, 0x14, 0xbd, 0x8d, 0x1d, 0x0c, 0xbe,
  0x14, 0xcb, 0x4c, 0x3e, 0x38, 0xc3, 0x67, 0xbd, 0x10, 0x59, 0x1c, 0x3e,
  0x51, 0x9a, 0x9d, 0x3d, 0xbf, 0x97, 0x56, 0xbd, 0x87, 0xf9, 0x59, 0x3e,
  0x33, 0xc9, 0x44, 0xbc, 0x62, 0x58, 0x1f, 0xbe, 0xfe, 0xdf, 0xff, 0xff,
  0x10, 0x00, 0x00, 0x00, 0x09, 0x00, 0x00, 0x00, 0x1c, 0x00, 0x00, 0x00,
  0x38, 0x00, 0x00, 0x00, 0x04, 0x00, 0x00, 0x00, 0x08, 0x00, 0x00, 0x00,
  0x04, 0x00, 0x00, 0x00, 0x03, 0x00, 0x00, 0x00, 0x01, 0x00, 0x00, 0x00,
  0x18, 0x00, 0x00, 0x00, 0x73, 0x65, 0x71, 0x75, 0x65, 0x6e, 0x74, 0x69,
  0x61, 0x6c, 0x2f, 0x63, 0x6f, 0x6e, 0x76, 0x32, 0x64, 0x2f, 0x43, 0x6f,
  0x6e, 0x76, 0x32, 0x44, 0x00, 0x00, 0x00, 0x00, 0x74, 0xdf, 0xff, 0xff,
  0x7e, 0xe0, 0xff, 0xff, 0x04, 0x00, 0x00, 0x00, 0xc0, 0x00, 0x00, 0x00,
  0x76, 0xb2, 0xc1, 0x3e, 0xa9, 0x73, 0x83, 0xbe, 0x38, 0xf7, 0xaa, 0x3e,
  0x05, 0x42, 0xa9, 0x3d, 0xee, 0xbc, 0x33, 0x3e, 0x6b, 0x8d, 0xbb, 0xbd,
  0x89, 0x16, 0x28, 0x3d, 0xa2, 0xf7, 0x5b, 0xbe, 0xe5, 0x35, 0x8c, 0x3e,
  0x0d, 0x56, 0xa3, 0xbe, 0x2f, 0x87, 0xf6, 0xbe, 0x3f, 0xfb, 0xd6, 0xbd,
  0xb8, 0x40, 0xad, 0x3e, 0x94, 0xf2, 0xa0, 0xbd, 0x9e, 0xc8, 0x8e, 0xbe,
  0x00, 0x04, 0xb3, 0x3e, 0x65, 0x07, 0x3b, 0x3e, 0x95, 0x61, 0x4d, 0xbe,
  0x76, 0x22, 0x9b, 0x3e, 0x39, 0xa6, 0x0a, 0x3d, 0x38, 0x0a, 0x09, 0x3e,
  0xbc, 0xfb, 0xa2, 0xbd, 0xcc, 0xc0, 0xb6, 0xbe, 0x5d, 0xd1, 0x78, 0x3d,
  0xa9, 0xc5, 0xb2, 0x3e, 0xa3, 0x57, 0x5c, 0x3d, 0xd7, 0x97, 0xc3, 0xbe,
  0xe4, 0xfd, 0x12, 0xbe, 0x09, 0xd7, 0xd7, 0xbc, 0xed, 0x7d, 0x47, 0xbd,
  0x54, 0xe3, 0xb2, 0xbe, 0x80, 0x38, 0xa5, 0x3e, 0x67, 0xcf, 0xa0, 0x3e,
  0x6e, 0x4c, 0x83, 0xbe, 0x48, 0x88, 0x8f, 0x3e, 0x9f, 0x7b, 0xbd, 0x3c,
  0x17, 0xf2, 0x59, 0x3e, 0x91, 0x04, 0xf7, 0xbd, 0xc6, 0xc2, 0xda, 0xbe,
  0x0c, 0xb3, 0xef, 0x3e, 0x94, 0xfa, 0x94, 0x3e, 0xf8, 0x0a, 0x15, 0x3e,
  0xdf, 0x08, 0xd4, 0x3e, 0xa1, 0xe2, 0x87, 0xbd, 0xe4, 0xfd, 0xb8, 0xbe,
  0x68, 0xdc, 0xc0, 0xbd, 0x00, 0x3a, 0xa8, 0xbe, 0xb6, 0x90, 0xcb, 0x3e,
  0x16, 0xe1, 0xff, 0xff, 0x10, 0x00, 0x00, 0x00, 0x08, 0x00, 0x00, 0x00,
  0x14, 0x00, 0x00, 0x00, 0x30, 0x00, 0x00, 0x00, 0x02, 0x00, 0x00, 0x00,
  0x03, 0x00, 0x00, 0x00, 0x10, 0x00, 0x00, 0x00, 0x19, 0x00, 0x00, 0x00,
  0x73, 0x65, 0x71, 0x75, 0x65, 0x6e, 0x74, 0x69, 0x61, 0x6c, 0x2f, 0x64,
  0x65, 0x6e, 0x73, 0x65, 0x5f, 0x31, 0x2f, 0x4d, 0x61, 0x74, 0x4d, 0x75,
  0x6c, 0x00, 0x00, 0x00, 0x84, 0xe0, 0xff, 0xff, 0x8e, 0xe1, 0xff, 0xff,
  0x04, 0x00, 0x00, 0x00, 0x00, 0x1c, 0x00, 0x00, 0xc7, 0x12, 0x4e, 0x3e,
  0x16, 0x19, 0x40, 0xbd, 0xf8, 0x13, 0x8a, 0xbd, 0x78, 0xb7, 0xb2, 0xbe,
  0xc3, 0xb7, 0xf6, 0x3c, 0x57, 0x3f, 0x5c, 0xbe, 0x5e, 0x02, 0xa3, 0xbd,
  0x9c, 0x19, 0x9b, 0xbd, 0x6a, 0xc9, 0xb2, 0xbe, 0xc5, 0x10, 0xd7, 0x3c,
  0x8b, 0xd6, 0x17, 0x3e, 0x1b, 0x77, 0xec, 0xbc, 0xc1, 0xa3, 0x74, 0x3d,
  0x42, 0x2f, 0xdd, 0xbd, 0x1f, 0xbf, 0xd9, 0xbd, 0xe5, 0x71, 0x84, 0xbe,
  0x06, 0xab, 0xbc, 0xbc, 0x04, 0xa4, 0x16, 0x3e, 0xd6, 0x8d, 0x28, 0x3e,
  0x76, 0xcc, 0x6b, 0xbe, 0xe6, 0x65, 0xe2, 0x3d, 0x31, 0x61, 0x5a, 0xbe,
  0xec, 0x73, 0xc4, 0x3d, 0x0e, 0x25, 0xee, 0xbc, 0x19, 0x81, 0x7c, 0xbe,
  0x06, 0xd1, 0x0d, 0x3e, 0xeb, 0xd8, 0xe9, 0x3c, 0xe0, 0xa7, 0x74, 0xbd,
  0xf0, 0x0a, 0x46, 0xbe, 0x78, 0x24, 0x15, 0x3e, 0xac, 0x3b, 0x22, 0x3d,
  0x3c, 0x4b, 0x05, 0xbe, 0x9b, 0x40, 0x89, 0xbd, 0x45, 0xe4, 0xbf, 0xbd,
  0x4a, 0xe9, 0xdd, 0xbd, 0x85, 0x60, 0xef, 0xbd, 0xc8, 0xf2, 0x09, 0x3e,
  0x69, 0xb6, 0x4f, 0xbd, 0xb5, 0xd0, 0x76, 0xbb, 0xb4, 0x0d, 0xa9, 0xbd,
  0xa6, 0x2a, 0x71, 0x3d, 0x0f, 0x20, 0x4b, 0xbe, 0xf4, 0x69, 0x01, 0xbd,
  0x2e, 0x99, 0xf6, 0xbd, 0x89, 0xe7, 0x48, 0x3e, 0x66, 0xd0, 0xf5, 0xbd,
  0xa8, 0xb6, 0x2f, 0x3e, 0xff, 0x87, 0x3c, 0xbd, 0x6a, 0xb7, 0x32, 0xbe,
  0x8a, 0x1a, 0xbb, 0xbd, 0xed, 0xe8, 0x02, 0xbd, 0xc5, 0x80, 0xad, 0xbe,
  0x56, 0x78, 0x01, 0x3e, 0x4a, 0xa9, 0x7b, 0x3c, 0xbd, 0x1c, 0x5a, 0x3c,
  0x87, 0x7d, 0x34, 0xbe, 0x77, 0xa0, 0x02, 0xbe, 0xb1, 0x50, 0x0f, 0xbd,
  0x4f, 0x31, 0xb3, 0x3d, 0x26, 0xb2, 0xb7, 0x3d, 0x5f, 0xb4, 0xb4, 0xbd,
  0xc0, 0xf1, 0x96, 0x3d, 0x36, 0xb3, 0x4a, 0x3d, 0x01, 0x4b, 0xb7, 0xbd,
  0xb9, 0xcd, 0xae, 0xbd, 0x1e, 0xd6, 0x74, 0xbe, 0x04, 0x88, 0x12, 0x3e,
  0x1f, 0xab, 0x13, 0xbe, 0xd1, 0x85, 0x0d, 0x3e, 0x43, 0xc6, 0x23, 0xbe,
  0xf7, 0xc6, 0xef, 0xbd, 0xc6, 0x08, 0x20, 0x3d, 0xdf, 0x28, 0x07, 0xbe,
  0xc6, 0x4f, 0xb5, 0x3d, 0x4c, 0xbe, 0xf6, 0xbd, 0xee, 0xbc, 0x44, 0x3e,
  0x2a, 0x79, 0x06, 0x3e, 0x2a, 0x34, 0x87, 0xbd, 0x30, 0xe8, 0x13, 0x3e,
  0x37, 0xa4, 0x5d, 0xbd, 0xa2, 0x4e, 0x1d, 0xbe, 0x2e, 0xa5, 0x61, 0xbd,
  0x00, 0x0d, 0x68, 0xbd, 0xa4, 0x31, 0x21, 0xbe, 0xc2, 0x6f, 0x01, 0xbe,
  0xab, 0xdd, 0x88, 0xbd, 0x29, 0x06, 0x83, 0xbb, 0x57, 0xaf, 0x42, 0xbe,
  0x17, 0xa9, 0x0a, 0x3c, 0x04, 0xc9, 0x72, 0xbd, 0xf5, 0x4f, 0x88, 0xbd,
  0x66, 0x6b, 0x3a, 0xbe, 0x42, 0xc9, 0x11, 0xbe, 0xcf, 0xf3, 0x46, 0xbe,
  0xfb, 0x89, 0x96, 0xbd, 0xb6, 0x57, 0xc7, 0x3d, 0xae, 0xfd, 0xa2, 0x3c,
  0xfa, 0xbd, 0xc7, 0xbd, 0x14, 0x03, 0x22, 0x3d, 0x0b, 0x6e, 0x4a, 0xbd,
  0x25, 0x4e, 0x4e, 0xbe, 0xa6, 0x1c, 0x5a, 0xbc, 0xa2, 0xe5, 0x27, 0xbe,
  0xc1, 0xc3, 0x50, 0xbe, 0x4a, 0x26, 0xb9, 0xbd, 0x7d, 0xa4, 0xb7, 0x3d,
  0xd7, 0x32, 0xf6, 0x3d, 0xd7, 0xfd, 0x28, 0xbc, 0x76, 0x47, 0xdc, 0x3d,
  0x36, 0x7f, 0x02, 0xbe, 0x81, 0x7c, 0xb3, 0x3d, 0x6c, 0x3d, 0x06, 0xbe,
  0x29, 0x86, 0x99, 0xbe, 0x45, 0x22, 0x8d, 0xbd, 0x1d, 0x2b, 0x82, 0xbe,
  0xa7, 0x32, 0x92, 0xbe, 0xe5, 0x11, 0x76, 0xbd, 0xa6, 0x56, 0x6c, 0xbe,
  0x0a, 0xa4, 0x87, 0x3d, 0xfb, 0x17, 0xb1, 0x3d, 0x37, 0x54, 0xdf, 0xbe,
  0xc2, 0x12, 0xad, 0xbe, 0xb2, 0x0a, 0x1b, 0xbc, 0xdd, 0x6d, 0x00, 0xbe,
  0xd6, 0xb0, 0x1e, 0xbe, 0xb9, 0xae, 0x6e, 0xbe, 0x86, 0x9a, 0x7f, 0xbe,
  0xd4, 0x20, 0x95, 0xbd, 0x03, 0xe8, 0x58, 0xbe, 0xf7, 0x5e, 0xc2, 0xbd,
  0x46, 0x59, 0xae, 0xbd, 0x01, 0x3b, 0xef, 0xbe, 0x30, 0xdd, 0xd7, 0xbd,
  0xbe, 0xa2, 0x3c, 0xbc, 0x48, 0x92, 0x49, 0x3d, 0x1c, 0x3b, 0xf3, 0x3c,
  0x6b, 0x65, 0xff, 0xbd, 0x31, 0x47, 0xfe, 0xbe, 0xd9, 0x5b, 0x7d, 0xbe,
  0xfd, 0x54, 0x7a, 0xbc, 0x27, 0xbb, 0x1e, 0x3e, 0xdd, 0x0e, 0xc6, 0x3d,
  0xde, 0x55, 0x7c, 0x3e, 0x1c, 0x80, 0x15, 0xbe, 0xae, 0x48, 0xd6, 0x3d,
  0x02, 0x75, 0xd0, 0x3c, 0x6a, 0xbd, 0x7a, 0xbc, 0x52, 0x56, 0xc2, 0xbe,
  0xfb, 0x73, 0x63, 0xbe, 0x9d, 0x27, 0xdd, 0xbd, 0xab, 0xcb, 0x4e, 0xbe,
  0xcd, 0x12, 0x57, 0xbe, 0x8d, 0x07, 0x3c, 0xbe, 0x5b, 0xdc, 0xd2, 0xbe,
  0x80, 0x54, 0x55, 0xbe, 0x27, 0x52, 0x40, 0x3d, 0x1a, 0x35, 0xa4, 0x3d,
  0xc4, 0x52, 0x30, 0x3e, 0x77, 0x5a, 0x47, 0x3e, 0x64, 0x0d, 0x15, 0x3c,
  0xf1, 0x63, 0x1e, 0xbe, 0x47, 0x59, 0x97, 0xbe, 0x7b, 0x1a, 0xaa, 0xbc,
  0xa1, 0x68, 0x02, 0xbf, 0x02, 0xd0, 0x17, 0xbe, 0x5a, 0x37, 0x92, 0xbe,
  0xb5, 0x0b, 0x0e, 0x3e, 0x45, 0x2a, 0x02, 0x3e, 0x70, 0x55, 0x12, 0xbf,
  0x1b, 0x4b, 0x81, 0xbe, 0x00, 0x7c, 0x71, 0xbd, 0xcb, 0xcd, 0xe7, 0xbc,
  0x81, 0x58, 0x8d, 0xbe, 0xa6, 0x6b, 0x0e, 0xbe, 0xdb, 0x30, 0xba, 0xbd,
  0x91, 0x5c, 0x23, 0xbd, 0xab, 0x87, 0x67, 0x3c, 0x70, 0x97, 0x47, 0xbe,
  0xa6, 0x45, 0x0d, 0xbe, 0x3d, 0x24, 0x7d, 0xbe, 0xdc, 0x67, 0xdc, 0xbd,
  0xda, 0x61, 0x9b, 0xbe, 0x2b, 0x03, 0xca, 0xbc, 0x7c, 0xb6, 0x02, 0x3e,
  0x2d, 0x10, 0xff, 0x3c, 0x19, 0x56, 0x86, 0xbd, 0x3f, 0x28, 0xb4, 0x3e,
  0x71, 0x70, 0xb5, 0xbd, 0x88, 0x55, 0x36, 0xbc, 0xa9, 0xad, 0xb3, 0x3d,
  0x8c, 0x04, 0x9a, 0x3c, 0x4e, 0x02, 0x18, 0x3e, 0x4f, 0x9b, 0x9f, 0x3d,
  0x34, 0x9d, 0x4a, 0x3e, 0x00, 0x9e, 0x0d, 0xbe, 0x98, 0x9a, 0x15, 0xbd,
  0x2c, 0x98, 0xcd, 0xbe, 0xef, 0x42, 0x32, 0xbd, 0x57, 0x1c, 0x8d, 0x3e,
  0xd6, 0x0e, 0x31, 0x3e, 0x94, 0x8b, 0x71, 0x3b, 0x7e, 0x49, 0x87, 0x3d,
  0xf8, 0xa0, 0x3e, 0x3e, 0xf0, 0x9b, 0x5d, 0x3e, 0x7b, 0xba, 0x21, 0x3e,
  0x05, 0x2d, 0xdc, 0x3e, 0x68, 0xf6, 0x58, 0x3e, 0x05, 0x8c, 0x60, 0x3e,
  0xa0, 0x75, 0x03, 0x3e, 0xa5, 0x35, 0xb1, 0x3c, 0xca, 0x5c, 0xd6, 0x3e,
  0x6b, 0x9c, 0x0b, 0x3d, 0x06, 0x5a, 0xe0, 0xb9, 0xd8, 0xf4, 0x47, 0x3d,
  0xd1, 0xc5, 0x70, 0x3d, 0x68, 0x60, 0xd5, 0xbd, 0x7b, 0xf2, 0x46, 0x3e,
  0x5d, 0xed, 0x8e, 0x3e, 0x82, 0x5d, 0x1b, 0x3e, 0xd6, 0x84, 0x93, 0x3e,
  0xa4, 0xec, 0xc1, 0xbd, 0x51, 0xcf, 0x41, 0x3e, 0x14, 0x20, 0x8c, 0x3d,
  0x48, 0x89, 0x47, 0x3e, 0x94, 0x9f, 0x84, 0xbd, 0x09, 0xad, 0x91, 0xbe,
  0x48, 0xc4, 0x3d, 0xbe, 0xe4, 0xe8, 0xeb, 0x3b, 0x12, 0xb9, 0x2f, 0x3e,
  0xcd, 0x41, 0x9e, 0x3e, 0xe6, 0x17, 0x1c, 0xbd, 0x2f, 0x49, 0x20, 0x3e,
  0xe2, 0x6f, 0xb2, 0xbc, 0x88, 0x8f, 0x3c, 0xbe, 0x7f, 0x56, 0xfe, 0x3e,
  0xe4, 0x6b, 0x90, 0xbe, 0x8a, 0xb8, 0x0e, 0xbe, 0xcf, 0xe7, 0x53, 0xbe,
  0xbf, 0x97, 0x9d, 0x3d, 0x11, 0x55, 0xf9, 0xbe, 0xe4, 0x8c, 0x81, 0xbd,
  0xc8, 0x2f, 0x16, 0xbd, 0x60, 0x03, 0x89, 0xbe, 0xb3, 0xd1, 0x29, 0xbd,
  0xcc, 0x1f, 0xc2, 0x3d, 0x0f, 0x3c, 0x45, 0xbe, 0x51, 0x30, 0x9c, 0x3d,
  0xfc, 0x62, 0xeb, 0x3f, 0x3b, 0x1c, 0x44, 0x3d, 0xb6, 0x73, 0x92, 0xbd,
  0xa1, 0xe3, 0xba, 0x3e, 0xd5, 0x95, 0xfe, 0xbe, 0x42, 0x59, 0x24, 0x3d,
  0xf8, 0x05, 0x35, 0xba, 0x41, 0xe4, 0x98, 0x3c, 0xa1, 0x77, 0x9b, 0x3a,
  0x0a, 0x44, 0x9c, 0xbe, 0xf3, 0x13, 0xe0, 0xbd, 0xe0, 0x1d, 0x86, 0xbe,
  0x1a, 0x17, 0x1c, 0xbd, 0xda, 0xe8, 0x8f, 0x3e, 0xbc, 0x84, 0xb9, 0x3c,
  0xa9, 0x44, 0x26, 0xbe, 0x36, 0x4f, 0xe5, 0x3f, 0x60, 0x2d, 0xf5, 0x3e,
  0x23, 0xac, 0x7f, 0xbd, 0xba, 0x83, 0x9f, 0x3e, 0xe2, 0xf4, 0x1a, 0xbd,
  0x1f, 0xdd, 0x84, 0x3e, 0x7c, 0xf0, 0x6b, 0x3e, 0x78, 0x38, 0x55, 0x3e,
  0xd4, 0x48, 0x1d, 0xbe, 0x6a, 0x23, 0x9c, 0xbb, 0x55, 0xee, 0xe5, 0xbe,
  0x79, 0xa0, 0xb9, 0xbe, 0xd1, 0x32, 0xa6, 0xba, 0xf9, 0xa6, 0x07, 0x3e,
  0xed, 0xca, 0x8f, 0x3e, 0xb3, 0xe2, 0xd9, 0xbd, 0xcd, 0xcc, 0xf5, 0x3f,
  0x8e, 0x3a, 0x87, 0x3e, 0x5a, 0x5b, 0xed, 0x3c, 0x35, 0x43, 0x77, 0xbd,
  0xb5, 0x83, 0x46, 0xbe, 0xb1, 0xa7, 0x91, 0xbe, 0xfd, 0x81, 0x96, 0x3e,
  0x6f, 0x42, 0x06, 0x3f, 0x2c, 0xea, 0xde, 0xbd, 0xde, 0x33, 0x9f, 0x3d,
  0x24, 0xec, 0x18, 0xbf, 0x2a, 0x56, 0x8c, 0xbd, 0x9e, 0x23, 0xa5, 0xbb,
  0xa4, 0xc8, 0xb9, 0x3e, 0xc9, 0xe3, 0x6e, 0xbd, 0xdb, 0x9e, 0x23, 0xbb,
  0x77, 0xe0, 0xb3, 0x3f, 0xf7, 0xe6, 0x04, 0x3e, 0xfc, 0x77, 0xb1, 0x3d,
  0x73, 0xb2, 0x01, 0xbe, 0xe1, 0x51, 0x31, 0xbe, 0x29, 0x36, 0xb2, 0xbe,
  0x02, 0x44, 0x52, 0xbe, 0x0d, 0xf3, 0xaf, 0x3e, 0x18, 0x15, 0xd7, 0xbe,
  0x46, 0x01, 0xbd, 0x3e, 0xb4, 0x27, 0xa5, 0xbe, 0x79, 0x2b, 0x33, 0xbe,
  0xf8, 0x58, 0x78, 0xbc, 0xc7, 0xca, 0xb8, 0x3e, 0xd7, 0xc9, 0x02, 0x3e,
  0x38, 0x94, 0x43, 0xbe, 0xae, 0x2f, 0xf3, 0x3f, 0x9f, 0xbb, 0x10, 0x3e,
  0x4f, 0x59, 0x65, 0x3d, 0xcd, 0x62, 0xf6, 0xbd, 0x0f, 0xe4, 0xc2, 0xbe,
  0x13, 0x2a, 0xe5, 0xbe, 0xa9, 0x64, 0xaa, 0xbe, 0x31, 0x4a, 0x03, 0x3e,
  0x85, 0x90, 0x02, 0xbc, 0xf2, 0x8c, 0xa0, 0x3d, 0x40, 0xe0, 0xf0, 0xbd,
  0xe8, 0xe3, 0x69, 0xbd, 0xd6, 0x26, 0x89, 0x3c, 0xbb, 0xeb, 0x88, 0x3d,
  0x9a, 0xdd, 0x3a, 0xbd, 0x11, 0x7d, 0x68, 0xbe, 0x53, 0x2d, 0x06, 0x40,
  0x3b, 0x50, 0x28, 0x3e, 0x2f, 0xcf, 0xa5, 0xbd, 0x7f, 0x36, 0xdc, 0x3d,
  0x5a, 0x26, 0xa2, 0xbe, 0x4b, 0xb0, 0x86, 0x3e, 0x29, 0x8b, 0xbe, 0xbe,
  0xf8, 0x98, 0x3b, 0x3d, 0x4b, 0x2f, 0xbd, 0xbc, 0x99, 0xaf, 0x4e, 0xbc,
  0x3d, 0xd4, 0x57, 0xbe, 0x23, 0x84, 0x94, 0x3d, 0x0b, 0x08, 0x93, 0xbd,
  0x80, 0xb2, 0x9d, 0x3e, 0x1b, 0xf1, 0xbf, 0xbd, 0xc0, 0x10, 0xe3, 0x3e,
  0x8b, 0x08, 0xdb, 0x3e, 0x0c, 0x1e, 0x07, 0xbd, 0xe0, 0xdf, 0x26, 0xbe,
  0x80, 0x27, 0xb4, 0x3e, 0x58, 0x08, 0x62, 0xbe, 0xbb, 0x66, 0xd8, 0x3d,
  0x00, 0x72, 0x9f, 0xbe, 0x5a, 0xea, 0x1c, 0x3d, 0x26, 0x5a, 0xa1, 0xbe,
  0x0c, 0x60, 0xd5, 0x3d, 0xb7, 0x07, 0xad, 0xbd, 0x62, 0xe4, 0xab, 0xbe,
  0xb0, 0x85, 0x09, 0xbb, 0x04, 0x1c, 0x49, 0x3e, 0xa8, 0x0c, 0xb8, 0xbd,
  0x90, 0xb3, 0xab, 0x3d, 0xd9, 0xe5, 0xbb, 0x3f, 0xc2, 0x60, 0x90, 0x3e,
  0xf8, 0x5f, 0x45, 0xbe, 0xbd, 0x2d, 0x80, 0x3e, 0xde, 0x1e, 0x04, 0xbd,
  0xe1, 0xa7, 0xea, 0xbd, 0xef, 0xed, 0xcc, 0x3d, 0x82, 0x4a, 0xcc, 0xbd,
  0x87, 0xd7, 0x9d, 0xbd, 0x43, 0xad, 0x8a, 0x3d, 0x22, 0x41, 0x18, 0x3c,
  0xdc, 0xa1, 0x8b, 0x3b, 0x04, 0xfe, 0x45, 0xbd, 0x00, 0x68, 0x88, 0xbc,
  0xcc, 0x49, 0x8a, 0x3e, 0x73, 0x8b, 0x28, 0x3f, 0xc7, 0x3a, 0x99, 0x3f,
  0x04, 0xd2, 0xd7, 0x3e, 0xee, 0x03, 0x8c, 0xbe, 0xe8, 0xf9, 0x33, 0x3e,
  0xcd, 0x18, 0x6c, 0x3e, 0xce, 0x1c, 0xee, 0xbd, 0xa4, 0x0f, 0x8a, 0x3d,
  0xf4, 0x75, 0x36, 0x3e, 0x70, 0x21, 0x9f, 0xbd, 0x40, 0x20, 0xbb, 0x3d,
  0xf4, 0x9a, 0xa0, 0xbe, 0x20, 0x03, 0x1f, 0x3d, 0x92, 0x8d, 0x07, 0x3c,
  0x76, 0xc5, 0x07, 0x3e, 0x45, 0xa3, 0x88, 0x3d, 0x19, 0x3d, 0xf4, 0x3e,
  0xf8, 0x28, 0x88, 0x3f, 0xa8, 0x22, 0x00, 0x3f, 0x33, 0xb1, 0x2f, 0xbd,
  0xf5, 0x8e, 0x80, 0xbe, 0x60, 0x2d, 0x0b, 0xbe, 0xe5, 0x91, 0x8b, 0xbb,
  0x9a, 0x30, 0x81, 0x3e, 0x61, 0x98, 0x00, 0x3f, 0x0a, 0x4f, 0x15, 0xbe,
  0x18, 0x61, 0x31, 0x3e, 0x9e, 0x24, 0xa1, 0xbe, 0xeb, 0xc0, 0x86, 0xbe,
  0xa2, 0xd1, 0x43, 0x3b, 0xa8, 0xfb, 0xa5, 0x3e, 0xef, 0x3e, 0xe6, 0x3d,
  0xe2, 0xc5, 0x8b, 0x3f, 0x6f, 0x51, 0x94, 0x3f, 0xe7, 0x1a, 0xb8, 0x3e,
  0xdc, 0xb1, 0x76, 0xbd, 0x1d, 0xf0, 0xa1, 0x3e, 0xa1, 0x5f, 0xa3, 0x3d,
  0xf0, 0xe3, 0x85, 0xbd, 0xc4, 0x6f, 0xb6, 0xbe, 0xc1, 0xe9, 0xfa, 0x3d,
  0x62, 0x7a, 0xdf, 0xbe, 0x78, 0x65, 0xa6, 0x3e, 0xfa, 0x73, 0x56, 0xbe,
  0x14, 0x0f, 0x79, 0xbe, 0xba, 0x59, 0x8b, 0x3c, 0x2e, 0xfd, 0x7e, 0x3e,
  0xa5, 0x34, 0xd4, 0x3d, 0xa4, 0xbd, 0x9a, 0xbb, 0x45, 0xaf, 0x9c, 0x3f,
  0x08, 0xd6, 0x41, 0x3d, 0xcb, 0x2b, 0x9b, 0xbd, 0x1d, 0x66, 0x2d, 0x3e,
  0x0b, 0x9d, 0x8f, 0xbe, 0xa0, 0x49, 0x98, 0x3d, 0x75, 0x99, 0xf7, 0xbd,
  0xf2, 0x49, 0x65, 0x3e, 0x6e, 0xeb, 0x19, 0xbe, 0x30, 0x1b, 0xb8, 0x3e,
  0xc2, 0x81, 0xfd, 0xbd, 0x52, 0x65, 0x7e, 0xbd, 0x5d, 0xd3, 0x53, 0x3c,
  0xb8, 0x85, 0x2a, 0xbe, 0x49, 0x69, 0x8c, 0xbd, 0x04, 0x5b, 0x8b, 0xbe,
  0xf5, 0x0e, 0x5c, 0x3f, 0x7d, 0xb3, 0xe0, 0x3d, 0x56, 0x3f, 0xe4, 0xbd,
  0xc5, 0xd0, 0x41, 0x3e, 0x98, 0xfe, 0x9a, 0xbd, 0xec, 0x95, 0x3a, 0xbe,
  0xf6, 0xbd, 0x4c, 0xbe, 0x49, 0x16, 0x8e, 0xbc, 0x2e, 0x98, 0x95, 0x3d,
  0x01, 0x56, 0x64, 0x3e, 0xf9, 0x78, 0x17, 0x3c, 0x24, 0x22, 0x84, 0x3e,
  0x16, 0xcd, 0x82, 0x3b, 0x86, 0x76, 0x9e, 0xbe, 0xeb, 0x02, 0x66, 0xbe,
  0xd5, 0x76, 0x4b, 0x3d, 0x1f, 0xe9, 0xb7, 0x3e, 0xc7, 0x28, 0xeb, 0xbd,
  0x26, 0x85, 0x28, 0x3d, 0xef, 0x61, 0x2b, 0x3d, 0x2d, 0x67, 0x9a, 0xbe,
  0x04, 0x6c, 0x5b, 0xbe, 0x8d, 0xaf, 0x47, 0xbe, 0xbc, 0x6e, 0x02, 0xbf,
  0x94, 0xf1, 0x9c, 0xbb, 0x29, 0xff, 0xe6, 0x3e, 0xee, 0xf4, 0xe6, 0x3e,
  0xa1, 0x9a, 0x93, 0x3e, 0x3b, 0xe0, 0x6f, 0x3d, 0x72, 0x0c, 0xb4, 0xbe,
  0x78, 0xeb, 0x59, 0x3e, 0xc6, 0xd8, 0x10, 0x3e, 0xae, 0x03, 0xb0, 0xbd,
  0xb8, 0xe1, 0x49, 0xbe, 0x3d, 0x7b, 0x23, 0x3e, 0x59, 0x85, 0x8c, 0xbe,
  0xba, 0x78, 0xe7, 0x3d, 0xee, 0xeb, 0xd5, 0x3b, 0x1e, 0x7c, 0x2a, 0x3e,
  0xf7, 0x7e, 0x9b, 0xbe, 0x75, 0x2a, 0x00, 0x3e, 0x81, 0xd2, 0x7d, 0x3e,
  0x6b, 0x08, 0xbc, 0x3e, 0x3e, 0x3c, 0x90, 0x3e, 0xe1, 0xfb, 0xd6, 0x3d,
  0x00, 0xd0, 0x71, 0xbd, 0x05, 0xbd, 0x51, 0x3e, 0x47, 0xbf, 0x99, 0x3e,
  0xb1, 0x07, 0x36, 0xbe, 0xe0, 0x1e, 0xc8, 0x3c, 0x54, 0xb8, 0xd3, 0x3d,
  0xf4, 0x87, 0x41, 0xbe, 0x84, 0xb9, 0xb5, 0x3c, 0x89, 0x94, 0xb2, 0x3d,
  0xc6, 0xfa, 0x81, 0x3e, 0x20, 0x27, 0xaf, 0xbe, 0x2e, 0xb7, 0x3b, 0x3d,
  0xfe, 0xdf, 0x01, 0xbc, 0x8f, 0xd2, 0xdf, 0x3e, 0xee, 0x87, 0xb5, 0x3d,
  0x93, 0x65, 0xa6, 0x3d, 0xef, 0xcf, 0xf5, 0x3d, 0xfe, 0x1a, 0x39, 0x3e,
  0xbe, 0x39, 0x53, 0x3e, 0xbf, 0xa6, 0x23, 0xbe, 0x07, 0x8e, 0xe2, 0x3c,
  0x0d, 0x3c, 0xd4, 0x3d, 0x83, 0x8b, 0xef, 0xbc, 0x95, 0x78, 0x47, 0x3e,
  0x82, 0x58, 0x03, 0x3f, 0xc5, 0xdb, 0x3e, 0x3d, 0x8d, 0xaa, 0xc8, 0xbd,
  0xf4, 0xe7, 0x2c, 0x3d, 0x4c, 0xf2, 0xb1, 0xbd, 0xae, 0x4c, 0x96, 0x3e,
  0x15, 0x79, 0x11, 0x3e, 0x9c, 0xea, 0x30, 0x3d, 0xd2, 0x87, 0xad, 0xbd,
  0xfe, 0xd0, 0x0b, 0x3e, 0x2b, 0x13, 0x4e, 0x3c, 0xe6, 0x58, 0x2b, 0xbe,
  0xe9, 0xe8, 0xdc, 0xbe, 0xfb, 0x86, 0x53, 0x3d, 0x4b, 0xbb, 0x86, 0xbe,
  0xad, 0x73, 0x9a, 0x3c, 0xfa, 0x88, 0x0a, 0xbe, 0xb3, 0x7d, 0x93, 0xbe,
  0x7e, 0xd9, 0x59, 0xbe, 0x35, 0x06, 0xc0, 0x3a, 0x73, 0x7d, 0xab, 0x3d,
  0x98, 0xfb, 0xb2, 0x3d, 0x92, 0xd9, 0x8f, 0x3d, 0xe6, 0xfe, 0xba, 0x3c,
  0x57, 0xcb, 0x2c, 0xbd, 0xc8, 0x31, 0x86, 0xbd, 0x60, 0xe8, 0x24, 0x3f,
  0x17, 0x74, 0x63, 0xbe, 0x7b, 0xdc, 0xf2, 0xbe, 0x5b, 0x75, 0x99, 0xbd,
  0x0c, 0xc1, 0xb0, 0xbe, 0x76, 0x90, 0x2c, 0x3d, 0xcc, 0xaa, 0x7e, 0x3c,
  0x7b, 0x20, 0x18, 0xbe, 0x20, 0x9a, 0xde, 0xbe, 0xeb, 0x26, 0x6f, 0x3d,
  0xf7, 0x6c, 0x37, 0x3e, 0xb5, 0xa2, 0x2a, 0xbd, 0x61, 0x45, 0x40, 0x3d,
  0xc3, 0xaf, 0x89, 0xbd, 0x73, 0xd3, 0x8c, 0xbd, 0xab, 0x3d, 0x9c, 0x3c,
  0x72, 0x95, 0x34, 0x3e, 0x49, 0xb4, 0x3f, 0xbe, 0x3b, 0xc7, 0xcb, 0xbe,
  0xe1, 0x58, 0xcc, 0xbd, 0x8a, 0x34, 0x83, 0xbe, 0x1e, 0xce, 0xd1, 0x3c,
  0x95, 0xed, 0xe8, 0xbb, 0x54, 0x07, 0x27, 0xbe, 0x93, 0x3f, 0x1b, 0xbe,
  0x09, 0x66, 0xf2, 0x3d, 0xda, 0xa6, 0x80, 0xbe, 0x45, 0xe2, 0x61, 0x3e,
  0xd4, 0x98, 0x36, 0x3e, 0x3e, 0xba, 0x66, 0xbe, 0xef, 0x5f, 0x98, 0x3d,
  0x39, 0x5e, 0xdb, 0xbd, 0xa7, 0xa5, 0x81, 0xbe, 0x67, 0x0e, 0x4a, 0xbd,
  0xc9, 0x22, 0x59, 0xbd, 0xbb, 0xec, 0xc6, 0x3e, 0x26, 0x26, 0x0c, 0x3e,
  0x45, 0x8f, 0xa3, 0x3e, 0x6e, 0x75, 0x8e, 0x3e, 0xba, 0x23, 0x8c, 0x3e,
  0x03, 0xc8, 0x84, 0x3d, 0x7c, 0x2a, 0x02, 0x3e, 0x99, 0xdd, 0xcd, 0x3b,
  0x75, 0xa8, 0x66, 0xbe, 0x7c, 0x1f, 0x74, 0x3e, 0x43, 0xde, 0x2b, 0xbe,
  0x9c, 0x0a, 0x2b, 0x3d, 0x5c, 0x73, 0xce, 0x3b, 0x06, 0x76, 0x2b, 0xbe,
  0xe5, 0x33, 0x71, 0xbe, 0x54, 0x46, 0xed, 0xbd, 0x41, 0x81, 0xf9, 0x3c,
  0x78, 0x73, 0xab, 0xbe, 0x6a, 0xa8, 0x20, 0xbe, 0xf4, 0xef, 0x4c, 0xbe,
  0x60, 0x3d, 0x53, 0xbe, 0xe1, 0x04, 0x56, 0x3e, 0x0a, 0xbb, 0xfe, 0xbd,
  0x1e, 0xb3, 0xaa, 0x3b, 0x78, 0x1d, 0x29, 0xbe, 0x59, 0x17, 0xa2, 0xbd,
  0x62, 0x74, 0x16, 0xbe, 0xdb, 0x5f, 0x04, 0xbd, 0x40, 0x9f, 0x64, 0xbe,
  0xe5, 0x0f, 0xdf, 0x3b, 0x34, 0x02, 0xda, 0x3d, 0x1a, 0x84, 0xe8, 0xbe,
  0x20, 0x59, 0x32, 0xbc, 0x5e, 0x40, 0x7e, 0xbe, 0xd0, 0x7a, 0x8a, 0xbe,
  0x45, 0xac, 0x6b, 0x3d, 0x50, 0xad, 0x91, 0xbd, 0x13, 0xde, 0x00, 0x3e,
  0x97, 0x83, 0xd9, 0xbc, 0x66, 0x6c, 0x54, 0x3e, 0x90, 0x06, 0x0d, 0xbe,
  0xaa, 0xfe, 0x1d, 0xbd, 0xc5, 0xe4, 0x8d, 0xbe, 0xc4, 0xb2, 0x44, 0xbe,
  0xd5, 0x97, 0xb1, 0xbe, 0x22, 0x52, 0xcf, 0xbd, 0x91, 0xa3, 0xdb, 0x3d,
  0x20, 0x2d, 0x62, 0xbe, 0x34, 0x01, 0xf1, 0xbc, 0x07, 0x1b, 0x8d, 0xbc,
  0xde, 0x55, 0x8d, 0xbe, 0xd1, 0x54, 0xd2, 0x3d, 0xa8, 0x79, 0x88, 0xbc,
  0x30, 0x76, 0x42, 0xbd, 0x44, 0x71, 0x4c, 0xbc, 0x88, 0x6e, 0x06, 0x3e,
  0x2f, 0xc3, 0xfd, 0x3d, 0x25, 0x88, 0x65, 0x3e, 0xc4, 0xcd, 0xa8, 0x3a,
  0x7c, 0x4f, 0xc8, 0xbd, 0x15, 0xd0, 0x08, 0xbd, 0xcd, 0x69, 0x01, 0x3e,
  0xd7, 0xa2, 0x4b, 0xbc, 0xf0, 0xa5, 0xde, 0x3d, 0x84, 0xd8, 0x28, 0xbe,
  0xd0, 0x9d, 0x95, 0x3e, 0x0a, 0x72, 0xc2, 0x3c, 0xa6, 0x41, 0xa6, 0x3e,
  0x05, 0x25, 0xc7, 0x3e, 0x98, 0xf8, 0x70, 0x3e, 0x88, 0xab, 0x8b, 0x3e,
  0xe5, 0xe1, 0x6c, 0xbb, 0xe3, 0xdc, 0x14, 0x3d, 0xf9, 0xc5, 0xaf, 0x3e,
  0x7e, 0xf8, 0x9f, 0x3d, 0xd4, 0xd4, 0x34, 0xbe, 0x87, 0x5f, 0x86, 0xbe,
  0x6a, 0xd9, 0xfc, 0xbd, 0x89, 0x7c, 0x5d, 0xbc, 0x7a, 0x1d, 0x9b, 0x3c,
  0x1d, 0x9f, 0x5c, 0x3e, 0x29, 0x0f, 0x63, 0x3d, 0xb6, 0x6d, 0x7b, 0x3e,
  0x6a, 0xe4, 0xce, 0x3e, 0x4a, 0x16, 0xe4, 0x3e, 0xa1, 0x80, 0x10, 0x3e,
  0x6a, 0xbe, 0x2c, 0xbe, 0x2d, 0x2b, 0x8f, 0x3d, 0xac, 0x31, 0xc5, 0xbe,
  0x0c, 0xbf, 0x3a, 0x3e, 0x2c, 0xc9, 0x30, 0xbd, 0xc3, 0xcd, 0x55, 0x3d,
  0xd5, 0xb5, 0x80, 0xbd, 0x91, 0xa3, 0x61, 0x3e, 0x18, 0xe9, 0xec, 0x3c,
  0x06, 0x1c, 0xbe, 0xbe, 0xbb, 0x8a, 0x9e, 0x3d, 0x1c, 0x8a, 0x8f, 0xbe,
  0x9d, 0x68, 0x95, 0x3b, 0xcf, 0x0e, 0x1c, 0xbe, 0x1e, 0xff, 0x0e, 0xbe,
  0x45, 0x6b, 0x63, 0x3e, 0x71, 0x26, 0xed, 0xbc, 0x16, 0x2e, 0x52, 0x3e,
  0x7e, 0xf4, 0x8c, 0xbe, 0x5b, 0x23, 0x1c, 0xbe, 0x7c, 0x01, 0xa2, 0xbe,
  0x19, 0x0f, 0xde, 0x3d, 0x53, 0xd7, 0x6e, 0xbe, 0x40, 0xcc, 0x90, 0x3d,
  0x2d, 0xad, 0xfd, 0x3d, 0x83, 0xaa, 0xbb, 0xbd, 0xb4, 0x59, 0x36, 0xbc,
  0x1f, 0x5f, 0xec, 0x3d, 0x0c, 0xa3, 0x3f, 0xbd, 0x29, 0x30, 0xbd, 0x3d,
  0xf9, 0xed, 0xc6, 0x3c, 0x74, 0x5a, 0xde, 0xbc, 0xae, 0xd8, 0x4b, 0xbe,
  0x51, 0x66, 0xcd, 0x3e, 0x13, 0xd0, 0x4b, 0xbe, 0x70, 0x86, 0x50, 0x3d,
  0xbf, 0x01, 0xc0, 0xbe, 0x6b, 0x13, 0xaf, 0xbd, 0x34, 0xe0, 0x31, 0x3e,
  0xed, 0xaf, 0x74, 0x3e, 0xfd, 0x48, 0x89, 0x3e, 0xf9, 0x10, 0xa9, 0x3e,
  0x73, 0x57, 0xe2, 0xbb, 0x36, 0x6d, 0x34, 0x3b, 0x44, 0x25, 0xf9, 0xbd,
  0x3e, 0x95, 0x91, 0x3d, 0x01, 0x23, 0x1a, 0x3e, 0xb1, 0x21, 0x4d, 0x3d,
  0xf4, 0xa0, 0x99, 0xbe, 0x5d, 0x4e, 0xb4, 0x3d, 0xb8, 0x22, 0x60, 0xbe,
  0xaa, 0x48, 0xb1, 0x3c, 0x01, 0x26, 0xb7, 0xbe, 0x87, 0xac, 0xad, 0xbc,
  0x6e, 0xa5, 0x10, 0x3f, 0xa1, 0xca, 0xad, 0x3e, 0x34, 0x10, 0xc5, 0x3e,
  0x3f, 0x77, 0x2f, 0x3f, 0xac, 0x7d, 0x9e, 0x3d, 0x7e, 0x57, 0x0f, 0x3d,
  0xa3, 0x76, 0x02, 0xbd, 0x32, 0x62, 0xbd, 0x3d, 0x31, 0xc9, 0x3c, 0x3e,
  0x5e, 0xe9, 0x21, 0xbe, 0x3e, 0xaf, 0x3f, 0xbd, 0x21, 0x64, 0x77, 0x3e,
  0xeb, 0x83, 0x9d, 0xbe, 0x38, 0xe4, 0x85, 0x3b, 0x25, 0x3f, 0xd6, 0xbe,
  0x7c, 0x6e, 0xe3, 0xbd, 0xa3, 0x3d, 0xae, 0x3e, 0xcf, 0x7a, 0xa8, 0x3e,
  0xcd, 0x93, 0x27, 0x3f, 0xc7, 0x6e, 0x3a, 0x3e, 0x5e, 0x18, 0xa3, 0xbd,
  0xca, 0x8d, 0x68, 0xbe, 0xee, 0xe1, 0x40, 0xbc, 0x3e, 0x70, 0x42, 0xbe,
  0xd9, 0xc9, 0xee, 0x3d, 0xd2, 0xa9, 0x5a, 0x3e, 0xa7, 0x56, 0xdd, 0x3d,
  0xaf, 0xa2, 0x09, 0x3f, 0xb0, 0x04, 0x33, 0x3d, 0xb0, 0xa5, 0xd8, 0xbd,
  0xee, 0x99, 0xa6, 0xbe, 0xf1, 0xc1, 0x1c, 0xbd, 0x80, 0x54, 0x5e, 0xbd,
  0x0f, 0x6a, 0x1a, 0x3f, 0x0b, 0x43, 0x08, 0x3f, 0x26, 0x72, 0x44, 0x3e,
  0x2c, 0xa3, 0xbb, 0xbd, 0x82, 0xb6, 0x47, 0xbe, 0xa6, 0xe4, 0x08, 0x3e,
  0x29, 0xe7, 0xad, 0x3c, 0xf1, 0xda, 0xc2, 0xbd, 0x63, 0x3e, 0x2d, 0xbe,
  0x02, 0xe0, 0x4e, 0x3e, 0x1a, 0x15, 0xe8, 0x3d, 0xe0, 0xa0, 0xac, 0xbe,
  0xa4, 0xd7, 0xf4, 0x3d, 0x11, 0x26, 0x6e, 0xbe, 0xfd, 0xf4, 0x2f, 0x3e,
  0xbf, 0xd4, 0x25, 0xbe, 0x57, 0x5e, 0x9e, 0x3e, 0x86, 0x9c, 0x3e, 0x3f,
  0xc9, 0x3a, 0x6b, 0x3d, 0xed, 0xab, 0x37, 0xbd, 0x2c, 0x1c, 0xa4, 0xbc,
  0xab, 0x30, 0x35, 0xbe, 0xd5, 0x79, 0xe9, 0x3b, 0x22, 0x3c, 0x26, 0xbe,
  0x76, 0xb5, 0x0e, 0xbd, 0x9c, 0xd1, 0x1c, 0xbe, 0x5b, 0x73, 0x96, 0x3d,
  0x1d, 0x60, 0x3d, 0xbe, 0x23, 0x74, 0x21, 0xbc, 0x51, 0x2a, 0xc6, 0xbe,
  0x9d, 0xc1, 0x5c, 0x3d, 0x65, 0x67, 0x82, 0xbe, 0x4e, 0x08, 0xa3, 0x3e,
  0x1b, 0x91, 0x52, 0x3f, 0xcb, 0xd6, 0x40, 0x3e, 0x98, 0x21, 0x13, 0xbe,
  0x71, 0x2f, 0x3b, 0xbc, 0x89, 0xf9, 0x71, 0x3b, 0x87, 0x69, 0x8f, 0xbe,
  0xdf, 0x1f, 0x5c, 0xbe, 0x63, 0xb0, 0x2b, 0xbd, 0xbe, 0xd8, 0xa0, 0xbd,
  0x8d, 0x7d, 0x03, 0xbe, 0xf7, 0xd4, 0x42, 0xbe, 0x1d, 0xe7, 0xbd, 0xbd,
  0x03, 0x32, 0x99, 0xbe, 0xa2, 0x66, 0x25, 0xbd, 0x83, 0x6b, 0x09, 0xbe,
  0x24, 0x85, 0x30, 0xbe, 0x89, 0xd8, 0xbe, 0x3d, 0xfa, 0x33, 0xa9, 0xbe,
  0x09, 0xde, 0x7f, 0x3d, 0xc7, 0xe1, 0x6c, 0xbe, 0x2d, 0x00, 0x47, 0xbe,
  0xda, 0x86, 0x0b, 0x3e, 0xf3, 0x26, 0x0a, 0xbe, 0x99, 0x28, 0x0c, 0x3e,
  0xac, 0xdb, 0x79, 0xbe, 0x4f, 0x16, 0x65, 0xbd, 0x3f, 0xcd, 0x30, 0x3e,
  0xce, 0x94, 0x89, 0xbc, 0x77, 0x5d, 0x56, 0xbe, 0xef, 0x91, 0x57, 0xbe,
  0x5b, 0x74, 0xfa, 0xbb, 0x00, 0x6f, 0xb8, 0xbd, 0x9f, 0x7a, 0x01, 0xbe,
  0x95, 0x66, 0x07, 0x3c, 0xc0, 0x59, 0x62, 0xbe, 0x64, 0x03, 0x38, 0xbe,
  0xe2, 0x39, 0x07, 0x3e, 0x79, 0x24, 0xed, 0xbc, 0x04, 0xff, 0xb2, 0x3d,
  0x65, 0x61, 0xd5, 0x3a, 0xc4, 0xd6, 0xa4, 0xbe, 0x7b, 0xe7, 0x06, 0xbe,
  0xa4, 0x79, 0x0c, 0xba, 0xa5, 0xb8, 0xc7, 0x3d, 0xcd, 0x1e, 0x3f, 0xbd,
  0x7a, 0xdc, 0xf1, 0xbd, 0x6e, 0x32, 0xb3, 0x3c, 0x74, 0xb1, 0x4a, 0xbe,
  0x84, 0xc0, 0x54, 0x3c, 0x57, 0x32, 0x2a, 0xbe, 0xcd, 0x60, 0xe3, 0xbd,
  0xdd, 0x3c, 0xc6, 0x3c, 0x76, 0x46, 0x1c, 0x3e, 0x7f, 0x77, 0x0a, 0xbe,
  0xbd, 0x8d, 0xf3, 0xbc, 0xf7, 0x2d, 0x22, 0xbe, 0x3f, 0xf8, 0xac, 0xbc,
  0x82, 0x77, 0x24, 0xbe, 0xf9, 0x50, 0x9f, 0xbd, 0x4c, 0x60, 0xf1, 0xbc,
  0x6f, 0xa4, 0x8f, 0xbd, 0x1b, 0x8b, 0xfa, 0xbc, 0xa3, 0x3c, 0x4a, 0x3d,
  0x46, 0x0a, 0xdb, 0x3d, 0xe3, 0x53, 0x08, 0xbd, 0x9c, 0xb1, 0x69, 0xbe,
  0x3d, 0x4f, 0x23, 0xbe, 0xa1, 0x8e, 0x4d, 0xbb, 0x92, 0x38, 0x16, 0x3e,
  0xef, 0xbc, 0x00, 0xbe, 0x40, 0xda, 0x90, 0x3d, 0x3e, 0xf4, 0x09, 0xbe,
  0x16, 0x1a, 0x68, 0xbd, 0xd2, 0x9f, 0x06, 0x3c, 0x26, 0x06, 0x26, 0xbe,
  0xdd, 0xf0, 0x8d, 0xba, 0xbc, 0xf7, 0xd3, 0xbc, 0xd2, 0x86, 0x80, 0xbd,
  0x1a, 0xe3, 0x29, 0xbd, 0xa4, 0x4a, 0x23, 0x3e, 0xcf, 0x83, 0xa2, 0x3c,
  0x6f, 0xfe, 0x08, 0xbd, 0x23, 0xe9, 0x09, 0xbe, 0x4d, 0x99, 0x99, 0x3d,
  0xfd, 0x23, 0x04, 0x3e, 0xea, 0x47, 0x51, 0xbd, 0x3c, 0x7a, 0x9f, 0x3d,
  0xe0, 0x56, 0x9a, 0xbd, 0xda, 0xeb, 0x4a, 0xbc, 0x29, 0x31, 0xe7, 0x3d,
  0x70, 0xde, 0xa6, 0x3d, 0x23, 0x58, 0xb6, 0x3d, 0x7c, 0xf2, 0x9f, 0xbe,
  0x2d, 0xb0, 0x78, 0xbe, 0x8b, 0x8f, 0x85, 0x3d, 0xae, 0x24, 0x38, 0xbe,
  0x7a, 0xa5, 0x28, 0x3e, 0xa4, 0x5d, 0x13, 0xbe, 0x4d, 0x3c, 0xeb, 0xbd,
  0xf6, 0x5d, 0x02, 0x3e, 0x95, 0x91, 0xf8, 0xbd, 0x1e, 0xb2, 0x2d, 0x3e,
  0xe6, 0xb6, 0x43, 0x3b, 0x5d, 0xcd, 0xb6, 0x3d, 0x43, 0xc0, 0x3e, 0xbe,
  0xd4, 0xe0, 0x5f, 0xbe, 0x87, 0x18, 0xed, 0xbd, 0xfd, 0x3c, 0xb0, 0x3c,
  0x01, 0x74, 0x9d, 0xbe, 0xa2, 0xc4, 0xea, 0xbd, 0x47, 0xf5, 0x4a, 0xbe,
  0x37, 0xfb, 0x32, 0xbd, 0xe6, 0xcf, 0xe9, 0x3b, 0x15, 0x76, 0x82, 0xbe,
  0xfb, 0x61, 0x88, 0xbc, 0x75, 0xc3, 0x98, 0xbb, 0x5c, 0x91, 0x52, 0xbd,
  0x0a, 0xb8, 0x86, 0x3d, 0x20, 0xdd, 0xce, 0x3d, 0xe8, 0x81, 0x40, 0xbd,
  0x2f, 0x8f, 0xd0, 0xbd, 0xb4, 0xce, 0x92, 0xbe, 0xac, 0x7e, 0x8a, 0xbd,
  0xe6, 0x05, 0xc1, 0xbe, 0xde, 0x88, 0x75, 0xbe, 0x4d, 0xfb, 0x8b, 0xbe,
  0x60, 0xaf, 0x52, 0xbe, 0x2e, 0x61, 0x42, 0xbe, 0x3f, 0x9e, 0x0a, 0xbe,
  0x82, 0x11, 0x0c, 0xbf, 0xfd, 0x86, 0xeb, 0xbe, 0xad, 0xab, 0x04, 0xbe,
  0x0e, 0x47, 0x03, 0xbe, 0x10, 0x76, 0x26, 0xbe, 0xa1, 0x37, 0x18, 0xbe,
  0x30, 0x93, 0x82, 0xbe, 0x6d, 0x24, 0xd3, 0x3c, 0xc5, 0x34, 0x69, 0xbd,
  0xce, 0xe6, 0xee, 0x3d, 0x82, 0x6f, 0x2f, 0xbe, 0x9a, 0xf1, 0xa5, 0xbe,
  0xac, 0x64, 0x5e, 0x3d, 0x93, 0x7b, 0xd6, 0x3d, 0x94, 0x85, 0x14, 0xbd,
  0xcb, 0x5d, 0xe4, 0x3c, 0x1f, 0x44, 0x60, 0xbe, 0xee, 0x79, 0x9e, 0xbe,
  0x3d, 0xb3, 0x17, 0xbc, 0xb5, 0x3d, 0xc6, 0xbd, 0x05, 0x82, 0x10, 0x3e,
  0x11, 0x8d, 0xb7, 0x3c, 0xf6, 0x3a, 0xae, 0x3d, 0x20, 0x07, 0xa0, 0x3d,
  0x75, 0x88, 0xd4, 0x3d, 0x4e, 0x31, 0x11, 0xbd, 0x24, 0x4e, 0xa4, 0xbe,
  0x5b, 0xe8, 0x88, 0xbe, 0xbc, 0xfa, 0xa0, 0xbe, 0x99, 0x1f, 0x9b, 0xbd,
  0x98, 0xc4, 0x38, 0xbe, 0x19, 0x43, 0x3d, 0x3e, 0x0e, 0xb0, 0x90, 0xbe,
  0x2a, 0x5d, 0xfb, 0xbd, 0xc0, 0xbe, 0xde, 0xbd, 0xd5, 0xd0, 0x31, 0x3d,
  0x67, 0x39, 0x85, 0xbd, 0x6c, 0x02, 0xd4, 0xbd, 0x76, 0xde, 0x40, 0x3e,
  0xdf, 0x32, 0x80, 0xbc, 0x1c, 0x7a, 0xa3, 0x3d, 0x37, 0xe0, 0x26, 0xbe,
  0xfe, 0x5c, 0x6c, 0xbd, 0x46, 0x27, 0x9c, 0xbe, 0xa1, 0x4b, 0x04, 0xbe,
  0x0b, 0x7f, 0xc5, 0xbe, 0xda, 0xa3, 0x8c, 0xbd, 0xe1, 0x4b, 0xa5, 0xbd,
  0x7f, 0x0c, 0x37, 0xbf, 0x91, 0x28, 0xd6, 0xbe, 0xdf, 0xbe, 0x08, 0xbe,
  0xd6, 0x98, 0x3b, 0xbe, 0x87, 0x23, 0x8a, 0xbd, 0xcf, 0x00, 0x2d, 0xbe,
  0x4d, 0x2e, 0x0f, 0xbe, 0x78, 0x78, 0x86, 0x3b, 0x38, 0xe0, 0x91, 0x3d,
  0x8d, 0xa4, 0x80, 0x3c, 0x5f, 0xdc, 0x1c, 0xbd, 0x6d, 0xe1, 0x48, 0xbe,
  0xe2, 0xe0, 0x30, 0xbe, 0x88, 0xbe, 0xf0, 0xbe, 0xc0, 0x01, 0xae, 0x3e,
  0x01, 0xb1, 0x5e, 0x3e, 0xfc, 0x79, 0x5c, 0x3d, 0xeb, 0x39, 0x89, 0xbe,
  0xb7, 0x11, 0xc2, 0x3e, 0x18, 0x42, 0xc1, 0x3d, 0x89, 0xa8, 0x63, 0x3e,
  0xe0, 0x90, 0x03, 0x3f, 0x24, 0x79, 0xa8, 0x3b, 0x26, 0xfc, 0xf2, 0x3d,
  0x0b, 0x5f, 0x11, 0x3e, 0x9c, 0xda, 0x37, 0x3d, 0x63, 0x51, 0x3d, 0x3c,
  0xbe, 0xe0, 0x8c, 0xbd, 0xae, 0xec, 0xd3, 0xbe, 0xc7, 0xe7, 0x08, 0xbe,
  0xcf, 0xea, 0x69, 0x3e, 0x32, 0x18, 0x2f, 0xbe, 0xed, 0x34, 0x85, 0xbd,
  0xd1, 0x97, 0x9d, 0x3e, 0xfb, 0x75, 0xe2, 0x3d, 0x21, 0xc2, 0x5d, 0x3d,
  0xd5, 0xaf, 0xf0, 0x3e, 0xf1, 0x0b, 0x8c, 0x3e, 0x4a, 0x5a, 0xb2, 0x3d,
  0x7b, 0xd1, 0xee, 0xbb, 0xd7, 0xe2, 0x5e, 0x3e, 0x2f, 0x7f, 0x4f, 0x3e,
  0x7d, 0x0b, 0xa0, 0x3e, 0xa4, 0x31, 0xc1, 0x3d, 0x7d, 0x2f, 0x43, 0xbc,
  0x02, 0xfb, 0x05, 0x3d, 0x53, 0xb4, 0x47, 0xbd, 0xa5, 0x61, 0xa4, 0x3d,
  0x0f, 0x31, 0x28, 0x3e, 0xd4, 0x48, 0xa9, 0x3e, 0xc1, 0x77, 0x57, 0x3e,
  0x0f, 0x6c, 0x07, 0xbc, 0x9d, 0x69, 0x4d, 0x3b, 0x43, 0x7a, 0x03, 0x3e,
  0x56, 0x95, 0x32, 0xbd, 0xb4, 0x2a, 0x11, 0x3e, 0xd8, 0xf7, 0x4d, 0x3d,
  0xf4, 0xef, 0x5f, 0xbe, 0xd8, 0x14, 0xcd, 0x3d, 0xa7, 0x05, 0x67, 0xbe,
  0xac, 0x5d, 0x25, 0xbe, 0xee, 0x71, 0x34, 0xbd, 0x8e, 0xb1, 0x7a, 0xbd,
  0x47, 0xcc, 0xf1, 0xbd, 0xb5, 0x05, 0xee, 0xbd, 0xc7, 0x04, 0xf4, 0x3d,
  0x81, 0x1d, 0x38, 0x3e, 0x07, 0x8a, 0xd1, 0xbd, 0xcb, 0x20, 0x24, 0x3d,
  0x63, 0xc1, 0x0d, 0x3d, 0xbd, 0x85, 0x2c, 0xbd, 0xa2, 0xe4, 0xa1, 0xbd,
  0xdd, 0xa4, 0x2f, 0xbe, 0x59, 0x16, 0x63, 0xbe, 0x9a, 0x68, 0x3c, 0xbe,
  0x20, 0xb3, 0x44, 0xbe, 0xb4, 0x09, 0x20, 0xbe, 0xbd, 0xba, 0xb9, 0xbd,
  0x9b, 0xae, 0xf7, 0x3d, 0xf6, 0x66, 0x19, 0x3c, 0xb0, 0x05, 0x89, 0xbd,
  0xa6, 0x99, 0x4f, 0xbe, 0x36, 0x5a, 0x13, 0xbd, 0x29, 0x87, 0xf3, 0x3d,
  0x5d, 0x53, 0x52, 0xbe, 0x38, 0x8b, 0x02, 0xbe, 0x3c, 0x46, 0x0b, 0x3e,
  0x4f, 0x22, 0xfc, 0xbd, 0x37, 0x8a, 0x9f, 0x3d, 0xf9, 0x4d, 0x00, 0x3e,
  0x29, 0xfa, 0x48, 0xbe, 0x5c, 0x24, 0x4b, 0xbe, 0x20, 0xcd, 0x69, 0xbe,
  0x1a, 0x83, 0x6c, 0xbe, 0xaa, 0x30, 0x1e, 0xbe, 0x67, 0xed, 0xe0, 0x3d,
  0x23, 0xb7, 0xc7, 0xbd, 0x57, 0x58, 0xd2, 0x3a, 0x7f, 0x7e, 0x31, 0x3e,
  0x17, 0x6c, 0x4f, 0xbd, 0x39, 0x44, 0x5c, 0x3d, 0x8b, 0x79, 0xbd, 0x3d,
  0x5b, 0xf5, 0x2e, 0x3e, 0xd1, 0x09, 0xfa, 0xba, 0x2c, 0x64, 0xf0, 0xbd,
  0x1d, 0x77, 0xd2, 0xbd, 0x7c, 0x93, 0x59, 0xbd, 0x8f, 0x38, 0x3b, 0xbe,
  0xb0, 0x69, 0x1c, 0x3e, 0x3a, 0x8e, 0x9c, 0xbd, 0xb6, 0x5e, 0x73, 0x3d,
  0x4b, 0x2e, 0xbe, 0x3b, 0x1d, 0x94, 0xe4, 0xbc, 0xcd, 0x5d, 0x47, 0xbd,
  0xd4, 0xc3, 0x9e, 0x3d, 0x40, 0xe8, 0x8f, 0xbd, 0xd3, 0x10, 0x0f, 0x3d,
  0x29, 0x08, 0xa2, 0x3d, 0xb6, 0x93, 0xa2, 0xbc, 0x3f, 0x9e, 0x95, 0xbd,
  0x97, 0x57, 0x97, 0xbb, 0xb8, 0x9b, 0x08, 0xbe, 0x47, 0xf8, 0x15, 0xbe,
  0xc5, 0x11, 0x00, 0xbe, 0xd2, 0xef, 0x3d, 0xbc, 0x64, 0x39, 0x3a, 0x3c,
  0xd9, 0x28, 0xbc, 0x3c, 0xc9, 0x0b, 0x17, 0x3e, 0xa7, 0xf5, 0xd1, 0xbc,
  0x67, 0x36, 0x68, 0xbd, 0x70, 0x0a, 0x92, 0xbd, 0xab, 0x49, 0x1f, 0xbe,
  0xf6, 0x2a, 0x6e, 0x3d, 0x78, 0xd2, 0xf0, 0x3d, 0x6f, 0x99, 0x0b, 0x3e,
  0xaa, 0xa1, 0x56, 0xbe, 0x86, 0x25, 0x06, 0x3c, 0x58, 0x74, 0xc9, 0x3d,
  0x8c, 0xd8, 0x11, 0xbe, 0x84, 0xc7, 0x19, 0xbe, 0xde, 0xe6, 0xda, 0xbd,
  0x0e, 0xcf, 0xa5, 0x3d, 0xbf, 0x5f, 0x59, 0x3c, 0x9c, 0x8d, 0x46, 0x3e,
  0xac, 0x5d, 0x63, 0xbd, 0x2b, 0x4b, 0xa9, 0x3b, 0xa8, 0x93, 0x37, 0xbe,
  0x40, 0x60, 0x05, 0x3e, 0xfa, 0x03, 0xf0, 0x3b, 0x0a, 0x72, 0x65, 0xbe,
  0x03, 0x19, 0xdd, 0x3b, 0x4c, 0x8c, 0x13, 0xbe, 0xdb, 0x85, 0x68, 0xbd,
  0xa2, 0xdd, 0x09, 0xbd, 0xc0, 0x4e, 0xf2, 0x3d, 0x4f, 0xe9, 0x97, 0xbe,
  0xf8, 0x2c, 0x4c, 0xbe, 0xdd, 0x04, 0x53, 0xbd, 0x38, 0x96, 0xaa, 0x3c,
  0xf8, 0x9e, 0x92, 0xbb, 0xdc, 0x7a, 0xeb, 0xbd, 0x23, 0x94, 0x98, 0x3d,
  0x49, 0xd5, 0xd9, 0x3d, 0x17, 0x58, 0x5b, 0xbe, 0xe8, 0x1c, 0xa5, 0xbd,
  0xfb, 0x36, 0xa4, 0x3d, 0x9f, 0x96, 0x02, 0x3d, 0x1e, 0xe1, 0x11, 0xbe,
  0x5f, 0xaa, 0xfa, 0xbd, 0xb0, 0xc7, 0x66, 0xbe, 0xb1, 0x1b, 0x5b, 0xbe,
  0xfc, 0x13, 0x1b, 0xbe, 0xae, 0x54, 0xd8, 0xbd, 0x0a, 0x99, 0x57, 0xbe,
  0x63, 0x2c, 0x2e, 0x3e, 0xc3, 0x3f, 0x4a, 0x3e, 0xff, 0x8f, 0x5c, 0xbe,
  0xb7, 0x57, 0x10, 0x3d, 0x75, 0x0a, 0x3b, 0xbe, 0x79, 0xa3, 0xd6, 0xbc,
  0xac, 0x17, 0xa5, 0x3d, 0x36, 0x29, 0x72, 0x3a, 0x17, 0x4a, 0x93, 0xbd,
  0x67, 0x4d, 0x77, 0xbe, 0x3f, 0x30, 0xaa, 0x3d, 0x11, 0x5e, 0xfc, 0xbd,
  0x29, 0x89, 0x50, 0x3e, 0xc5, 0x26, 0x80, 0xbe, 0xd3, 0xc7, 0xf0, 0xbd,
  0xbe, 0x3c, 0xbd, 0xbd, 0x87, 0xad, 0x16, 0x3e, 0x46, 0x2e, 0x1a, 0x3e,
  0x58, 0x82, 0x4e, 0xbc, 0xa3, 0x32, 0x04, 0x3e, 0xc1, 0x2c, 0xdc, 0xbc,
  0x82, 0x88, 0x0f, 0x3e, 0xff, 0x34, 0x94, 0xbd, 0xb3, 0xf8, 0x45, 0x3e,
  0x69, 0x6f, 0x36, 0x3d, 0xb6, 0x97, 0x93, 0x3d, 0xe0, 0xb8, 0x58, 0x3d,
  0x8f, 0x51, 0xee, 0xbd, 0xb7, 0x4f, 0x1d, 0xbe, 0xe1, 0xb4, 0xf3, 0xbd,
  0x47, 0x0f, 0xf5, 0xbd, 0x4f, 0xf9, 0x14, 0x3e, 0xbc, 0xbd, 0x04, 0xbe,
  0x14, 0xfa, 0x0b, 0xbe, 0xdd, 0x79, 0xbe, 0x3b, 0x27, 0x5c, 0x8a, 0xbe,
  0xb9, 0x24, 0x94, 0xbd, 0xca, 0x65, 0xf4, 0xbd, 0x9e, 0x8a, 0x4e, 0x3e,
  0xe4, 0xf6, 0x05, 0xbe, 0x00, 0xfd, 0x04, 0x3c, 0x5b, 0x40, 0x82, 0xbe,
  0xcd, 0x6a, 0x33, 0xbe, 0x1f, 0x9e, 0x55, 0xbe, 0x61, 0x54, 0x51, 0xbe,
  0x29, 0x63, 0x04, 0xbe, 0xd1, 0xac, 0x49, 0xbd, 0x80, 0x0e, 0xef, 0xbd,
  0xf4, 0x52, 0x5e, 0x3c, 0xec, 0xd3, 0xfa, 0xbd, 0x50, 0x16, 0x95, 0xbc,
  0xa3, 0x83, 0x6f, 0xbe, 0x71, 0x5d, 0xc4, 0xbc, 0xfc, 0xb3, 0x03, 0x3e,
  0x04, 0x78, 0x91, 0x3d, 0x81, 0x28, 0x18, 0x3e, 0x9b, 0x33, 0x17, 0x3e,
  0xab, 0x94, 0x8e, 0x3b, 0xf4, 0xe8, 0xe8, 0x3c, 0x1f, 0xf0, 0x0f, 0xbe,
  0x84, 0xdb, 0x19, 0x3d, 0xc6, 0xf0, 0x38, 0xbe, 0xd9, 0xc7, 0xec, 0x3b,
  0x45, 0xd6, 0xbb, 0x3d, 0x77, 0x59, 0x2a, 0x3d, 0x72, 0xfe, 0x3b, 0xbe,
  0x8e, 0x38, 0x65, 0xbe, 0x6a, 0x31, 0x52, 0xbc, 0xa8, 0xc7, 0x93, 0x3d,
  0x8c, 0xf7, 0x0b, 0xbd, 0x87, 0xdd, 0x7f, 0xbc, 0x65, 0xc4, 0x1e, 0x3d,
  0x21, 0xe3, 0xf3, 0xbc, 0x00, 0x0e, 0x7f, 0xbd, 0xc0, 0x59, 0x19, 0x3e,
  0x99, 0x8a, 0x89, 0x3d, 0xd1, 0xc2, 0x40, 0x3e, 0xcf, 0xa7, 0x3c, 0xbd,
  0x04, 0x58, 0x35, 0xbd, 0x74, 0x5d, 0xac, 0x3d, 0xf8, 0x7f, 0x7c, 0xbd,
  0x9a, 0x13, 0x19, 0xbe, 0x46, 0x80, 0xaa, 0xbc, 0x00, 0xad, 0x03, 0xbe,
  0xa0, 0xbc, 0x15, 0x3e, 0x4b, 0xd2, 0x07, 0xbd, 0xb4, 0x64, 0xf5, 0x3d,
  0x6f, 0x08, 0x5a, 0xbe, 0x80, 0x49, 0xb9, 0xbb, 0x99, 0x87, 0x58, 0xbe,
  0x9d, 0x48, 0x36, 0x3e, 0xfc, 0xd5, 0x65, 0xbe, 0x08, 0x5c, 0xa2, 0x3d,
  0x28, 0xf2, 0x83, 0xbe, 0x93, 0xa1, 0xda, 0xbd, 0x4a, 0x0c, 0xfb, 0xbd,
  0xd5, 0x51, 0xc5, 0xbd, 0x66, 0xc6, 0x21, 0xbc, 0x9f, 0x91, 0xc2, 0xbd,
  0x14, 0xb0, 0xe6, 0xbd, 0x33, 0x9c, 0x0b, 0xbe, 0x8f, 0x14, 0xba, 0xbd,
  0x02, 0x31, 0xac, 0x3d, 0xae, 0xc1, 0xa6, 0xbd, 0x13, 0x73, 0xff, 0xbd,
  0x70, 0x7f, 0x93, 0xbd, 0xe4, 0xc5, 0x1d, 0x3e, 0x7a, 0x57, 0xce, 0xbd,
  0x82, 0x99, 0x96, 0x3e, 0xde, 0xea, 0x02, 0x3d, 0xd9, 0x5a, 0xdf, 0xbe,
  0x69, 0x50, 0xcb, 0xbe, 0x87, 0xe7, 0x66, 0x3e, 0x74, 0x2c, 0xea, 0x3e,
  0x57, 0x86, 0xea, 0xbd, 0x19, 0xf1, 0x04, 0x3e, 0xbb, 0xb7, 0x69, 0xbd,
  0x43, 0x54, 0xab, 0xbe, 0x1f, 0xad, 0x4d, 0xbe, 0x2f, 0x81, 0x68, 0xbe,
  0x02, 0x02, 0x22, 0xbf, 0x64, 0xa1, 0xb2, 0x3d, 0x18, 0x92, 0xdc, 0x3e,
  0xdd, 0x9d, 0xd0, 0x3e, 0x70, 0x1f, 0x97, 0x3e, 0xa0, 0x30, 0xd9, 0x3d,
  0xd9, 0x20, 0xd8, 0xbe, 0x2d, 0x33, 0x0a, 0x3e, 0x64, 0x6c, 0x60, 0x3e,
  0x75, 0xf6, 0xa5, 0xbe, 0xde, 0x4f, 0x72, 0xbe, 0xc2, 0x2f, 0xd5, 0x3d,
  0x2f, 0xd9, 0xfc, 0xbe, 0x39, 0x32, 0x9f, 0x3d, 0xdd, 0x83, 0x8f, 0x3d,
  0x5e, 0x70, 0x02, 0x3e, 0x8b, 0xc7, 0x71, 0xbe, 0xa5, 0x64, 0x26, 0x3e,
  0xe7, 0xa0, 0x93, 0x3e, 0x1c, 0xe9, 0xc1, 0x3e, 0x61, 0x78, 0x81, 0x3e,
  0x5a, 0x3b, 0x2e, 0x3d, 0x98, 0x42, 0xfd, 0xbd, 0xd6, 0xe6, 0x11, 0x3e,
  0x16, 0xeb, 0x58, 0x3e, 0x7a, 0x39, 0xf5, 0x3d, 0x65, 0xae, 0xa7, 0xbd,
  0x21, 0x05, 0x1e, 0x3e, 0x46, 0x22, 0x57, 0xbe, 0x4b, 0x21, 0xad, 0x3d,
  0x2f, 0x4e, 0xbc, 0x3d, 0x8a, 0x76, 0x84, 0x3e, 0x5d, 0xa9, 0x8f, 0xbe,
  0x59, 0x84, 0xc4, 0x3c, 0xd2, 0x7f, 0xb6, 0x3d, 0x5a, 0x54, 0x1e, 0x3f,
  0x48, 0x70, 0xee, 0x3d, 0x91, 0x3f, 0xc7, 0x3c, 0x87, 0xf5, 0x06, 0x3d,
  0x8d, 0x98, 0x7b, 0x3e, 0x90, 0x78, 0x11, 0x3e, 0x03, 0x8b, 0x8c, 0xbe,
  0xef, 0x56, 0xad, 0xbc, 0xd0, 0x08, 0x02, 0x3e, 0x20, 0x42, 0xf2, 0xbd,
  0x4e, 0x82, 0x51, 0x3e, 0x57, 0xf1, 0x30, 0x3e, 0x16, 0xc4, 0x02, 0x3e,
  0x56, 0xb4, 0x17, 0xbe, 0x80, 0x8b, 0x38, 0x3d, 0x5e, 0xfe, 0x47, 0x3e,
  0xa6, 0x2a, 0x81, 0x3e, 0x61, 0x5f, 0x83, 0x3d, 0xf1, 0x83, 0x2b, 0x3d,
  0xf2, 0xda, 0x1b, 0xbe, 0x2e, 0x6a, 0x01, 0x3e, 0xdd, 0x51, 0xc6, 0x3e,
  0xd1, 0x82, 0x55, 0xbe, 0x55, 0x5d, 0xa4, 0xbe, 0xcf, 0x05, 0xb4, 0x3d,
  0xb5, 0xe4, 0xa9, 0xbe, 0x16, 0xf7, 0xbb, 0x3d, 0x72, 0x23, 0xf1, 0xbd,
  0x58, 0xbf, 0x7d, 0xbe, 0x0a, 0xde, 0xc0, 0xbe, 0xc9, 0x8a, 0x13, 0x3b,
  0x6f, 0x20, 0xb0, 0xbb, 0x4d, 0x56, 0x9e, 0x3d, 0x2c, 0x99, 0xc2, 0x3c,
  0x73, 0xdc, 0xc1, 0x3c, 0x49, 0xf9, 0xe4, 0xbd, 0x8f, 0x1e, 0xc2, 0xbd,
  0xbb, 0x1d, 0xc2, 0x3e, 0x5c, 0x66, 0xb0, 0xbe, 0x53, 0x1d, 0x1e, 0xbf,
  0xb8, 0xee, 0xa0, 0xbd, 0x6d, 0x20, 0xae, 0xbe, 0xd9, 0xfa, 0xe7, 0xbb,
  0x5d, 0xee, 0xc3, 0x3c, 0x9d, 0xfe, 0xe5, 0xbd, 0x01, 0xb0, 0xcb, 0xbe,
  0x71, 0x15, 0x4f, 0x3d, 0x0b, 0x48, 0xa5, 0x3e, 0x51, 0xc5, 0x57, 0xbd,
  0x66, 0x0e, 0x25, 0x3e, 0xbb, 0x8e, 0x15, 0xbd, 0xab, 0xbd, 0x81, 0xbd,
  0xb2, 0x0f, 0x1d, 0x3d, 0xc4, 0x09, 0x01, 0x3f, 0x23, 0xb0, 0x3b, 0xbe,
  0xe9, 0xf1, 0xfb, 0xbe, 0xc8, 0xca, 0xf0, 0xbd, 0x71, 0xa9, 0x90, 0xbe,
  0xac, 0x28, 0x71, 0x3d, 0x5a, 0x54, 0x7b, 0xbc, 0x15, 0x55, 0x42, 0xbe,
  0x42, 0xba, 0x0d, 0xbe, 0xf9, 0x8b, 0xe8, 0x3d, 0x72, 0x36, 0x1e, 0xbd,
  0x27, 0x78, 0xe8, 0xbd, 0x9e, 0x9a, 0x1a, 0xbe, 0x0d, 0x38, 0xc9, 0xbd,
  0x58, 0x9d, 0x1d, 0x3e, 0x2a, 0x79, 0x55, 0x3e, 0xff, 0xec, 0x80, 0x3d,
  0xfb, 0x9a, 0x62, 0x3c, 0x42, 0x79, 0x8f, 0xbe, 0xd4, 0xad, 0xfb, 0xbd,
  0x00, 0xe7, 0x8e, 0xbd, 0x2d, 0x8f, 0x4d, 0xbb, 0x1c, 0xe6, 0x75, 0x3d,
  0x21, 0x5f, 0x8b, 0x3c, 0xb5, 0xba, 0x2d, 0xbd, 0x4d, 0x89, 0x8a, 0xbe,
  0x2f, 0x1f, 0xc0, 0x3d, 0xe2, 0x07, 0x80, 0xbc, 0xad, 0x5d, 0x4f, 0x3e,
  0x70, 0xf0, 0x61, 0xbe, 0x71, 0xf0, 0x90, 0xbe, 0xd7, 0xb2, 0xd6, 0xbd,
  0x23, 0xed, 0x2b, 0xbe, 0xb6, 0x9e, 0x09, 0x3d, 0x23, 0x65, 0x01, 0xbe,
  0x3e, 0x28, 0xcf, 0x3c, 0xcb, 0xd5, 0x1a, 0xbd, 0x30, 0x2f, 0x51, 0x3d,
  0x01, 0xe4, 0x01, 0x3d, 0xab, 0x87, 0x29, 0xbe, 0x43, 0x01, 0x1c, 0xbd,
  0xd3, 0xd8, 0x1c, 0xbe, 0xce, 0x84, 0x98, 0xbd, 0xe7, 0x80, 0xcc, 0xbd,
  0x58, 0xb4, 0x51, 0x3b, 0x5f, 0x8d, 0x9c, 0xbd, 0xa5, 0xc5, 0x20, 0x3d,
  0xc1, 0x61, 0x2f, 0xbd, 0x26, 0x2d, 0xfd, 0xbc, 0x23, 0xc7, 0x1a, 0x3e,
  0x25, 0x53, 0xc0, 0x3d, 0x08, 0x98, 0x75, 0xbd, 0x46, 0x73, 0xd7, 0x3d,
  0x5f, 0x19, 0x68, 0xbe, 0x9c, 0x43, 0x35, 0x3b, 0x0e, 0x06, 0xfc, 0xbc,
  0xdc, 0xdc, 0xf8, 0xbd, 0x69, 0x38, 0x55, 0x3d, 0x63, 0x94, 0x0a, 0x3e,
  0x4a, 0x08, 0xbf, 0xbc, 0x9c, 0x52, 0x37, 0x3e, 0x6c, 0x81, 0x08, 0xbe,
  0xfb, 0x65, 0x78, 0xbd, 0x04, 0x03, 0x8e, 0xbd, 0x49, 0xb8, 0xee, 0x3d,
  0xa3, 0x85, 0x41, 0x3d, 0x96, 0x9d, 0xdd, 0xbc, 0xd1, 0xf9, 0x01, 0x3b,
  0x6a, 0x1d, 0x37, 0xbe, 0xd7, 0x53, 0xba, 0xbd, 0x21, 0x33, 0xb1, 0x3d,
  0xb5, 0xa3, 0x46, 0xbe, 0x1f, 0xbf, 0x33, 0xbe, 0x03, 0xaf, 0x9a, 0xbc,
  0xc3, 0x3a, 0x55, 0xbd, 0x9d, 0x27, 0x19, 0xbe, 0xee, 0xc8, 0xd3, 0x3c,
  0x8f, 0x11, 0x70, 0xbe, 0x04, 0x4b, 0x6d, 0xbd, 0x6f, 0x89, 0x08, 0x3e,
  0xcc, 0x6f, 0xb0, 0x3d, 0xac, 0x63, 0x1a, 0x3d, 0x4d, 0x6b, 0xac, 0x3d,
  0xdd, 0x17, 0xe3, 0xbd, 0x76, 0x69, 0xf6, 0x3d, 0x55, 0xaf, 0x12, 0xbe,
  0xb7, 0x10, 0x67, 0x3d, 0x82, 0xcf, 0x39, 0xbe, 0xb5, 0x4a, 0x98, 0x3c,
  0xc9, 0xa0, 0x46, 0xbe, 0xa1, 0xad, 0xc4, 0xbd, 0xb9, 0x71, 0x6d, 0x3d,
  0x82, 0xeb, 0x66, 0xbd, 0x68, 0xbf, 0xb8, 0xbd, 0x75, 0xca, 0x41, 0x3e,
  0x02, 0x2f, 0xdb, 0x3c, 0x04, 0x28, 0x97, 0x3d, 0xc3, 0x92, 0x49, 0xbe,
  0x43, 0xd1, 0xde, 0xbd, 0xba, 0x9e, 0x93, 0xbd, 0xe5, 0x21, 0xbc, 0xbd,
  0xc4, 0xa8, 0xfb, 0xbc, 0x97, 0x2a, 0x45, 0x3e, 0x11, 0x06, 0x3f, 0xbe,
  0x4d, 0xce, 0x96, 0xbc, 0x8d, 0x25, 0x54, 0xbe, 0x7f, 0x33, 0x40, 0x3e,
  0xa4, 0x90, 0xdf, 0x3c, 0x09, 0xe5, 0xc7, 0x3d, 0x62, 0x83, 0x80, 0xbe,
  0x74, 0x2e, 0x12, 0xbe, 0x6e, 0x3a, 0xa2, 0x3d, 0x40, 0x5e, 0xb4, 0x3d,
  0x4d, 0xbc, 0x56, 0x3c, 0x9b, 0x43, 0xf6, 0xbd, 0xc3, 0x1d, 0x3a, 0x3e,
  0xec, 0xf7, 0xc7, 0xbc, 0xa3, 0x2d, 0xf3, 0xbd, 0x35, 0x76, 0x20, 0x3d,
  0x89, 0xa3, 0x38, 0xbd, 0x87, 0x06, 0x94, 0xbe, 0x0e, 0x13, 0x58, 0xbe,
  0x28, 0x51, 0x71, 0xbe, 0xc3, 0xf1, 0x08, 0x3e, 0xfc, 0x42, 0xab, 0xbe,
  0xf4, 0x12, 0x9c, 0xbd, 0x74, 0x83, 0x3a, 0xbd, 0xb9, 0xca, 0xb0, 0xbd,
  0x0d, 0x97, 0x9a, 0xbd, 0x06, 0xc1, 0xa6, 0xbd, 0x7b, 0xd7, 0x50, 0x3d,
  0xc1, 0x7f, 0x62, 0x3e, 0xa7, 0x73, 0x33, 0xbe, 0xe8, 0x2c, 0x77, 0x3e,
  0xef, 0xd0, 0xaf, 0x3e, 0x6e, 0xf4, 0x86, 0x3e, 0x33, 0x4a, 0xcd, 0x3c,
  0x5d, 0xf9, 0xab, 0x3d, 0x3b, 0xaa, 0x68, 0x3d, 0x73, 0x80, 0x28, 0xbe,
  0x68, 0x13, 0xea, 0x3d, 0xe7, 0x23, 0x31, 0x3d, 0x0a, 0x55, 0xa7, 0x3c,
  0x68, 0xc2, 0x06, 0x3e, 0x45, 0xfb, 0x09, 0xbe, 0x94, 0xd9, 0x8e, 0xbd,
  0x4c, 0x7a, 0x6a, 0xbe, 0x36, 0x29, 0xf0, 0x3d, 0x6c, 0xbe, 0x85, 0xbe,
  0x73, 0xb1, 0x04, 0x3e, 0x66, 0x90, 0x99, 0xbe, 0x84, 0x1a, 0xad, 0x3e,
  0xbd, 0xe0, 0xa4, 0x3d, 0x11, 0x8f, 0xee, 0xbc, 0x03, 0xab, 0xc5, 0x3d,
  0x80, 0xd0, 0xb2, 0xbe, 0xb2, 0x3b, 0xf9, 0x3d, 0x12, 0x6a, 0xfd, 0xbc,
  0xba, 0x65, 0xe4, 0x3c, 0x99, 0x57, 0x11, 0xbd, 0x22, 0x4c, 0xe4, 0xbd,
  0xea, 0x85, 0x41, 0x3e, 0x36, 0xfd, 0x06, 0xbf, 0x8b, 0xab, 0xd1, 0xbc,
  0x2d, 0xb3, 0x56, 0xbe, 0x82, 0x67, 0x50, 0xbe, 0x7e, 0xc7, 0x51, 0xbe,
  0xa3, 0xf0, 0xc8, 0xbd, 0x6c, 0xfc, 0x7f, 0x3e, 0x2a, 0x96, 0x47, 0x3c,
  0x9b, 0x90, 0x58, 0xbe, 0x46, 0xb7, 0x83, 0xbe, 0xec, 0xaa, 0x5e, 0x3e,
  0x80, 0xb4, 0x16, 0xbd, 0x1f, 0xbe, 0x7b, 0xbe, 0x0d, 0x8f, 0x1d, 0xbf,
  0x8a, 0x88, 0xa6, 0x3d, 0x01, 0xd3, 0x68, 0x3b, 0xc9, 0x18, 0xfe, 0xbe,
  0x61, 0x9b, 0x07, 0xbe, 0x54, 0x7e, 0x5f, 0xbd, 0x6a, 0x0d, 0xbb, 0xbe,
  0x79, 0xb4, 0xa0, 0xbe, 0x47, 0xe4, 0x3a, 0xbe, 0x8c, 0x9f, 0x27, 0xbf,
  0xfe, 0x1e, 0x91, 0xbe, 0xff, 0xde, 0x86, 0xbd, 0x0f, 0xa6, 0x9e, 0xbd,
  0x6b, 0x39, 0x02, 0x3e, 0x34, 0x42, 0x3f, 0xbd, 0x46, 0xab, 0xe8, 0x3d,
  0xe3, 0x18, 0x20, 0xbe, 0xe9, 0x29, 0x29, 0xbd, 0x43, 0xae, 0x69, 0xbd,
  0xfc, 0x8f, 0xf5, 0xbd, 0xd9, 0x20, 0x4b, 0xbe, 0x03, 0xe1, 0xfb, 0xbd,
  0xb8, 0x96, 0xc8, 0x3b, 0x96, 0xce, 0x5a, 0x3d, 0x6b, 0xee, 0xe6, 0x3d,
  0x48, 0x76, 0x24, 0x3c, 0xd4, 0x35, 0x97, 0xbe, 0x78, 0x5e, 0x66, 0xbe,
  0xcf, 0x6c, 0x1d, 0xbe, 0x53, 0x47, 0x87, 0x3e, 0xbc, 0xf4, 0x8d, 0xbd,
  0xc4, 0xd8, 0x95, 0xbd, 0x0d, 0x42, 0x46, 0xbe, 0xfd, 0x54, 0x23, 0x3d,
  0xa2, 0x32, 0xda, 0x3d, 0x70, 0xd6, 0x8e, 0x3b, 0x11, 0xcb, 0x4b, 0xbe,
  0x27, 0xec, 0xe3, 0x3c, 0x50, 0xf8, 0x47, 0xbe, 0x6d, 0x36, 0x89, 0xbe,
  0x53, 0x62, 0xfd, 0xbd, 0x4c, 0xbb, 0x9d, 0xbe, 0x94, 0x36, 0x45, 0xbc,
  0x00, 0x35, 0x9a, 0xbd, 0x38, 0x80, 0x45, 0xbe, 0xf0, 0x2c, 0x1f, 0xbd,
  0x1c, 0x27, 0x19, 0xbd, 0x15, 0x20, 0x91, 0xbc, 0xa8, 0xad, 0xaa, 0x3c,
  0x9b, 0x67, 0xa2, 0x3c, 0xc4, 0xea, 0xa0, 0xbd, 0x52, 0xa8, 0xa3, 0x3d,
  0xa1, 0x2f, 0x04, 0xbe, 0x9d, 0x0c, 0x76, 0x3e, 0x65, 0x25, 0x92, 0xbd,
  0xb4, 0xe3, 0x47, 0x3d, 0xd7, 0x84, 0xcd, 0x3e, 0xfd, 0xbf, 0xa2, 0xbd,
  0xec, 0x2e, 0x54, 0xbe, 0x1b, 0xc2, 0x01, 0xbd, 0x03, 0xe2, 0xb2, 0xbe,
  0x2f, 0x96, 0xc5, 0x3d, 0x26, 0x45, 0x0e, 0x3d, 0x4a, 0x6e, 0x56, 0x3e,
  0xbf, 0xa6, 0x43, 0x3d, 0xbf, 0xbb, 0xbd, 0x3e, 0x0d, 0x1c, 0xe8, 0x3d,
  0x8a, 0x97, 0x5e, 0xbd, 0xda, 0x29, 0x0d, 0xbe, 0xb7, 0xd1, 0xee, 0x3d,
  0x8a, 0xa0, 0x83, 0xbe, 0x11, 0xc7, 0x0c, 0xbe, 0xf0, 0xb5, 0xb0, 0xbe,
  0xdf, 0x1b, 0x8f, 0xbc, 0xf9, 0x4b, 0x26, 0xbf, 0x54, 0x7f, 0x99, 0xbd,
  0xba, 0x69, 0x42, 0xbd, 0x2e, 0x27, 0xa9, 0x3d, 0xb1, 0x23, 0x2a, 0xbd,
  0x21, 0x9d, 0x3c, 0x3d, 0xc7, 0x1e, 0x3b, 0xbe, 0xfa, 0x51, 0x7d, 0xbc,
  0x70, 0x48, 0xdd, 0x3f, 0x95, 0x5c, 0xa8, 0x3e, 0x5a, 0x84, 0x3e, 0xbc,
  0x3e, 0xa1, 0xcd, 0x3e, 0xbd, 0xde, 0xa4, 0xbe, 0xc9, 0xca, 0x6a, 0x3e,
  0x40, 0xf4, 0x92, 0xbe, 0xca, 0x5f, 0x4d, 0xbd, 0xaf, 0xe6, 0x35, 0xbe,
  0x1e, 0x9a, 0x6e, 0xbd, 0xd7, 0xb2, 0x99, 0x3d, 0x73, 0x29, 0xe8, 0x3b,
  0xe0, 0x47, 0x3f, 0xba, 0xae, 0x42, 0x40, 0x3d, 0x9f, 0x39, 0xa2, 0x3d,
  0xf1, 0x3a, 0x1a, 0xbd, 0xe4, 0x6e, 0xc2, 0x3f, 0x6f, 0xd2, 0x0a, 0x3f,
  0x17, 0xdc, 0x5c, 0xbc, 0x37, 0xd9, 0xef, 0x3e, 0x7d, 0x56, 0x41, 0xbe,
  0x1b, 0x47, 0x18, 0x3e, 0x47, 0xf9, 0x45, 0x3c, 0x1b, 0xd5, 0x0e, 0xbd,
  0x87, 0xd7, 0x2e, 0xbd, 0x8d, 0xb7, 0x1f, 0xbd, 0x8f, 0x93, 0xf2, 0xbe,
  0xe8, 0x0d, 0x3b, 0x3e, 0xca, 0x4a, 0x38, 0x3d, 0x85, 0xcb, 0x17, 0x3e,
  0x76, 0xbb, 0x42, 0x3e, 0x37, 0x9a, 0x7c, 0xbe, 0x0e, 0x10, 0xba, 0x3f,
  0xa0, 0x98, 0xd3, 0x3e, 0xac, 0x1d, 0x03, 0xbd, 0xcc, 0x63, 0x09, 0x3e,
  0xe6, 0xb0, 0x8f, 0xbe, 0xd5, 0xea, 0x82, 0x3c, 0x44, 0x83, 0x16, 0x3e,
  0x61, 0x36, 0x36, 0x3f, 0x4d, 0x41, 0xd0, 0x3d, 0xb3, 0xbc, 0xa8, 0x3d,
  0xd8, 0x69, 0x59, 0xbf, 0x5e, 0xe1, 0x17, 0x3e, 0xd3, 0x11, 0x84, 0x3c,
  0x2e, 0xa8, 0x8b, 0x3e, 0xe6, 0xbe, 0x55, 0x3e, 0xdc, 0xea, 0x24, 0x3d,
  0xf5, 0x6d, 0x9a, 0x3f, 0x83, 0xbc, 0x37, 0x3e, 0x66, 0x9d, 0xe2, 0x3c,
  0xb3, 0x57, 0xfd, 0xbd, 0x35, 0xfc, 0x76, 0xbd, 0xe9, 0x57, 0xc7, 0xbe,
  0x44, 0x9e, 0xfe, 0xbe, 0x65, 0xa5, 0xc6, 0x3e, 0x50, 0x9e, 0x6f, 0xbe,
  0x63, 0xc6, 0xa7, 0x3c, 0x63, 0x39, 0xa5, 0xbe, 0x50, 0xf5, 0x06, 0x3d,
  0x46, 0x56, 0x9d, 0xbb, 0x5d, 0x25, 0x64, 0x3e, 0x49, 0x09, 0x2e, 0x3e,
  0x52, 0x90, 0xa5, 0xbd, 0x21, 0x1f, 0x24, 0x40, 0x13, 0xd6, 0x00, 0x3e,
  0xc0, 0x98, 0x38, 0x3d, 0xc2, 0xac, 0x3f, 0x3c, 0xd2, 0xd0, 0x04, 0xbf,
  0x24, 0x38, 0x85, 0xbe, 0x22, 0x65, 0xd1, 0xbe, 0x08, 0x3d, 0x71, 0x3d,
  0x12, 0x7d, 0x2c, 0xbe, 0x82, 0x0c, 0xfd, 0x3c, 0x30, 0x9b, 0x16, 0xbe,
  0xa4, 0xc1, 0xe6, 0xbd, 0x26, 0x43, 0x1d, 0xbc, 0xff, 0x09, 0x92, 0x3d,
  0xfd, 0xaf, 0x15, 0x3c, 0xdb, 0x33, 0xd5, 0xbb, 0xe0, 0x06, 0x14, 0x40,
  0x6f, 0x43, 0x9b, 0x3d, 0xbd, 0xb9, 0xad, 0xbd, 0x61, 0x58, 0xb5, 0x3b,
  0x99, 0x49, 0x48, 0xbe, 0x46, 0xe0, 0x22, 0x3e, 0x4e, 0x90, 0x89, 0xbe,
  0xd8, 0xc2, 0xb8, 0x3c, 0xcf, 0x92, 0xcc, 0xbd, 0xc0, 0xe9, 0xf1, 0x3d,
  0x98, 0x45, 0x4e, 0xbe, 0xba, 0x4a, 0x77, 0x3e, 0xad, 0x24, 0x33, 0x3d,
  0x84, 0x72, 0x87, 0xbe, 0xac, 0x59, 0xdd, 0xbe, 0xd9, 0xd7, 0xa1, 0x3e,
  0x86, 0x71, 0xbc, 0x3e, 0x46, 0xf2, 0x52, 0x3d, 0x20, 0x6f, 0xad, 0x3d,
  0x7b, 0x27, 0x15, 0x3e, 0x6b, 0x89, 0xc8, 0xbe, 0x5f, 0x60, 0xed, 0xbb,
  0x10, 0x03, 0xae, 0xbe, 0x60, 0x54, 0xda, 0xbe, 0x9c, 0x13, 0xb7, 0x3d,
  0x57, 0xa5, 0xbb, 0x3e, 0x92, 0x34, 0x0a, 0xbe, 0x38, 0xe4, 0x21, 0x3e,
  0x86, 0xb2, 0x41, 0x3d, 0x90, 0x68, 0x00, 0xbf, 0x0f, 0x5a, 0x80, 0x3d,
  0x76, 0x29, 0xa7, 0x3e, 0xa2, 0x17, 0x22, 0xbe, 0xa3, 0x2c, 0xb0, 0xbc,
  0xf1, 0xd7, 0xb4, 0x3d, 0xb5, 0x89, 0xee, 0xbe, 0x2f, 0xba, 0x42, 0x3e,
  0xe8, 0x7f, 0x30, 0x3e, 0x7e, 0xc9, 0xf7, 0xbb, 0x33, 0x30, 0xa4, 0xbd,
  0x2f, 0x71, 0x7b, 0x3e, 0xe8, 0x4c, 0x88, 0x3e, 0x26, 0x0a, 0x31, 0x3d,
  0xfd, 0xc8, 0x88, 0x3c, 0x1f, 0x46, 0x85, 0x3d, 0x04, 0x8a, 0xe1, 0xbd,
  0xfa, 0xda, 0x8d, 0xbd, 0x7d, 0xce, 0xff, 0xbb, 0xc4, 0xe6, 0x19, 0xbe,
  0xa8, 0x44, 0xec, 0xbd, 0x44, 0x37, 0x97, 0x3d, 0x03, 0x35, 0x90, 0xbd,
  0x3a, 0xa6, 0x5e, 0x3e, 0xf2, 0x61, 0xbb, 0x3c, 0x4f, 0xcd, 0xf8, 0x3d,
  0x05, 0xc4, 0x24, 0xbe, 0x70, 0xfb, 0x25, 0x3d, 0x32, 0x06, 0xcc, 0x3e,
  0x14, 0x4a, 0x8c, 0x3e, 0x4c, 0x35, 0xfe, 0x3d, 0x1d, 0xa4, 0x25, 0x3d,
  0x5a, 0x4a, 0x9a, 0xbd, 0x59, 0x6a, 0x76, 0xbe, 0x43, 0xe3, 0x94, 0x3e,
  0xf6, 0xc9, 0x03, 0xbe, 0x74, 0x1a, 0x87, 0xbd, 0x7d, 0xb7, 0x19, 0x3e,
  0x78, 0xaa, 0x00, 0xbe, 0x7e, 0x7c, 0xaa, 0x3c, 0x2a, 0x14, 0xc0, 0x3e,
  0xd2, 0x51, 0x59, 0xbc, 0x6e, 0x62, 0x88, 0xbc, 0x0d, 0x3b, 0x10, 0x3e,
  0x40, 0x69, 0xc5, 0x3e, 0x5a, 0x60, 0x06, 0xbe, 0x0f, 0xd0, 0xc9, 0x3d,
  0x9a, 0x66, 0x06, 0x3d, 0xf7, 0xb1, 0x56, 0x3d, 0xed, 0xc7, 0xe0, 0xbd,
  0xe7, 0x3c, 0xb3, 0x3e, 0xc4, 0x3c, 0x6b, 0xbe, 0xbd, 0x2e, 0x60, 0xbe,
  0x08, 0x31, 0x11, 0x3e, 0x68, 0x78, 0x9f, 0xbe, 0xc5, 0xe7, 0x41, 0x3c,
  0x69, 0x7a, 0x02, 0x3e, 0x01, 0xb6, 0x1f, 0xbe, 0x21, 0x85, 0xc1, 0xbc,
  0x3b, 0xa5, 0x7e, 0x3e, 0xda, 0xd8, 0x92, 0x3d, 0x16, 0xb9, 0x0c, 0xbf,
  0x17, 0x85, 0xfc, 0x3d, 0x83, 0x62, 0x27, 0x3d, 0x62, 0x4c, 0xd7, 0xbd,
  0xe3, 0x36, 0x96, 0xbe, 0xc6, 0x60, 0xf6, 0x3e, 0x5a, 0xb1, 0x85, 0xbe,
  0xd6, 0x01, 0x05, 0xbf, 0x6d, 0x3b, 0x91, 0x3c, 0x46, 0xb3, 0x9b, 0xbe,
  0x7b, 0x27, 0x1c, 0x3e, 0xe8, 0xf0, 0x4e, 0x3e, 0x50, 0xa5, 0x5a, 0xbe,
  0x57, 0x40, 0x8c, 0xbe, 0x59, 0x83, 0x6d, 0x3d, 0xa3, 0xfb, 0xa4, 0x3e,
  0x2c, 0x22, 0x40, 0xbe, 0x8d, 0x42, 0x0e, 0x3e, 0x30, 0xaf, 0xd8, 0xbc,
  0x51, 0xb0, 0xe0, 0xbc, 0x18, 0x55, 0x3d, 0x3b, 0xd4, 0xba, 0x8c, 0x3e,
  0x67, 0x66, 0x8f, 0x3c, 0x65, 0xf6, 0xa0, 0xbe, 0x10, 0x04, 0x9b, 0x3d,
  0x6b, 0xb6, 0x01, 0xbe, 0xd3, 0x87, 0x60, 0xbd, 0x8e, 0x6f, 0xbf, 0xbe,
  0x0a, 0xd0, 0x0e, 0xbe, 0xea, 0x21, 0x98, 0xbd, 0x98, 0xd5, 0xcd, 0x3d,
  0x66, 0xfd, 0xff, 0xff, 0x10, 0x00, 0x00, 0x00, 0x07, 0x00, 0x00, 0x00,
  0x14, 0x00, 0x00, 0x00, 0x2c, 0x00, 0x00, 0x00, 0x02, 0x00, 0x00, 0x00,
  0x10, 0x00, 0x00, 0x00, 0x70, 0x00, 0x00, 0x00, 0x17, 0x00, 0x00, 0x00,
  0x73, 0x65, 0x71, 0x75, 0x65, 0x6e, 0x74, 0x69, 0x61, 0x6c, 0x2f, 0x64,
  0x65, 0x6e, 0x73, 0x65, 0x2f, 0x4d, 0x61, 0x74, 0x4d, 0x75, 0x6c, 0x00,
  0xd0, 0xfc, 0xff, 0xff, 0xda, 0xfd, 0xff, 0xff, 0x04, 0x00, 0x00, 0x00,
  0x08, 0x00, 0x00, 0x00, 0xff, 0xff, 0xff, 0xff, 0x70, 0x00, 0x00, 0x00,
  0x00, 0x00, 0x0e, 0x00, 0x18, 0x00, 0x08, 0x00, 0x07, 0x00, 0x0c, 0x00,
  0x10, 0x00, 0x14, 0x00, 0x0e, 0x00, 0x00, 0x00, 0x00, 0x00, 0x00, 0x02,
  0x10, 0x00, 0x00, 0x00, 0x06, 0x00, 0x00, 0x00, 0x10, 0x00, 0x00, 0x00,
  0x2c, 0x00, 0x00, 0x00, 0x01, 0x00, 0x00, 0x00, 0x02, 0x00, 0x00, 0x00,
  0x18, 0x00, 0x00, 0x00, 0x73, 0x65, 0x71, 0x75, 0x65, 0x6e, 0x74, 0x69,
  0x61, 0x6c, 0x2f, 0x66, 0x6c, 0x61, 0x74, 0x74, 0x65, 0x6e, 0x2f, 0x43,
  0x6f, 0x6e, 0x73, 0x74, 0x00, 0x00, 0x00, 0x00, 0x38, 0xfd, 0xff, 0xff,
  0x42, 0xfe, 0xff, 0xff, 0x04, 0x00, 0x00, 0x00, 0x0c, 0x00, 0x00, 0x00,
  0xde, 0xfe, 0x88, 0xbf, 0x4e, 0xcc, 0xb8, 0x3e, 0x68, 0x99, 0xbe, 0x3e,
  0x26, 0xfe, 0xff, 0xff, 0x10, 0x00, 0x00, 0x00, 0x05, 0x00, 0x00, 0x00,
  0x10, 0x00, 0x00, 0x00, 0x44, 0x00, 0x00, 0x00, 0x01, 0x00, 0x00, 0x00,
  0x03, 0x00, 0x00, 0x00, 0x32, 0x00, 0x00, 0x00, 0x73, 0x65, 0x71, 0x75,
  0x65, 0x6e, 0x74, 0x69, 0x61, 0x6c, 0x2f, 0x64, 0x65, 0x6e, 0x73, 0x65,
  0x5f, 0x31, 0x2f, 0x42, 0x69, 0x61, 0x73, 0x41, 0x64, 0x64, 0x2f, 0x52,
  0x65, 0x61, 0x64, 0x56, 0x61, 0x72, 0x69, 0x61, 0x62, 0x6c, 0x65, 0x4f,
  0x70, 0x2f, 0x72, 0x65, 0x73, 0x6f, 0x75, 0x72, 0x63, 0x65, 0x00, 0x00,
  0xa8, 0xfd, 0xff, 0xff, 0xb2, 0xfe, 0xff, 0xff, 0x04, 0x00, 0x00, 0x00,
  0x40, 0x00, 0x00, 0x00, 0x0a, 0x88, 0x03, 0xbe, 0x0a, 0x0d, 0x0a, 0xbf,
  0xed, 0x4d, 0x02, 0x3e, 0x5e, 0xd1, 0x15, 0x3e, 0x70, 0x46, 0x79, 0x40,
  0x5f, 0x07, 0x01, 0xbf, 0x04, 0xc5, 0xa1, 0xbe, 0xc1, 0x87, 0x1d, 0xbe,
  0x65, 0x12, 0x1b, 0xbf, 0x13, 0x9f, 0x0a, 0xbe, 0x27, 0xfa, 0xe7, 0xbd,
  0xb3, 0x5e, 0x86, 0x40, 0xbe, 0xe9, 0xcf, 0xbd, 0xbf, 0xda, 0x98, 0xbf,
  0xc0, 0x73, 0x24, 0x40, 0xe0, 0x36, 0x6d, 0x40, 0xca, 0xfe, 0xff, 0xff,
  0x10, 0x00, 0x00, 0x00, 0x04, 0x00, 0x00, 0x00, 0x10, 0x00, 0x00, 0x00,
  0x44, 0x00, 0x00, 0x00, 0x01, 0x00, 0x00, 0x00, 0x10, 0x00, 0x00, 0x00,
  0x30, 0x00, 0x00, 0x00, 0x73, 0x65, 0x71, 0x75, 0x65, 0x6e, 0x74, 0x69,
  0x61, 0x6c, 0x2f, 0x64, 0x65, 0x6e, 0x73, 0x65, 0x2f, 0x42, 0x69, 0x61,
  0x73, 0x41, 0x64, 0x64, 0x2f, 0x52, 0x65, 0x61, 0x64, 0x56, 0x61, 0x72,
  0x69, 0x61, 0x62, 0x6c, 0x65, 0x4f, 0x70, 0x2f, 0x72, 0x65, 0x73, 0x6f,
  0x75, 0x72, 0x63, 0x65, 0x00, 0x00, 0x00, 0x00, 0x4c, 0xfe, 0xff, 0xff,
  0x56, 0xff, 0xff, 0xff, 0x04, 0x00, 0x00, 0x00, 0x40, 0x00, 0x00, 0x00,
  0x18, 0x31, 0x5c, 0x3f, 0xfb, 0x09, 0xf7, 0xbe, 0x81, 0x31, 0x95, 0x3f,
  0x05, 0xa6, 0x00, 0x40, 0x83, 0xdc, 0xc1, 0xbf, 0x15, 0x88, 0xc8, 0x3f,
  0x5e, 0x81, 0x08, 0x3f, 0x5c, 0x70, 0xd1, 0x40, 0xcc, 0x8d, 0x2b, 0x40,
  0x13, 0x76, 0xf5, 0x3e, 0x94, 0xf4, 0x3e, 0xbf, 0xac, 0xba, 0xb7, 0xbf,
  0xe1, 0xf2, 0x1f, 0xbf, 0xef, 0xe1, 0xf9, 0xbf, 0x18, 0x18, 0x44, 0xc0,
  0x03, 0x40, 0xcc, 0x3e, 0x6e, 0xff, 0xff, 0xff, 0x10, 0x00, 0x00, 0x00,
  0x03, 0x00, 0x00, 0x00, 0x10, 0x00, 0x00, 0x00, 0x48, 0x00, 0x00, 0x00,
  0x01, 0x00, 0x00, 0x00, 0x10, 0x00, 0x00, 0x00, 0x33, 0x00, 0x00, 0x00,
  0x73, 0x65, 0x71, 0x75, 0x65, 0x6e, 0x74, 0x69, 0x61, 0x6c, 0x2f, 0x63,
  0x6f, 0x6e, 0x76, 0x32, 0x64, 0x5f, 0x31, 0x2f, 0x42, 0x69, 0x61, 0x73,
  0x41, 0x64, 0x64, 0x2f, 0x52, 0x65, 0x61, 0x64, 0x56, 0x61, 0x72, 0x69,
  0x61, 0x62, 0x6c, 0x65, 0x4f, 0x70, 0x2f, 0x72, 0x65, 0x73, 0x6f, 0x75,
  0x72, 0x63, 0x65, 0x00, 0x04, 0x00, 0x06, 0x00, 0x04, 0x00, 0x00, 0x00,
  0x00, 0x00, 0x06, 0x00, 0x08, 0x00, 0x04, 0x00, 0x06, 0x00, 0x00, 0x00,
  0x04, 0x00, 0x00, 0x00, 0x20, 0x00, 0x00, 0x00, 0xbc, 0xbe, 0x29, 0xc0,
  0xfc, 0xa0, 0x43, 0xbe, 0x1f, 0x75, 0x0b, 0xbf, 0x85, 0x29, 0x2a, 0xc0,
  0xb1, 0x7b, 0xe6, 0xbf, 0x91, 0x2d, 0x57, 0xbf, 0x1d, 0x8e, 0x30, 0xc0,
  0xe2, 0x99, 0x12, 0x3e, 0x00, 0x00, 0x0e, 0x00, 0x14, 0x00, 0x04, 0x00,
  0x00, 0x00, 0x08, 0x00, 0x0c, 0x00, 0x10, 0x00, 0x0e, 0x00, 0x00, 0x00,
  0x10, 0x00, 0x00, 0x00, 0x02, 0x00, 0x00, 0x00, 0x10, 0x00, 0x00, 0x00,
  0x44, 0x00, 0x00, 0x00, 0x01, 0x00, 0x00, 0x00, 0x08, 0x00, 0x00, 0x00,
  0x31, 0x00, 0x00, 0x00, 0x73, 0x65, 0x71, 0x75, 0x65, 0x6e, 0x74, 0x69,
  0x61, 0x6c, 0x2f, 0x63, 0x6f, 0x6e, 0x76, 0x32, 0x64, 0x2f, 0x42, 0x69,
  0x61, 0x73, 0x41, 0x64, 0x64, 0x2f, 0x52, 0x65, 0x61, 0x64, 0x56, 0x61,
  0x72, 0x69, 0x61, 0x62, 0x6c, 0x65, 0x4f, 0x70, 0x2f, 0x72, 0x65, 0x73,
  0x6f, 0x75, 0x72, 0x63, 0x65, 0x00, 0x00, 0x00, 0x90, 0xff, 0xff, 0xff,
  0x14, 0x00, 0x18, 0x00, 0x04, 0x00, 0x00, 0x00, 0x08, 0x00, 0x0c, 0x00,
  0x10, 0x00, 0x00, 0x00, 0x00, 0x00, 0x14, 0x00, 0x14, 0x00, 0x00, 0x00,
  0x14, 0x00, 0x00, 0x00, 0x01, 0x00, 0x00, 0x00, 0x20, 0x00, 0x00, 0x00,
  0x44, 0x00, 0x00, 0x00, 0x2c, 0x00, 0x00, 0x00, 0x04, 0x00, 0x00, 0x00,
  0x01, 0x00, 0x00, 0x00, 0x40, 0x00, 0x00, 0x00, 0x03, 0x00, 0x00, 0x00,
  0x01, 0x00, 0x00, 0x00, 0x0c, 0x00, 0x00, 0x00, 0x63, 0x6f, 0x6e, 0x76,
  0x32, 0x64, 0x5f, 0x69, 0x6e, 0x70, 0x75, 0x74, 0x00, 0x00, 0x00, 0x00,
  0x04, 0x00, 0x00, 0x00, 0xff, 0xff, 0xff, 0xff, 0x40, 0x00, 0x00, 0x00,
  0x03, 0x00, 0x00, 0x00, 0x01, 0x00, 0x00, 0x00, 0xfc, 0xff, 0xff, 0xff,
  0x04, 0x00, 0x04, 0x00, 0x04, 0x00, 0x00, 0x00
};

unsigned int model_tflite_len = 13052;// Fill the int in `src/model.cc` here